{
  "version": "1.0",
  "truncation": null,
  "padding": null,
  "added_tokens": [
    {
      "id": 0,
      "content": "[UNK]",
      "single_word": false,
      "lstrip": false,
      "rstrip": false,
      "normalized": false,
      "special": true
    },
    {
      "id": 1,
      "content": "[CLS]",
      "single_word": false,
      "lstrip": false,
      "rstrip": false,
      "normalized": false,
      "special": true
    },
    {
      "id": 2,
      "content": "[SEP]",
      "single_word": false,
      "lstrip": false,
      "rstrip": false,
      "normalized": false,
      "special": true
    },
    {
      "id": 3,
      "content": "[PAD]",
      "single_word": false,
      "lstrip": false,
      "rstrip": false,
      "normalized": false,
      "special": true
    },
    {
      "id": 4,
      "content": "[MASK]",
      "single_word": false,
      "lstrip": false,
      "rstrip": false,
      "normalized": false,
      "special": true
    },
    {
      "id": 5,
      "content": "[BOS]",
      "single_word": false,
      "lstrip": false,
      "rstrip": false,
      "normalized": false,
      "special": true
    },
    {
      "id": 6,
      "content": "[EOS]",
      "single_word": false,
      "lstrip": false,
      "rstrip": false,
      "normalized": false,
      "special": true
    }
  ],
  "normalizer": null,
  "pre_tokenizer": {
    "type": "Digits",
    "individual_digits": false
  },
  "post_processor": {
    "type": "TemplateProcessing",
    "single": [
      {
        "SpecialToken": {
          "id": "[BOS]",
          "type_id": 0
        }
      },
      {
        "Sequence": {
          "id": "A",
          "type_id": 0
        }
      },
      {
        "SpecialToken": {
          "id": "[EOS]",
          "type_id": 0
        }
      }
    ],
    "pair": [
      {
        "Sequence": {
          "id": "A",
          "type_id": 0
        }
      },
      {
        "Sequence": {
          "id": "B",
          "type_id": 1
        }
      }
    ],
    "special_tokens": {
      "[BOS]": {
        "id": "[BOS]",
        "ids": [
          5
        ],
        "tokens": [
          "[BOS]"
        ]
      },
      "[EOS]": {
        "id": "[EOS]",
        "ids": [
          6
        ],
        "tokens": [
          "[EOS]"
        ]
      }
    }
  },
  "decoder": {
    "type": "ByteLevel",
    "add_prefix_space": true,
    "trim_offsets": true,
    "use_regex": true
  },
  "model": {
    "type": "BPE",
    "dropout": null,
    "unk_token": "[UNK]",
    "continuing_subword_prefix": null,
    "end_of_word_suffix": null,
    "fuse_unk": false,
    "byte_fallback": false,
    "vocab": {
      "[UNK]": 0,
      "[CLS]": 1,
      "[SEP]": 2,
      "[PAD]": 3,
      "[MASK]": 4,
      "[BOS]": 5,
      "[EOS]": 6,
      "!": 7,
      "0": 8,
      "1": 9,
      "2": 10,
      "3": 11,
      "4": 12,
      "5": 13,
      "6": 14,
      "7": 15,
      "8": 16,
      "9": 17,
      "@": 18,
      "A": 19,
      "B": 20,
      "C": 21,
      "D": 22,
      "E": 23,
      "F": 24,
      "G": 25,
      "H": 26,
      "I": 27,
      "J": 28,
      "K": 29,
      "L": 30,
      "M": 31,
      "N": 32,
      "O": 33,
      "P": 34,
      "Q": 35,
      "R": 36,
      "S": 37,
      "T": 38,
      "U": 39,
      "V": 40,
      "W": 41,
      "X": 42,
      "Y": 43,
      "Z": 44,
      "a": 45,
      "b": 46,
      "c": 47,
      "d": 48,
      "e": 49,
      "f": 50,
      "g": 51,
      "h": 52,
      "i": 53,
      "j": 54,
      "k": 55,
      "l": 56,
      "m": 57,
      "n": 58,
      "o": 59,
      "p": 60,
      "q": 61,
      "r": 62,
      "s": 63,
      "t": 64,
      "u": 65,
      "v": 66,
      "w": 67,
      "x": 68,
      "y": 69,
      "z": 70,
      "NN": 71,
      "22": 72,
      "Js": 73,
      "WW": 74,
      "24": 75,
      "Wt": 76,
      "NZ": 77,
      "ll": 78,
      "Nn": 79,
      "sW": 80,
      "re": 81,
      "Ws": 82,
      "wI": 83,
      "Ne": 84,
      "lJ": 85,
      "ah": 86,
      "Nd": 87,
      "Ns": 88,
      "21": 89,
      "tr": 90,
      "WN": 91,
      "qD": 92,
      "84": 93,
      "nZ": 94,
      "ls": 95,
      "tt": 96,
      "aa": 97,
      "ww": 98,
      "11": 99,
      "WZ": 100,
      "Iw": 101,
      "tZ": 102,
      "nI": 103,
      "We": 104,
      "bn": 105,
      "Wa": 106,
      "26": 107,
      "82": 108,
      "Nw": 109,
      "44": 110,
      "ss": 111,
      "al": 112,
      "bO": 113,
      "tN": 114,
      "nw": 115,
      "bD": 116,
      "nO": 117,
      "aW": 118,
      "tW": 119,
      "nr": 120,
      "42": 121,
      "Iq": 122,
      "cw": 123,
      "II": 124,
      "lh": 125,
      "Jq": 126,
      "Nr": 127,
      "Wh": 128,
      "su": 129,
      "bc": 130,
      "nN": 131,
      "62": 132,
      "lW": 133,
      "lq": 134,
      "Cq": 135,
      "bB": 136,
      "ds": 137,
      "12": 138,
      "Nq": 139,
      "mn": 140,
      "Nb": 141,
      "DD": 142,
      "rz": 143,
      "Ow": 144,
      "eh": 145,
      "sa": 146,
      "Iz": 147,
      "na": 148,
      "qO": 149,
      "Bw": 150,
      "lV": 151,
      "Is": 152,
      "78": 153,
      "Wb": 154,
      "dh": 155,
      "Wd": 156,
      "cc": 157,
      "mD": 158,
      "wZ": 159,
      "ts": 160,
      "Wr": 161,
      "eN": 162,
      "nc": 163,
      "at": 164,
      "nq": 165,
      "WO": 166,
      "16": 167,
      "Zl": 168,
      "27": 169,
      "JN": 170,
      "bw": 171,
      "nt": 172,
      "18": 173,
      "DO": 174,
      "Nl": 175,
      "Eq": 176,
      "Nz": 177,
      "sr": 178,
      "nB": 179,
      "AN": 180,
      "eT": 181,
      "Ie": 182,
      "ar": 183,
      "sZ": 184,
      "wl": 185,
      "64": 186,
      "Te": 187,
      "aN": 188,
      "JZ": 189,
      "Db": 190,
      "st": 191,
      "qq": 192,
      "IB": 193,
      "41": 194,
      "an": 195,
      "Ww": 196,
      "OO": 197,
      "rN": 198,
      "BB": 199,
      "gI": 200,
      "lN": 201,
      "JW": 202,
      "ID": 203,
      "lr": 204,
      "bR": 205,
      "lw": 206,
      "aJ": 207,
      "dr": 208,
      "lZ": 209,
      "cN": 210,
      "Vs": 211,
      "te": 212,
      "mB": 213,
      "ZZ": 214,
      "68": 215,
      "WD": 216,
      "zB": 217,
      "ZQ": 218,
      "bN": 219,
      "DN": 220,
      "ba": 221,
      "Dh": 222,
      "IZ": 223,
      "qW": 224,
      "cB": 225,
      "QN": 226,
      "624": 227,
      "qg": 228,
      "la": 229,
      "!s": 230,
      "Zd": 231,
      "tw": 232,
      "WV": 233,
      "sq": 234,
      "bb": 235,
      "NQ": 236,
      "Dc": 237,
      "qa": 238,
      "Jr": 239,
      "fc": 240,
      "ns": 241,
      "ng": 242,
      "61": 243,
      "fB": 244,
      "sS": 245,
      "Cw": 246,
      "Ig": 247,
      "bg": 248,
      "Cs": 249,
      "aV": 250,
      "DB": 251,
      "Dw": 252,
      "ON": 253,
      "Wq": 254,
      "IN": 255,
      "Jt": 256,
      "nU": 257,
      "Je": 258,
      "lt": 259,
      "Aa": 260,
      "14": 261,
      "cd": 262,
      "zq": 263,
      "zh": 264,
      "IO": 265,
      "zN": 266,
      "ld": 267,
      "qt": 268,
      "et": 269,
      "wQ": 270,
      "Un": 271,
      "Dg": 272,
      "Ic": 273,
      "Jw": 274,
      "qs": 275,
      "Wc": 276,
      "ZN": 277,
      "Da": 278,
      "48": 279,
      "Dq": 280,
      "!N": 281,
      "oB": 282,
      "Gd": 283,
      "At": 284,
      "zc": 285,
      "Wu": 286,
      "EE": 287,
      "81": 288,
      "mO": 289,
      "Fn": 290,
      "es": 291,
      "fN": 292,
      "hs": 293,
      "72": 294,
      "bm": 295,
      "rr": 296,
      "WB": 297,
      "wN": 298,
      "lA": 299,
      "vO": 300,
      "nl": 301,
      "Oc": 302,
      "QZ": 303,
      "dV": 304,
      "SW": 305,
      "qB": 306,
      "ta": 307,
      "OB": 308,
      "oc": 309,
      "eW": 310,
      "eV": 311,
      "gD": 312,
      "mR": 313,
      "yI": 314,
      "bZ": 315,
      "YI": 316,
      "zO": 317,
      "ha": 318,
      "BN": 319,
      "Bb": 320,
      "Ir": 321,
      "nn": 322,
      "GI": 323,
      "qN": 324,
      "DV": 325,
      "71": 326,
      "gO": 327,
      "Dv": 328,
      "Ew": 329,
      "qr": 330,
      "wd": 331,
      "wJ": 332,
      "ZJ": 333,
      "Ii": 334,
      "le": 335,
      "Nf": 336,
      "Nc": 337,
      "wf": 338,
      "reh": 339,
      "gg": 340,
      "ni": 341,
      "Ib": 342,
      "Dt": 343,
      "!Q": 344,
      "Wz": 345,
      "If": 346,
      "aZ": 347,
      "Nt": 348,
      "NF": 349,
      "qE": 350,
      "qi": 351,
      "Nu": 352,
      "94": 353,
      "ht": 354,
      "zL": 355,
      "cR": 356,
      "aD": 357,
      "rt": 358,
      "66": 359,
      "IP": 360,
      "Og": 361,
      "zg": 362,
      "Na": 363,
      "Or": 364,
      "mc": 365,
      "Bd": 366,
      "OD": 367,
      "Wg": 368,
      "qw": 369,
      "OZ": 370,
      "zv": 371,
      "ra": 372,
      "rn": 373,
      "Bc": 374,
      "19": 375,
      "sn": 376,
      "VZ": 377,
      "BR": 378,
      "bC": 379,
      "tn": 380,
      "76": 381,
      "aw": 382,
      "As": 383,
      "Nm": 384,
      "by": 385,
      "Ul": 386,
      "cZ": 387,
      "rG": 388,
      "92": 389,
      "JJ": 390,
      "Tn": 391,
      "ly": 392,
      "BZ": 393,
      "DZ": 394,
      "Ez": 395,
      "Oq": 396,
      "AA": 397,
      "Ue": 398,
      "nah": 399,
      "87": 400,
      "bs": 401,
      "Vt": 402,
      "ae": 403,
      "qf": 404,
      "Im": 405,
      "cs": 406,
      "ne": 407,
      "WU": 408,
      "N!": 409,
      "bt": 410,
      "VS": 411,
      "eL": 412,
      "qZ": 413,
      "cf": 414,
      "bd": 415,
      "NR": 416,
      "Oo": 417,
      "Nere": 418,
      "gw": 419,
      "rs": 420,
      "ft": 421,
      "rd": 422,
      "DL": 423,
      "GR": 424,
      "WJ": 425,
      "Wl": 426,
      "28": 427,
      "CZ": 428,
      "sd": 429,
      "aU": 430,
      "DE": 431,
      "wE": 432,
      "46": 433,
      "AB": 434,
      "bT": 435,
      "99": 436,
      "we": 437,
      "QB": 438,
      "DW": 439,
      "sU": 440,
      "mP": 441,
      "qC": 442,
      "bx": 443,
      "my": 444,
      "nW": 445,
      "Ds": 446,
      "ev": 447,
      "rZ": 448,
      "wB": 449,
      "zt": 450,
      "Qs": 451,
      "f!": 452,
      "iB": 453,
      "OW": 454,
      "bA": 455,
      "67": 456,
      "he": 457,
      "nb": 458,
      "qc": 459,
      "IQ": 460,
      "mi": 461,
      "Ot": 462,
      "nd": 463,
      "NJ": 464,
      "gi": 465,
      "29": 466,
      "NB": 467,
      "Os": 468,
      "IE": 469,
      "Td": 470,
      "Ua": 471,
      "qu": 472,
      "za": 473,
      "nJ": 474,
      "cy": 475,
      "wC": 476,
      "47": 477,
      "ZWt": 478,
      "6241": 479,
      "ZC": 480,
      "ny": 481,
      "Zp": 482,
      "ANN": 483,
      "wa": 484,
      "ql": 485,
      "Fl": 486,
      "sl": 487,
      "qQ": 488,
      "UN": 489,
      "nz": 490,
      "Es": 491,
      "tA": 492,
      "bl": 493,
      "TN": 494,
      "WWZ": 495,
      "ea": 496,
      "cQ": 497,
      "IW": 498,
      "wz": 499,
      "Ei": 500,
      "Ut": 501,
      "sQ": 502,
      "qP": 503,
      "Fa": 504,
      "O!": 505,
      "sJ": 506,
      "lU": 507,
      "ic": 508,
      "CN": 509,
      "bW": 510,
      "wc": 511,
      "OE": 512,
      "20": 513,
      "Ac": 514,
      "Dr": 515,
      "bX": 516,
      "!e": 517,
      "qd": 518,
      "qR": 519,
      "Cv": 520,
      "fA": 521,
      "nh": 522,
      "as": 523,
      "bo": 524,
      "xB": 525,
      "vg": 526,
      "wR": 527,
      "bE": 528,
      "Zu": 529,
      "NW": 530,
      "!!": 531,
      "mg": 532,
      "fE": 533,
      "Ih": 534,
      "Ndh": 535,
      "Ze": 536,
      "Oh": 537,
      "t!": 538,
      "IF": 539,
      "Ox": 540,
      "rU": 541,
      "ws": 542,
      "74": 543,
      "AV": 544,
      "lsTe": 545,
      "ED": 546,
      "OC": 547,
      "Q!": 548,
      "qU": 549,
      "mX": 550,
      "tU": 551,
      "Qc": 552,
      "zV": 553,
      "vB": 554,
      "SWreh": 555,
      "Ix": 556,
      "Oy": 557,
      "oL": 558,
      "tJ": 559,
      "Ql": 560,
      "CB": 561,
      "WNn": 562,
      "Ol": 563,
      "Dd": 564,
      "FX": 565,
      "llZ": 566,
      "rB": 567,
      "TJ": 568,
      "NA": 569,
      "mT": 570,
      "wy": 571,
      "fx": 572,
      "eg": 573,
      "Do": 574,
      "co": 575,
      "qJ": 576,
      "Ta": 577,
      "IV": 578,
      "NS": 579,
      "nG": 580,
      "Zy": 581,
      "gr": 582,
      "!A": 583,
      "Oi": 584,
      "Iy": 585,
      "NU": 586,
      "gW": 587,
      "QA": 588,
      "222": 589,
      "RE": 590,
      "ec": 591,
      "sD": 592,
      "lJZ": 593,
      "Il": 594,
      "tu": 595,
      "FT": 596,
      "Wn": 597,
      "dl": 598,
      "OJ": 599,
      "mK": 600,
      "mZ": 601,
      "aC": 602,
      "mw": 603,
      "aA": 604,
      "tS": 605,
      "rc": 606,
      "th": 607,
      "bI": 608,
      "Di": 609,
      "gE": 610,
      "aB": 611,
      "DP": 612,
      "mI": 613,
      "OV": 614,
      "NNZ": 615,
      "fo": 616,
      "lC": 617,
      "dG": 618,
      "Bz": 619,
      "bq": 620,
      "d!": 621,
      "DC": 622,
      "ac": 623,
      "dA": 624,
      "02": 625,
      "69": 626,
      "MB": 627,
      "YR": 628,
      "lc": 629,
      "wF": 630,
      "zT": 631,
      "ZW": 632,
      "nK": 633,
      "!q": 634,
      "DR": 635,
      "gB": 636,
      "sw": 637,
      "zX": 638,
      "IC": 639,
      "qy": 640,
      "eB": 641,
      "241": 642,
      "ox": 643,
      "Np": 644,
      "Dl": 645,
      "eS": 646,
      "Uh": 647,
      "86": 648,
      "KB": 649,
      "UB": 650,
      "oO": 651,
      "Wv": 652,
      "UJ": 653,
      "bP": 654,
      "dZ": 655,
      "nm": 656,
      "GZ": 657,
      "zW": 658,
      "lB": 659,
      "Gh": 660,
      "sN": 661,
      "!t": 662,
      "nD": 663,
      "rA": 664,
      "aJs": 665,
      "CC": 666,
      "qx": 667,
      "ehNere": 668,
      "zw": 669,
      "FR": 670,
      "dJ": 671,
      "91": 672,
      "It": 673,
      "rtN": 674,
      "OG": 675,
      "eu": 676,
      "Tt": 677,
      "eX": 678,
      "zs": 679,
      "fw": 680,
      "eb": 681,
      "FJ": 682,
      "gP": 683,
      "IJ": 684,
      "mE": 685,
      "01": 686,
      "oo": 687,
      "Rc": 688,
      "CJ": 689,
      "md": 690,
      "RB": 691,
      "bi": 692,
      "lld": 693,
      "17": 694,
      "FB": 695,
      "JsTe": 696,
      "Dy": 697,
      "qh": 698,
      "QS": 699,
      "cE": 700,
      "aO": 701,
      "Dm": 702,
      "Ah": 703,
      "Dx": 704,
      "WtZ": 705,
      "vM": 706,
      "wn": 707,
      "Wes": 708,
      "zb": 709,
      "fZ": 710,
      "In": 711,
      "pl": 712,
      "CL": 713,
      "CE": 714,
      "aL": 715,
      "WL": 716,
      "Uc": 717,
      "dt": 718,
      "Fh": 719,
      "fJ": 720,
      "Co": 721,
      "I!": 722,
      "ru": 723,
      "qS": 724,
      "bJ": 725,
      "IA": 726,
      "96": 727,
      "Fy": 728,
      "IR": 729,
      "llt": 730,
      "Cc": 731,
      "nV": 732,
      "211": 733,
      "mN": 734,
      "wu": 735,
      "b!": 736,
      "FO": 737,
      "wY": 738,
      "wP": 739,
      "zE": 740,
      "Ve": 741,
      "vS": 742,
      "ii": 743,
      "DJ": 744,
      "cu": 745,
      "q!": 746,
      "qo": 747,
      "Qh": 748,
      "gZ": 749,
      "iY": 750,
      "CW": 751,
      "Io": 752,
      "au": 753,
      "QJ": 754,
      "gc": 755,
      "00": 756,
      "Ch": 757,
      "yB": 758,
      "IX": 759,
      "r!": 760,
      "vc": 761,
      "fl": 762,
      "gd": 763,
      "OA": 764,
      "gh": 765,
      "tq": 766,
      "ie": 767,
      "drNn": 768,
      "Oa": 769,
      "Ia": 770,
      "rS": 771,
      "NT": 772,
      "ln": 773,
      "WeJ": 774,
      "nOh": 775,
      "gn": 776,
      "CV": 777,
      "Qw": 778,
      "fs": 779,
      "ntu": 780,
      "rl": 781,
      "88": 782,
      "c!": 783,
      "hB": 784,
      "ad": 785,
      "bbc": 786,
      "wb": 787,
      "UU": 788,
      "W!": 789,
      "Wm": 790,
      "WN!": 791,
      "OP": 792,
      "Cx": 793,
      "648": 794,
      "zD": 795,
      "VN": 796,
      "40": 797,
      "ZG": 798,
      "tl": 799,
      "hN": 800,
      "tB": 801,
      "Vq": 802,
      "sSNdh": 803,
      "bwf": 804,
      "Se": 805,
      "ZF": 806,
      "av": 807,
      "wm": 808,
      "eNN": 809,
      "Bl": 810,
      "wW": 811,
      "AT": 812,
      "Cm": 813,
      "nR": 814,
      "pd": 815,
      "rR": 816,
      "gq": 817,
      "ZI": 818,
      "PP": 819,
      "yb": 820,
      "eJ": 821,
      "rO": 822,
      "aq": 823,
      "D!": 824,
      "448": 825,
      "os": 826,
      "eT!": 827,
      "FN": 828,
      "Ft": 829,
      "rp": 830,
      "90": 831,
      "Be": 832,
      "C!": 833,
      "Eb": 834,
      "LG": 835,
      "wg": 836,
      "UV": 837,
      "zm": 838,
      "IH": 839,
      "ZR": 840,
      "tc": 841,
      "nx": 842,
      "Fc": 843,
      "By": 844,
      "zR": 845,
      "Lbn": 846,
      "Unah": 847,
      "J!": 848,
      "nNZ": 849,
      "nA": 850,
      "uw": 851,
      "Rh": 852,
      "ap": 853,
      "sll": 854,
      "Cb": 855,
      "08": 856,
      "Ae": 857,
      "SWrehJs": 858,
      "TW": 859,
      "fS": 860,
      "97": 861,
      "tD": 862,
      "GQ": 863,
      "n!": 864,
      "nP": 865,
      "l!": 866,
      "Zc": 867,
      "nNw": 868,
      "dW": 869,
      "rw": 870,
      "FW": 871,
      "yl": 872,
      "gN": 873,
      "zi": 874,
      "lVS": 875,
      "Ja": 876,
      "hq": 877,
      "Mc": 878,
      "182": 879,
      "Ov": 880,
      "oy": 881,
      "Xm": 882,
      "gy": 883,
      "Bm": 884,
      "uZ": 885,
      "!NN": 886,
      "Zf": 887,
      "49": 888,
      "Cl": 889,
      "dT": 890,
      "BE": 891,
      "cA": 892,
      "hZ": 893,
      "Ci": 894,
      "hl": 895,
      "Rs": 896,
      "06": 897,
      "ov": 898,
      "Bn": 899,
      "el": 900,
      "td": 901,
      "nOL": 902,
      "Ec": 903,
      "fa": 904,
      "Qt": 905,
      "IU": 906,
      "Jb": 907,
      "Cr": 908,
      "IG": 909,
      "eO": 910,
      "vE": 911,
      "Va": 912,
      "zy": 913,
      "IK": 914,
      "ga": 915,
      "IL": 916,
      "Zw": 917,
      "!B": 918,
      "Tl": 919,
      "ul": 920,
      "Wi": 921,
      "qn": 922,
      "zx": 923,
      "gU": 924,
      "dN": 925,
      "WA": 926,
      "JU": 927,
      "rb": 928,
      "WF": 929,
      "13": 930,
      "ZB": 931,
      "lD": 932,
      "yN": 933,
      "OL": 934,
      "oE": 935,
      "oq": 936,
      "qA": 937,
      "iG": 938,
      "slJ": 939,
      "VG": 940,
      "xw": 941,
      "gK": 942,
      "cb": 943,
      "VO": 944,
      "Zn": 945,
      "WtrN": 946,
      "NZWt": 947,
      "cO": 948,
      "nZG": 949,
      "cl": 950,
      "Jl": 951,
      "gR": 952,
      "10": 953,
      "wG": 954,
      "!a": 955,
      "rq": 956,
      "xx": 957,
      "bwQ": 958,
      "LM": 959,
      "rQ": 960,
      "de": 961,
      "eTA": 962,
      "WsN": 963,
      "mW": 964,
      "wq": 965,
      "Yz": 966,
      "WNN": 967,
      "Al": 968,
      "sO": 969,
      "rm": 970,
      "wi": 971,
      "Ay": 972,
      "Iv": 973,
      "IqD": 974,
      "ph": 975,
      "NWW": 976,
      "cq": 977,
      "pN": 978,
      "221": 979,
      "yf": 980,
      "oN": 981,
      "FD": 982,
      "LB": 983,
      "bf": 984,
      "sf": 985,
      "ZP": 986,
      "Aq": 987,
      "gl": 988,
      "yE": 989,
      "cJ": 990,
      "wO": 991,
      "80": 992,
      "in": 993,
      "llN": 994,
      "mx": 995,
      "str": 996,
      "bDv": 997,
      "FP": 998,
      "WP": 999,
      "ge": 1000,
      "rF": 1001,
      "wD": 1002,
      "fC": 1003,
      "Tz": 1004,
      "98": 1005,
      "ay": 1006,
      "rzh": 1007,
      "gt": 1008,
      "WsTn": 1009,
      "Kq": 1010,
      "mU": 1011,
      "Bi": 1012,
      "wt": 1013,
      "XN": 1014,
      "si": 1015,
      "Ob": 1016,
      "!b": 1017,
      "Zt": 1018,
      "Ud": 1019,
      "pJ": 1020,
      "JsW": 1021,
      "go": 1022,
      "rf": 1023,
      "77": 1024,
      "ci": 1025,
      "gx": 1026,
      "Id": 1027,
      "qG": 1028,
      "wr": 1029,
      "aG": 1030,
      "ml": 1031,
      "NG": 1032,
      "nv": 1033,
      "srnah": 1034,
      "lb": 1035,
      "Lmn": 1036,
      "lJt": 1037,
      "dp": 1038,
      "EP": 1039,
      "dU": 1040,
      "sWt": 1041,
      "JF": 1042,
      "OR": 1043,
      "Ny": 1044,
      "bNN": 1045,
      "hbn": 1046,
      "gY": 1047,
      "tV": 1048,
      "vs": 1049,
      "VsW": 1050,
      "ZT": 1051,
      "aI": 1052,
      "QNh": 1053,
      "lG": 1054,
      "ANd": 1055,
      "AO": 1056,
      "Qx": 1057,
      "sF": 1058,
      "sh": 1059,
      "yc": 1060,
      "ufc": 1061,
      "EB": 1062,
      "An": 1063,
      "IY": 1064,
      "93": 1065,
      "LY": 1066,
      "!Z": 1067,
      "se": 1068,
      "iz": 1069,
      "AJ": 1070,
      "sUnah": 1071,
      "zP": 1072,
      "rh": 1073,
      "wWt": 1074,
      "dd": 1075,
      "reN": 1076,
      "fBL": 1077,
      "iR": 1078,
      "Kc": 1079,
      "CO": 1080,
      "RN": 1081,
      "wp": 1082,
      "54": 1083,
      "sM": 1084,
      "NsQ": 1085,
      "g!": 1086,
      "ma": 1087,
      "ER": 1088,
      "WR": 1089,
      "Em": 1090,
      "Jd": 1091,
      "XB": 1092,
      "Dz": 1093,
      "Ee": 1094,
      "JA": 1095,
      "trtr": 1096,
      "alat": 1097,
      "Ct": 1098,
      "sy": 1099,
      "ri": 1100,
      "yy": 1101,
      "gG": 1102,
      "aht": 1103,
      "UG": 1104,
      "oV": 1105,
      "JB": 1106,
      "On": 1107,
      "nrf": 1108,
      "gz": 1109,
      "WI": 1110,
      "sp": 1111,
      "naV": 1112,
      "DU": 1113,
      "Fd": 1114,
      "bh": 1115,
      "vbn": 1116,
      "nth": 1117,
      "rW": 1118,
      "WWw": 1119,
      "lI": 1120,
      "lO": 1121,
      "lv": 1122,
      "Qq": 1123,
      "mf": 1124,
      "hFn": 1125,
      "Uz": 1126,
      "89": 1127,
      "cC": 1128,
      "xe": 1129,
      "ND": 1130,
      "Tsu": 1131,
      "VB": 1132,
      "gs": 1133,
      "PB": 1134,
      "yw": 1135,
      "a!": 1136,
      "ce": 1137,
      "ai": 1138,
      "PO": 1139,
      "rJ": 1140,
      "nZJs": 1141,
      "LO": 1142,
      "CR": 1143,
      "ub": 1144,
      "Fg": 1145,
      "NO": 1146,
      "UJN": 1147,
      "09": 1148,
      "Xe": 1149,
      "EI": 1150,
      "TS": 1151,
      "w!": 1152,
      "Ur": 1153,
      "Xb": 1154,
      "lL": 1155,
      "stt": 1156,
      "VW": 1157,
      "TF": 1158,
      "mq": 1159,
      "lp": 1160,
      "ue": 1161,
      "vt": 1162,
      "Qr": 1163,
      "gA": 1164,
      "LYI": 1165,
      "xc": 1166,
      "224": 1167,
      "LE": 1168,
      "XJ": 1169,
      "Xd": 1170,
      "Ye": 1171,
      "Xc": 1172,
      "BK": 1173,
      "nS": 1174,
      "Nds": 1175,
      "mr": 1176,
      "wK": 1177,
      "nOv": 1178,
      "Gqq": 1179,
      "lT": 1180,
      "s!": 1181,
      "ZWa": 1182,
      "QVs": 1183,
      "qI": 1184,
      "Qe": 1185,
      "UR": 1186,
      "bDh": 1187,
      "DG": 1188,
      "fO": 1189,
      "np": 1190,
      "llw": 1191,
      "ti": 1192,
      "184": 1193,
      "Vw": 1194,
      "MD": 1195,
      "YE": 1196,
      "xy": 1197,
      "zZ": 1198,
      "da": 1199,
      "Pi": 1200,
      "mA": 1201,
      "NnZ": 1202,
      "xL": 1203,
      "IT": 1204,
      "bF": 1205,
      "SB": 1206,
      "QQ": 1207,
      "dWh": 1208,
      "ua": 1209,
      "qDIw": 1210,
      "ew": 1211,
      "yW": 1212,
      "04": 1213,
      "yJ": 1214,
      "ehJs": 1215,
      "Za": 1216,
      "gC": 1217,
      "34": 1218,
      "iN": 1219,
      "htW": 1220,
      "lR": 1221,
      "60": 1222,
      "WC": 1223,
      "Nerz": 1224,
      "yZ": 1225,
      "ym": 1226,
      "bQ": 1227,
      "Ra": 1228,
      "bK": 1229,
      "no": 1230,
      "sB": 1231,
      "cx": 1232,
      "em": 1233,
      "vG": 1234,
      "ntZ": 1235,
      "zJ": 1236,
      "pa": 1237,
      "Br": 1238,
      "hO": 1239,
      "og": 1240,
      "DA": 1241,
      "Sl": 1242,
      "Wel": 1243,
      "43": 1244,
      "sC": 1245,
      "WWZN": 1246,
      "hG": 1247,
      "vN": 1248,
      "!c": 1249,
      "Rx": 1250,
      "FC": 1251,
      "Qo": 1252,
      "BA": 1253,
      "cz": 1254,
      "Vu": 1255,
      "mt": 1256,
      "pZ": 1257,
      "BI": 1258,
      "WsW": 1259,
      "eZ": 1260,
      "vq": 1261,
      "OI": 1262,
      "482": 1263,
      "NX": 1264,
      "nY": 1265,
      "trn": 1266,
      "dq": 1267,
      "eq": 1268,
      "mm": 1269,
      "UO": 1270,
      "ncw": 1271,
      "uf": 1272,
      "br": 1273,
      "iE": 1274,
      "ow": 1275,
      "tz": 1276,
      "BC": 1277,
      "Rq": 1278,
      "lsW": 1279,
      "KX": 1280,
      "!z": 1281,
      "VM": 1282,
      "25": 1283,
      "vmn": 1284,
      "ag": 1285,
      "NZZ": 1286,
      "nF": 1287,
      "BF": 1288,
      "ZE": 1289,
      "hmn": 1290,
      "ix": 1291,
      "pW": 1292,
      "tO": 1293,
      "Rw": 1294,
      "nUWu": 1295,
      "tI": 1296,
      "lF": 1297,
      "nOV": 1298,
      "mh": 1299,
      "o!": 1300,
      "db": 1301,
      "zC": 1302,
      "BJ": 1303,
      "2482": 1304,
      "bS": 1305,
      "39": 1306,
      "eF": 1307,
      "li": 1308,
      "yF": 1309,
      "RD": 1310,
      "cr": 1311,
      "yD": 1312,
      "tNtr": 1313,
      "Bs": 1314,
      "SJ": 1315,
      "Zm": 1316,
      "NdtW": 1317,
      "ssh": 1318,
      "bbT": 1319,
      "248": 1320,
      "vw": 1321,
      "Zb": 1322,
      "yY": 1323,
      "GE": 1324,
      "nL": 1325,
      "bU": 1326,
      "fh": 1327,
      "qM": 1328,
      "vx": 1329,
      "32": 1330,
      "rnQ": 1331,
      "CA": 1332,
      "aT": 1333,
      "als": 1334,
      "pt": 1335,
      "844": 1336,
      "qaa": 1337,
      "aP": 1338,
      "bnc": 1339,
      "QF": 1340,
      "Tu": 1341,
      "eD": 1342,
      "qz": 1343,
      "WK": 1344,
      "Ss": 1345,
      "Gb": 1346,
      "gJ": 1347,
      "Gs": 1348,
      "CD": 1349,
      "aha": 1350,
      "nBw": 1351,
      "ut": 1352,
      "ca": 1353,
      "lds": 1354,
      "RV": 1355,
      "Kx": 1356,
      "bbB": 1357,
      "qL": 1358,
      "nrQ": 1359,
      "ZD": 1360,
      "RO": 1361,
      "Xn": 1362,
      "y!": 1363,
      "ldsW": 1364,
      "ms": 1365,
      "oA": 1366,
      "WsTa": 1367,
      "ep": 1368,
      "yQ": 1369,
      "dhtr": 1370,
      "Ex": 1371,
      "im": 1372,
      "oh": 1373,
      "Gf": 1374,
      "az": 1375,
      "cn": 1376,
      "dL": 1377,
      "Pg": 1378,
      "Jz": 1379,
      "naL": 1380,
      "GN": 1381,
      "Kw": 1382,
      "Rt": 1383,
      "WS": 1384,
      "Ey": 1385,
      "EO": 1386,
      "Yqq": 1387,
      "FZ": 1388,
      "cg": 1389,
      "mwf": 1390,
      "Rb": 1391,
      "wIB": 1392,
      "bZf": 1393,
      "75": 1394,
      "aJq": 1395,
      "FA": 1396,
      "Gw": 1397,
      "UA": 1398,
      "ct": 1399,
      "fQ": 1400,
      "ot": 1401,
      "WsTt": 1402,
      "Od": 1403,
      "lNZ": 1404,
      "va": 1405,
      "EL": 1406,
      "urU": 1407,
      "lJw": 1408,
      "NdaJ": 1409,
      "hA": 1410,
      "B!": 1411,
      "NC": 1412,
      "Oe": 1413,
      "Xa": 1414,
      "OU": 1415,
      "Eo": 1416,
      "T!": 1417,
      "yz": 1418,
      "JNZ": 1419,
      "NI": 1420,
      "rV": 1421,
      "Qb": 1422,
      "ssW": 1423,
      "Qa": 1424,
      "212": 1425,
      "rGs": 1426,
      "Ph": 1427,
      "rI": 1428,
      "Tll": 1429,
      "Nntu": 1430,
      "JV": 1431,
      "mz": 1432,
      "lla": 1433,
      "Wo": 1434,
      "WNA": 1435,
      "lW@": 1436,
      "CI": 1437,
      "fq": 1438,
      "wIP": 1439,
      "lJd": 1440,
      "aS": 1441,
      "bu": 1442,
      "nds": 1443,
      "yG": 1444,
      "fBh": 1445,
      "VA": 1446,
      "edrNn": 1447,
      "wx": 1448,
      "CS": 1449,
      "KN": 1450,
      "gL": 1451,
      "vZ": 1452,
      "Jh": 1453,
      "Xx": 1454,
      "ed": 1455,
      "Zd!": 1456,
      "23": 1457,
      "FU": 1458,
      "JS": 1459,
      "eVNere": 1460,
      "bOL": 1461,
      "rNb": 1462,
      "Pc": 1463,
      "sI": 1464,
      "QC": 1465,
      "Yd": 1466,
      "nC": 1467,
      "yx": 1468,
      "!r": 1469,
      "PD": 1470,
      "uQ": 1471,
      "YV": 1472,
      "e!": 1473,
      "sg": 1474,
      "fcL": 1475,
      "Jm": 1476,
      "cT": 1477,
      "144": 1478,
      "Du": 1479,
      "MW": 1480,
      "Up": 1481,
      "ere": 1482,
      "Gl": 1483,
      "wA": 1484,
      "aaW": 1485,
      "UW": 1486,
      "lz": 1487,
      "wT": 1488,
      "OS": 1489,
      "Ro": 1490,
      "bDL": 1491,
      "TA": 1492,
      "NdaW": 1493,
      "rK": 1494,
      "fi": 1495,
      "annw": 1496,
      "sslJ": 1497,
      "De": 1498,
      "Zz": 1499,
      "ye": 1500,
      "WNZ": 1501,
      "Vm": 1502,
      "Zs": 1503,
      "gDb": 1504,
      "70": 1505,
      "Cd": 1506,
      "haW": 1507,
      "lm": 1508,
      "cG": 1509,
      "ssll": 1510,
      "gIw": 1511,
      "QhsW": 1512,
      "A!": 1513,
      "Pq": 1514,
      "Pt": 1515,
      "TI": 1516,
      "alaa": 1517,
      "Ce": 1518,
      "NK": 1519,
      "bOh": 1520,
      "nrWu": 1521,
      "cX": 1522,
      "pr": 1523,
      "BG": 1524,
      "TT": 1525,
      "dNr": 1526,
      "saa": 1527,
      "uA": 1528,
      "sWN": 1529,
      "eLnq": 1530,
      "UtN": 1531,
      "fR": 1532,
      "EK": 1533,
      "oe": 1534,
      "xN": 1535,
      "NZl": 1536,
      "hJ": 1537,
      "reV": 1538,
      "668": 1539,
      "wnl": 1540,
      "dQ": 1541,
      "lZWs": 1542,
      "ZX": 1543,
      "zo": 1544,
      "hw": 1545,
      "VtW": 1546,
      "mQ": 1547,
      "uN": 1548,
      "z!": 1549,
      "NQWNn": 1550,
      "KO": 1551,
      "SN": 1552,
      "Yq": 1553,
      "QNV": 1554,
      "TZ": 1555,
      "Ba": 1556,
      "iO": 1557,
      "!F": 1558,
      "JI": 1559,
      "xq": 1560,
      "Cy": 1561,
      "Sr": 1562,
      "Tb": 1563,
      "Iu": 1564,
      "cm": 1565,
      "DK": 1566,
      "Ls": 1567,
      "BO": 1568,
      "JO": 1569,
      "Rr": 1570,
      "WG": 1571,
      "nj": 1572,
      "Pw": 1573,
      "fBv": 1574,
      "Eg": 1575,
      "zf": 1576,
      "nau": 1577,
      "Vr": 1578,
      "DNn": 1579,
      "SA": 1580,
      "gv": 1581,
      "NsZ": 1582,
      "DI": 1583,
      "qV": 1584,
      "xO": 1585,
      "Jc": 1586,
      "XF": 1587,
      "zI": 1588,
      "AQ": 1589,
      "Yi": 1590,
      "!m": 1591,
      "Ca": 1592,
      "Gsu": 1593,
      "wU": 1594,
      "xm": 1595,
      "dhll": 1596,
      "Gqs": 1597,
      "ud": 1598,
      "BU": 1599,
      "FnZ": 1600,
      "hW": 1601,
      "!d": 1602,
      "DOw": 1603,
      "ee": 1604,
      "Wrh": 1605,
      "EZ": 1606,
      "JW@": 1607,
      "aK": 1608,
      "ps": 1609,
      "zd": 1610,
      "lJN": 1611,
      "yi": 1612,
      "NNN": 1613,
      "Wdr": 1614,
      "Ab": 1615,
      "CF": 1616,
      "Ev": 1617,
      "PZ": 1618,
      "SZ": 1619,
      "raN": 1620,
      "MC": 1621,
      "ob": 1622,
      "zr": 1623,
      "111": 1624,
      "ssnah": 1625,
      "dsN": 1626,
      "RZ": 1627,
      "ttZ": 1628,
      "sG": 1629,
      "Ag": 1630,
      "Bq": 1631,
      "Vbn": 1632,
      "hg": 1633,
      "pU": 1634,
      "tQ": 1635,
      "nIgi": 1636,
      "Jn": 1637,
      "Xz": 1638,
      "nav": 1639,
      "R!": 1640,
      "NZWa": 1641,
      "ur": 1642,
      "RL": 1643,
      "QZWt": 1644,
      "bZQ": 1645,
      "xs": 1646,
      "IIP": 1647,
      "Vd": 1648,
      "fM": 1649,
      "Ks": 1650,
      "SS": 1651,
      "Yw": 1652,
      "Wtw": 1653,
      "zLnq": 1654,
      "fb": 1655,
      "pV": 1656,
      "KM": 1657,
      "nIg": 1658,
      "mBm": 1659,
      "TJS": 1660,
      "Ad": 1661,
      "Bu": 1662,
      "eG": 1663,
      "tg": 1664,
      "bDV": 1665,
      "!O": 1666,
      "lg": 1667,
      "zu": 1668,
      "ir": 1669,
      "NNWW": 1670,
      "WhrtN": 1671,
      "Uy": 1672,
      "bIB": 1673,
      "zF": 1674,
      "RG": 1675,
      "Tm": 1676,
      "ib": 1677,
      "XR": 1678,
      "Xl": 1679,
      "261": 1680,
      "Ps": 1681,
      "Sh": 1682,
      "Xt": 1683,
      "Zq": 1684,
      "bah": 1685,
      "jd": 1686,
      "sA": 1687,
      "tWW": 1688,
      "xg": 1689,
      "nrG": 1690,
      "rzN": 1691,
      "eT!Nr": 1692,
      "io": 1693,
      "IeG": 1694,
      "dv": 1695,
      "hc": 1696,
      "hm": 1697,
      "iK": 1698,
      "mwQ": 1699,
      "Ge": 1700,
      "824": 1701,
      "bNb": 1702,
      "oa": 1703,
      "ff": 1704,
      "xz": 1705,
      "Ar": 1706,
      "MP": 1707,
      "QT": 1708,
      "jR": 1709,
      "fcv": 1710,
      "dTNZ": 1711,
      "Le": 1712,
      "PV": 1713,
      "iQ": 1714,
      "CH": 1715,
      "gV": 1716,
      "yo": 1717,
      "CP": 1718,
      "Ts": 1719,
      "lo": 1720,
      "AF": 1721,
      "Lm": 1722,
      "Cg": 1723,
      "mnc": 1724,
      "NJs": 1725,
      "XI": 1726,
      "xi": 1727,
      "XE": 1728,
      "NeN": 1729,
      "cV": 1730,
      "lJs": 1731,
      "Bx": 1732,
      "Kf": 1733,
      "Rv": 1734,
      "tZZ": 1735,
      "Ui": 1736,
      "X!": 1737,
      "yP": 1738,
      "bOv": 1739,
      "eTAV": 1740,
      "Xw": 1741,
      "30": 1742,
      "dx": 1743,
      "!w": 1744,
      "Bo": 1745,
      "GW": 1746,
      "NWt": 1747,
      "Pa": 1748,
      "dF": 1749,
      "mJ": 1750,
      "mDv": 1751,
      "bbX": 1752,
      "fNh": 1753,
      "CqD": 1754,
      "Gq": 1755,
      "Rg": 1756,
      "hy": 1757,
      "lH": 1758,
      "eNNZ": 1759,
      "nQ": 1760,
      "Pr": 1761,
      "b!Q": 1762,
      "Bg": 1763,
      "Om": 1764,
      "lS": 1765,
      "tNZ": 1766,
      "oZ": 1767,
      "GdG": 1768,
      "Cz": 1769,
      "eI": 1770,
      "rT": 1771,
      "xb": 1772,
      "aR": 1773,
      "WbQ": 1774,
      "cI": 1775,
      "sNs": 1776,
      "tWZ": 1777,
      "xE": 1778,
      "WsN!": 1779,
      "33": 1780,
      "aNZ": 1781,
      "sc": 1782,
      "wwI": 1783,
      "718": 1784,
      "NWd": 1785,
      "QW": 1786,
      "rM": 1787,
      "nDv": 1788,
      "NNe": 1789,
      "DNZ": 1790,
      "WeN": 1791,
      "Lg": 1792,
      "PN": 1793,
      "Vc": 1794,
      "nf": 1795,
      "alVS": 1796,
      "lWN": 1797,
      "Zh": 1798,
      "uy": 1799,
      "zK": 1800,
      "Ndal": 1801,
      "AW": 1802,
      "nNYV": 1803,
      "JNN": 1804,
      "Lc": 1805,
      "PI": 1806,
      "tF": 1807,
      "84222": 1808,
      "UnQ": 1809,
      "Nnr": 1810,
      "bnB": 1811,
      "mnB": 1812,
      "Vsa": 1813,
      "xV": 1814,
      "en": 1815,
      "sb": 1816,
      "vy": 1817,
      "Lq": 1818,
      "id": 1819,
      "Cf": 1820,
      "Fah": 1821,
      "sV": 1822,
      "822": 1823,
      "mo": 1824,
      "WbQN": 1825,
      "UZ": 1826,
      "bV": 1827,
      "DWw": 1828,
      "Li": 1829,
      "Nh": 1830,
      "yA": 1831,
      "OM": 1832,
      "YP": 1833,
      "uJ": 1834,
      "mDh": 1835,
      "37": 1836,
      "GB": 1837,
      "UC": 1838,
      "mZf": 1839,
      "Gr": 1840,
      "Gsq": 1841,
      "Ko": 1842,
      "qtt": 1843,
      "Vg": 1844,
      "tK": 1845,
      "bcN": 1846,
      "nZJssS": 1847,
      "DgI": 1848,
      "Fw": 1849,
      "NWes": 1850,
      "Z!": 1851,
      "eK": 1852,
      "qb": 1853,
      "vA": 1854,
      "annZ": 1855,
      "Bh": 1856,
      "mIB": 1857,
      "rbA": 1858,
      "qDM": 1859,
      "nIOr": 1860,
      "Sere": 1861,
      "GV": 1862,
      "aF": 1863,
      "eR": 1864,
      "tp": 1865,
      "nZp": 1866,
      "DwI": 1867,
      "Pz": 1868,
      "ro": 1869,
      "v!": 1870,
      "EW": 1871,
      "llZNe": 1872,
      "G!": 1873,
      "Wp": 1874,
      "ANNeNN": 1875,
      "eTANr": 1876,
      "BQ": 1877,
      "BY": 1878,
      "OWb": 1879,
      "do": 1880,
      "hS": 1881,
      "xo": 1882,
      "NNf": 1883,
      "alq": 1884,
      "AtZ": 1885,
      "FQ": 1886,
      "LS": 1887,
      "UF": 1888,
      "dVtr": 1889,
      "Oz": 1890,
      "52": 1891,
      "zS": 1892,
      "Dn": 1893,
      "NWa": 1894,
      "Zr": 1895,
      "IDD": 1896,
      "fd": 1897,
      "aWW": 1898,
      "iw": 1899,
      "ys": 1900,
      "444": 1901,
      "sd!": 1902,
      "dsW": 1903,
      "iU": 1904,
      "Ly": 1905,
      "WT": 1906,
      "gWb": 1907,
      "rss": 1908,
      "uB": 1909,
      "urr": 1910,
      "NNA": 1911,
      "zqf": 1912,
      "pw": 1913,
      "tb": 1914,
      "NeNN": 1915,
      "ehnq": 1916,
      "Qch": 1917,
      "nE": 1918,
      "JD": 1919,
      "Qd": 1920,
      "Zj": 1921,
      "utrn": 1922,
      "821": 1923,
      "Pv": 1924,
      "iI": 1925,
      "nM": 1926,
      "sWZ": 1927,
      "RA": 1928,
      "NdV": 1929,
      "218": 1930,
      "mDL": 1931,
      "Bf": 1932,
      "bsu": 1933,
      "om": 1934,
      "vd": 1935,
      "JsNn": 1936,
      "Bt": 1937,
      "PE": 1938,
      "15": 1939,
      "ntV": 1940,
      "QU": 1941,
      "XJN": 1942,
      "ab": 1943,
      "pR": 1944,
      "dhar": 1945,
      "79": 1946,
      "Of": 1947,
      "Pm": 1948,
      "SD": 1949,
      "dWV": 1950,
      "qWt": 1951,
      "424": 1952,
      "fV": 1953,
      "nwG": 1954,
      "btZ": 1955,
      "cU": 1956,
      "qF": 1957,
      "YDD": 1958,
      "ZA": 1959,
      "hF": 1960,
      "tlVS": 1961,
      "llIr": 1962,
      "QE": 1963,
      "Sz": 1964,
      "ZO": 1965,
      "oI": 1966,
      "wwd": 1967,
      "SWrzh": 1968,
      "DNw": 1969,
      "Igr": 1970,
      "aVZ": 1971,
      "KE": 1972,
      "Xu": 1973,
      "cL": 1974,
      "pp": 1975,
      "45": 1976,
      "DIw": 1977,
      "Gm": 1978,
      "Ip": 1979,
      "TlJ": 1980,
      "IqW": 1981,
      "llZWh": 1982,
      "Ng": 1983,
      "No": 1984,
      "cF": 1985,
      "zl": 1986,
      "lhTe": 1987,
      "WhlV": 1988,
      "ch": 1989,
      "yO": 1990,
      "edrNnl": 1991,
      "JH": 1992,
      "TB": 1993,
      "UeN": 1994,
      "sP": 1995,
      "Jsn": 1996,
      "Isy": 1997,
      "wwZ": 1998,
      "ONtr": 1999,
      "PL": 2000,
      "WE": 2001,
      "mC": 2002,
      "!f": 2003,
      "dS": 2004,
      "eC": 2005,
      "qm": 2006,
      "WNw": 2007,
      "JlZ": 2008,
      "htw": 2009,
      "rg": 2010,
      "tnw": 2011,
      "resQ": 2012,
      "WsTW": 2013,
      "qOO": 2014,
      "51": 2015,
      "EC": 2016,
      "U!": 2017,
      "iC": 2018,
      "qv": 2019,
      "snl": 2020,
      "wWO": 2021,
      "XS": 2022,
      "ih": 2023,
      "trN": 2024,
      "Rz": 2025,
      "Um": 2026,
      "fg": 2027,
      "sm": 2028,
      "xI": 2029,
      "lqTe": 2030,
      "AL": 2031,
      "DX": 2032,
      "Qm": 2033,
      "Qhs": 2034,
      "Uw": 2035,
      "UaN": 2036,
      "ehls": 2037,
      "Ou": 2038,
      "er": 2039,
      "!V": 2040,
      "RW": 2041,
      "bIc": 2042,
      "raW": 2043,
      "sWW": 2044,
      "yIw": 2045,
      "rzqf": 2046,
      "tAn": 2047,
      "cEq": 2048,
      "eM": 2049,
      "lX": 2050,
      "nJs": 2051,
      "wX": 2052,
      "zn": 2053,
      "DM": 2054,
      "Er": 2055,
      "Yf": 2056,
      "oQ": 2057,
      "vR": 2058,
      "nwJs": 2059,
      "Ocw": 2060,
      "elJ": 2061,
      "tP": 2062,
      "sar": 2063,
      "esQ": 2064,
      "Ap": 2065,
      "ODb": 2066,
      "UL": 2067,
      "jV": 2068,
      "sQN": 2069,
      "lJZNe": 2070,
      "Ni": 2071,
      "aWZ": 2072,
      "rNZ": 2073,
      "Nsll": 2074,
      "EF": 2075,
      "Ea": 2076,
      "Ji": 2077,
      "VF": 2078,
      "htZ": 2079,
      "qll": 2080,
      "Gss": 2081,
      "Ri": 2082,
      "zG": 2083,
      "Iqy": 2084,
      "ngh": 2085,
      "yC": 2086,
      "DF": 2087,
      "WQ": 2088,
      "Vmn": 2089,
      "ZU": 2090,
      "hU": 2091,
      "of": 2092,
      "QBL": 2093,
      "Tru": 2094,
      "bBB": 2095,
      "164": 2096,
      "eTAh": 2097,
      "snft": 2098,
      "122": 2099,
      "OK": 2100,
      "lNN": 2101,
      "tnI": 2102,
      "IEE": 2103,
      "JQ": 2104,
      "SC": 2105,
      "xcu": 2106,
      "sWIw": 2107,
      "bnb": 2108,
      "bBi": 2109,
      "NQW": 2110,
      "NdtWSWrehJs": 2111,
      "Tr": 2112,
      "atZ": 2113,
      "qNs": 2114,
      "EH": 2115,
      "Rm": 2116,
      "SU": 2117,
      "bcc": 2118,
      "rzV": 2119,
      "271": 2120,
      "WWs": 2121,
      "UT": 2122,
      "gb": 2123,
      "wWa": 2124,
      "ngL": 2125,
      "aAn": 2126,
      "KQ": 2127,
      "Wy": 2128,
      "vu": 2129,
      "Am": 2130,
      "Sf": 2131,
      "nny": 2132,
      "SQ": 2133,
      "aX": 2134,
      "pn": 2135,
      "63": 2136,
      "BT": 2137,
      "EqD": 2138,
      "cD": 2139,
      "hWZ": 2140,
      "zz": 2141,
      "NqtS": 2142,
      "fch": 2143,
      "FI": 2144,
      "Sc": 2145,
      "XW": 2146,
      "Yr": 2147,
      "Px": 2148,
      "aAa": 2149,
      "nsr": 2150,
      "yK": 2151,
      "!W": 2152,
      "FV": 2153,
      "Tq": 2154,
      "mNN": 2155,
      "wj": 2156,
      "!n": 2157,
      "BV": 2158,
      "QWW": 2159,
      "bds": 2160,
      "zvnq": 2161,
      "Eny": 2162,
      "ex": 2163,
      "oqg": 2164,
      "qK": 2165,
      "wS": 2166,
      "nIOi": 2167,
      "bcB": 2168,
      "ML": 2169,
      "NV": 2170,
      "wnJ": 2171,
      "yR": 2172,
      "Iwl": 2173,
      "WhAs": 2174,
      "lN@": 2175,
      "QV": 2176,
      "To": 2177,
      "Wx": 2178,
      "rON": 2179,
      "wo": 2180,
      "NwZ": 2181,
      "641": 2182,
      "GA": 2183,
      "VFn": 2184,
      "bIz": 2185,
      "NwWt": 2186,
      "Nfl": 2187,
      "BX": 2188,
      "J@": 2189,
      "Lt": 2190,
      "LFn": 2191,
      "WOw": 2192,
      "ehNerz": 2193,
      "65": 2194,
      "Fp": 2195,
      "Gx": 2196,
      "La": 2197,
      "bIe": 2198,
      "di": 2199,
      "qwI": 2200,
      "nIOB": 2201,
      "lZWe": 2202,
      "Igi": 2203,
      "JsTep": 2204,
      "cv": 2205,
      "m!": 2206,
      "on": 2207,
      "rNe": 2208,
      "tnZ": 2209,
      "wll": 2210,
      "xF": 2211,
      "226": 2212,
      "lssS": 2213,
      "FnN": 2214,
      "qX": 2215,
      "tC": 2216,
      "zNN": 2217,
      "WWd": 2218,
      "JJZ": 2219,
      "YB": 2220,
      "oz": 2221,
      "wDO": 2222,
      "IwI": 2223,
      "Mv": 2224,
      "OQ": 2225,
      "ya": 2226,
      "NQQ": 2227,
      "Jes": 2228,
      "TK": 2229,
      "lsTep": 2230,
      "!S": 2231,
      "!o": 2232,
      "VNr": 2233,
      "ig": 2234,
      "mu": 2235,
      "Gww": 2236,
      "JsZ": 2237,
      "Nnw": 2238,
      "NdQ": 2239,
      "JC": 2240,
      "Po": 2241,
      "TR": 2242,
      "hNZ": 2243,
      "jI": 2244,
      "aanZ": 2245,
      "NfJ": 2246,
      "QBh": 2247,
      "PW": 2248,
      "iA": 2249,
      "reqf": 2250,
      "wIN": 2251,
      "bnN": 2252,
      "lAA": 2253,
      "GILbn": 2254,
      "Vb": 2255,
      "Wlh": 2256,
      "hp": 2257,
      "Bp": 2258,
      "Df": 2259,
      "hll": 2260,
      "WdrN": 2261,
      "SWrehls": 2262,
      "!K": 2263,
      "dK": 2264,
      "mF": 2265,
      "tf": 2266,
      "ANQ": 2267,
      "!U": 2268,
      "dw": 2269,
      "lJa": 2270,
      "sst": 2271,
      "mBi": 2272,
      "Dlh": 2273,
      "vo": 2274,
      "Nnl": 2275,
      "mDgI": 2276,
      "JZWs": 2277,
      "bmX": 2278,
      "!g": 2279,
      "Fr": 2280,
      "PR": 2281,
      "XC": 2282,
      "bBb": 2283,
      "Lw": 2284,
      "xh": 2285,
      "AU": 2286,
      "Xq": 2287,
      "bWh": 2288,
      "IsW": 2289,
      "Jts": 2290,
      "LN": 2291,
      "Lz": 2292,
      "tR": 2293,
      "vJ": 2294,
      "bBN": 2295,
      "sSNdhll": 2296,
      "85": 2297,
      "pqq": 2298,
      "121": 2299,
      "WIw": 2300,
      "vm": 2301,
      "yn": 2302,
      "NNQ": 2303,
      "Weq": 2304,
      "bRNw": 2305,
      "48211": 2306,
      "lK": 2307,
      "WZn": 2308,
      "nOu": 2309,
      "Gc": 2310,
      "Qp": 2311,
      "aE": 2312,
      "yq": 2313,
      "hd": 2314,
      "ve": 2315,
      "JN@": 2316,
      "KY": 2317,
      "NGh": 2318,
      "OX": 2319,
      "Ug": 2320,
      "eNe": 2321,
      "iV": 2322,
      "mnN": 2323,
      "oqO": 2324,
      "Ij": 2325,
      "SlW": 2326,
      "rnQNsQ": 2327,
      "eQ": 2328,
      "sR": 2329,
      "tWt": 2330,
      "mOv": 2331,
      "471": 2332,
      "DT": 2333,
      "FZQ": 2334,
      "Gz": 2335,
      "ia": 2336,
      "sNt": 2337,
      "lhN": 2338,
      "hr": 2339,
      "me": 2340,
      "Nst": 2341,
      "Cqn": 2342,
      "DcM": 2343,
      "wd!": 2344,
      "!l": 2345,
      "CWb": 2346,
      "OJs": 2347,
      "RF": 2348,
      "fm": 2349,
      "qlt": 2350,
      "to": 2351,
      "ntw": 2352,
      "pdr": 2353,
      "altt": 2354,
      "JqTe": 2355,
      "sad": 2356,
      "Nzrz": 2357,
      "BD": 2358,
      "MN": 2359,
      "Xo": 2360,
      "www": 2361,
      "ocu": 2362,
      "nif": 2363,
      "!x": 2364,
      "GwZ": 2365,
      "Lx": 2366,
      "Tw": 2367,
      "sWr": 2368,
      "nIO": 2369,
      "ssJ": 2370,
      "56": 2371,
      "Gt": 2372,
      "Vz": 2373,
      "cS": 2374,
      "fF": 2375,
      "if": 2376,
      "je": 2377,
      "uR": 2378,
      "DNN": 2379,
      "Ub": 2380,
      "iJ": 2381,
      "ry": 2382,
      "NnU": 2383,
      "NstS": 2384,
      "36": 2385,
      "Nls": 2386,
      "Pd": 2387,
      "XT": 2388,
      "hh": 2389,
      "pe": 2390,
      "wID": 2391,
      "2122": 2392,
      "dhlJ": 2393,
      "168": 2394,
      "Fs": 2395,
      "N@": 2396,
      "nft": 2397,
      "od": 2398,
      "rx": 2399,
      "tNN": 2400,
      "NsZd": 2401,
      "nrp": 2402,
      "ANf": 2403,
      "Rf": 2404,
      "eUe": 2405,
      "JG": 2406,
      "LZ": 2407,
      "Us": 2408,
      "VNN": 2409,
      "LIz": 2410,
      "WwI": 2411,
      "YY": 2412,
      "i!": 2413,
      "yu": 2414,
      "DS": 2415,
      "XoL": 2416,
      "saU": 2417,
      "qWIw": 2418,
      "snJ": 2419,
      "VJ": 2420,
      "XZ": 2421,
      "sfN": 2422,
      "WDw": 2423,
      "PJ": 2424,
      "mNm": 2425,
      "GIhbn": 2426,
      "GD": 2427,
      "Mz": 2428,
      "Nx": 2429,
      "VaW": 2430,
      "hb": 2431,
      "Wc!": 2432,
      "Re": 2433,
      "Tc": 2434,
      "ao": 2435,
      "lx": 2436,
      "qe": 2437,
      "xd": 2438,
      "IDi": 2439,
      "baL": 2440,
      "ZdA": 2441,
      "wNS": 2442,
      "!J": 2443,
      "421": 2444,
      "Sw": 2445,
      "YZ": 2446,
      "fv": 2447,
      "hz": 2448,
      "sJt": 2449,
      "sqlJ": 2450,
      "evnq": 2451,
      "Ed": 2452,
      "Mx": 2453,
      "OT": 2454,
      "P!": 2455,
      "QsW": 2456,
      "edr": 2457,
      "En": 2458,
      "WJs": 2459,
      "WNe": 2460,
      "izq": 2461,
      "Nsl": 2462,
      "aVS": 2463,
      "AX": 2464,
      "Ff": 2465,
      "Jld": 2466,
      "KD": 2467,
      "ZS": 2468,
      "eA": 2469,
      "uU": 2470,
      "nIB": 2471,
      "ssl": 2472,
      "dhllN": 2473,
      "oBu": 2474,
      "GdIf": 2475,
      "31": 2476,
      "Kh": 2477,
      "tx": 2478,
      "um": 2479,
      "vIz": 2480,
      "IwE": 2481,
      "bOc": 2482,
      "KG": 2483,
      "OY": 2484,
      "S!": 2485,
      "ahaaW": 2486,
      "CM": 2487,
      "Ka": 2488,
      "QVsW": 2489,
      "dc": 2490,
      "qp": 2491,
      "ug": 2492,
      "bBm": 2493,
      "rzv": 2494,
      "IsI": 2495,
      "Qrr": 2496,
      "ZWO": 2497,
      "il": 2498,
      "uW": 2499,
      "JsN": 2500,
      "NZJ": 2501,
      "bcb": 2502,
      "JWN": 2503,
      "NNb": 2504,
      "bOV": 2505,
      "stS": 2506,
      "NdaWSWrehJs": 2507,
      "BP": 2508,
      "Dj": 2509,
      "GO": 2510,
      "NE": 2511,
      "hV": 2512,
      "oNu": 2513,
      "qlJ": 2514,
      "utUn": 2515,
      "iZ": 2516,
      "vIe": 2517,
      "reqQ": 2518,
      "ssd": 2519,
      "WlVS": 2520,
      "anZ": 2521,
      "bWZ": 2522,
      "yV": 2523,
      "mDV": 2524,
      "!T": 2525,
      "dO": 2526,
      "xv": 2527,
      "418": 2528,
      "Lb": 2529,
      "cW": 2530,
      "hts": 2531,
      "aanw": 2532,
      "wwE": 2533,
      "112": 2534,
      "OqD": 2535,
      "XA": 2536,
      "Xs": 2537,
      "dz": 2538,
      "Nsaa": 2539,
      "JK": 2540,
      "NlJ": 2541,
      "fL": 2542,
      "lts": 2543,
      "nnNn": 2544,
      "Ml": 2545,
      "PK": 2546,
      "Pb": 2547,
      "Znr": 2548,
      "Znl": 2549,
      "atW": 2550,
      "fVs": 2551,
      "rC": 2552,
      "us": 2553,
      "NeUe": 2554,
      "sslW": 2555,
      "124": 2556,
      "711": 2557,
      "EV": 2558,
      "FDh": 2559,
      "TU": 2560,
      "WgI": 2561,
      "iy": 2562,
      "rj": 2563,
      "sur!": 2564,
      "DDw": 2565,
      "Pe": 2566,
      "Sa": 2567,
      "Uv": 2568,
      "yp": 2569,
      "bRq": 2570,
      "83": 2571,
      "is": 2572,
      "tT": 2573,
      "tWSWrehJs": 2574,
      "IqE": 2575,
      "zhJs": 2576,
      "611": 2577,
      "FwQ": 2578,
      "QI": 2579,
      "oX": 2580,
      "xC": 2581,
      "xqg": 2582,
      "Wtr": 2583,
      "Fi": 2584,
      "Ju": 2585,
      "zY": 2586,
      "NlWN": 2587,
      "sqh": 2588,
      "ngv": 2589,
      "Jo": 2590,
      "Swe": 2591,
      "yg": 2592,
      "yj": 2593,
      "lwsS": 2594,
      "CG": 2595,
      "Pl": 2596,
      "Zx": 2597,
      "nlw": 2598,
      "oi": 2599,
      "pA": 2600,
      "sK": 2601,
      "suNl": 2602,
      "WzJ": 2603,
      "htWl": 2604,
      "Trute": 2605,
      "416": 2606,
      "Fx": 2607,
      "hst": 2608,
      "yt": 2609,
      "Js!": 2610,
      "WNJW": 2611,
      "sae": 2612,
      "bNc": 2613,
      "fBV": 2614,
      "tJtt": 2615,
      "FWZ": 2616,
      "GU": 2617,
      "OOw": 2618,
      "dm": 2619,
      "sz": 2620,
      "242": 2621,
      "rzL": 2622,
      "IsD": 2623,
      "6682": 2624,
      "DWZ": 2625,
      "OIw": 2626,
      "RP": 2627,
      "it": 2628,
      "bOB": 2629,
      "Zla": 2630,
      "rGl": 2631,
      "AZ": 2632,
      "Aw": 2633,
      "Nj": 2634,
      "dB": 2635,
      "eY": 2636,
      "eWW": 2637,
      "mG": 2638,
      "118": 2639,
      "tZW": 2640,
      "DIz": 2641,
      "F!": 2642,
      "ME": 2643,
      "bv": 2644,
      "les": 2645,
      "Wts": 2646,
      "reL": 2647,
      "YILmn": 2648,
      "boB": 2649,
      "oC": 2650,
      "lsN": 2651,
      "mOL": 2652,
      "422": 2653,
      "St": 2654,
      "Xr": 2655,
      "XNn": 2656,
      "ez": 2657,
      "fz": 2658,
      "rVZ": 2659,
      "WtrNb": 2660,
      "bDgI": 2661,
      "IqP": 2662,
      "wdA": 2663,
      "tAtZ": 2664,
      "Mw": 2665,
      "NY": 2666,
      "RJ": 2667,
      "Vp": 2668,
      "bz": 2669,
      "esZ": 2670,
      "ol": 2671,
      "pO": 2672,
      "llh": 2673,
      "Nnt": 2674,
      "114": 2675,
      "Kg": 2676,
      "ZY": 2677,
      "bev": 2678,
      "yd": 2679,
      "NnS": 2680,
      "ahZ": 2681,
      "wwY": 2682,
      "bmT": 2683,
      "NnZJs": 2684,
      "BnO": 2685,
      "NlW": 2686,
      "VNZ": 2687,
      "xA": 2688,
      "aaD": 2689,
      "aWSWrehJs": 2690,
      "bci": 2691,
      "bNe": 2692,
      "lNw": 2693,
      "vi": 2694,
      "wlJ": 2695,
      "yWb": 2696,
      "tttW": 2697,
      "ZNt": 2698,
      "qrnah": 2699,
      "byDb": 2700,
      "QM": 2701,
      "eU": 2702,
      "fqD": 2703,
      "nWZ": 2704,
      "nWb": 2705,
      "sE": 2706,
      "wIc": 2707,
      "esf": 2708,
      "JJd": 2709,
      "TdJ": 2710,
      "dWhrtN": 2711,
      "BL": 2712,
      "Bv": 2713,
      "Fq": 2714,
      "gbB": 2715,
      "h!": 2716,
      "hNn": 2717,
      "NZW": 2718,
      "wIg": 2719,
      "zcR": 2720,
      "yIY": 2721,
      "AG": 2722,
      "BW": 2723,
      "Gu": 2724,
      "daJ": 2725,
      "gm": 2726,
      "slW": 2727,
      "trsW": 2728,
      "QcV": 2729,
      "644": 2730,
      "Eh": 2731,
      "Sq": 2732,
      "Waa": 2733,
      "03": 2734,
      "GC": 2735,
      "QO": 2736,
      "QY": 2737,
      "sllZNe": 2738,
      "yr": 2739,
      "JsZe": 2740,
      "rzB": 2741,
      "bRh": 2742,
      "NQJ": 2743,
      "WqTn": 2744,
      "NJe": 2745,
      "ei": 2746,
      "jh": 2747,
      "nlq": 2748,
      "pD": 2749,
      "bOZ": 2750,
      "sut": 2751,
      "mnm": 2752,
      "Wub": 2753,
      "EU": 2754,
      "cH": 2755,
      "dI": 2756,
      "qY": 2757,
      "bBc": 2758,
      "qtS": 2759,
      "Fm": 2760,
      "MJ": 2761,
      "lWs": 2762,
      "pB": 2763,
      "sT": 2764,
      "xa": 2765,
      "aaw": 2766,
      "IID": 2767,
      "sSNdhlJ": 2768,
      "ubeT": 2769,
      "Fwf": 2770,
      "Kt": 2771,
      "PC": 2772,
      "RY": 2773,
      "dy": 2774,
      "qtr": 2775,
      "xZ": 2776,
      "JsWN": 2777,
      "Nsr": 2778,
      "aaZ": 2779,
      "WZV": 2780,
      "cco": 2781,
      "QZWa": 2782,
      "GRIf": 2783,
      "nbu": 2784,
      "Jp": 2785,
      "KZ": 2786,
      "nbb": 2787,
      "yDb": 2788,
      "WWu": 2789,
      "ssa": 2790,
      "sur": 2791,
      "nUf": 2792,
      "aJsA": 2793,
      "!p": 2794,
      "EY": 2795,
      "LIe": 2796,
      "Xsu": 2797,
      "bmB": 2798,
      "mZQ": 2799,
      "qT": 2800,
      "qww": 2801,
      "nawN": 2802,
      "wZG": 2803,
      "6242": 2804,
      "WWZNG": 2805,
      "59": 2806,
      "JWZ": 2807,
      "NM": 2808,
      "RH": 2809,
      "pns": 2810,
      "228": 2811,
      "wIw": 2812,
      "lwWs": 2813,
      "dVS": 2814,
      "boc": 2815,
      "bqi": 2816,
      "fW": 2817,
      "lWZ": 2818,
      "xY": 2819,
      "zM": 2820,
      "nBR": 2821,
      "fNV": 2822,
      "waOw": 2823,
      "sshet": 2824,
      "am": 2825,
      "nIgr": 2826,
      "sat": 2827,
      "162": 2828,
      "ANe": 2829,
      "FWd": 2830,
      "GG": 2831,
      "Lu": 2832,
      "Py": 2833,
      "RK": 2834,
      "UlN": 2835,
      "bIN": 2836,
      "dC": 2837,
      "842": 2838,
      "IIB": 2839,
      "aJtt": 2840,
      "rGq": 2841,
      "LR": 2842,
      "eqf": 2843,
      "x!": 2844,
      "NNs": 2845,
      "227": 2846,
      "Fds": 2847,
      "Gi": 2848,
      "IDO": 2849,
      "Nlq": 2850,
      "Pn": 2851,
      "fe": 2852,
      "lj": 2853,
      "NNeN": 2854,
      "trZ": 2855,
      "naZ": 2856,
      "QNlld": 2857,
      "SWrehJq": 2858,
      "KI": 2859,
      "OF": 2860,
      "UX": 2861,
      "ZDO": 2862,
      "iv": 2863,
      "lqD": 2864,
      "nCw": 2865,
      "uwI": 2866,
      "wgg": 2867,
      "xP": 2868,
      "llR": 2869,
      "rev": 2870,
      "WZnNZ": 2871,
      "NrZ": 2872,
      "Nzre": 2873,
      "ANU": 2874,
      "lUWu": 2875,
      "Ihbn": 2876,
      "UnQNsQ": 2877,
      "Ats": 2878,
      "Nll": 2879,
      "Rl": 2880,
      "YC": 2881,
      "qla": 2882,
      "rL": 2883,
      "tm": 2884,
      "!QJ": 2885,
      "RI": 2886,
      "UWW": 2887,
      "Vn": 2888,
      "oJ": 2889,
      "xK": 2890,
      "JqW": 2891,
      "atw": 2892,
      "bRcw": 2893,
      "fNv": 2894,
      "strNd": 2895,
      "!I": 2896,
      "TO": 2897,
      "fCw": 2898,
      "pC": 2899,
      "qfN": 2900,
      "dhS": 2901,
      "arn": 2902,
      "CsTe": 2903,
      "!h": 2904,
      "KL": 2905,
      "pq": 2906,
      "zQ": 2907,
      "zVS": 2908,
      "llVS": 2909,
      "Net": 2910,
      "qOg": 2911,
      "ocufc": 2912,
      "248211": 2913,
      "Av": 2914,
      "JJt": 2915,
      "RC": 2916,
      "Sn": 2917,
      "Sv": 2918,
      "TC": 2919,
      "ZDt": 2920,
      "nDb": 2921,
      "oD": 2922,
      "tJs": 2923,
      "Nna": 2924,
      "bnDb": 2925,
      "sua": 2926,
      "JWNn": 2927,
      "tnnw": 2928,
      "814": 2929,
      "GJ": 2930,
      "LF": 2931,
      "Mh": 2932,
      "NWs": 2933,
      "XX": 2934,
      "Zbn": 2935,
      "ZDa": 2936,
      "be": 2937,
      "fr": 2938,
      "mzO": 2939,
      "pF": 2940,
      "lVra": 2941,
      "baV": 2942,
      "bgL": 2943,
      "QZTJS": 2944,
      "lsTeG": 2945,
      "WsN!t": 2946,
      "!sW": 2947,
      "iL": 2948,
      "mY": 2949,
      "828": 2950,
      "tNA": 2951,
      "strNdaJ": 2952,
      "KT": 2953,
      "PU": 2954,
      "dn": 2955,
      "fy": 2956,
      "jE": 2957,
      "wDa": 2958,
      "xt": 2959,
      "tWw": 2960,
      "sDIw": 2961,
      "4241": 2962,
      "DIq": 2963,
      "lls": 2964,
      "bnm": 2965,
      "262": 2966,
      "sSNdhllN": 2967,
      "ldsWNZ": 2968,
      "Flh": 2969,
      "JWb": 2970,
      "Kb": 2971,
      "TQ": 2972,
      "WNs": 2973,
      "blh": 2974,
      "lE": 2975,
      "mV": 2976,
      "psq": 2977,
      "tht": 2978,
      "wOO": 2979,
      "nZJ": 2980,
      "wwP": 2981,
      "bnbbc": 2982,
      "bDZ": 2983,
      "naJ": 2984,
      "aVt": 2985,
      "WsNAt": 2986,
      "TllH": 2987,
      "BH": 2988,
      "Kj": 2989,
      "V!": 2990,
      "Yn": 2991,
      "df": 2992,
      "lP": 2993,
      "rE": 2994,
      "nZl": 2995,
      "nwl": 2996,
      "IqI": 2997,
      "161": 2998,
      "!sb!Q": 2999
    },
    "merges": [
      "N N",
      "2 2",
      "J s",
      "W W",
      "2 4",
      "W t",
      "N Z",
      "l l",
      "N n",
      "s W",
      "r e",
      "W s",
      "w I",
      "N e",
      "l J",
      "a h",
      "N d",
      "N s",
      "2 1",
      "t r",
      "W N",
      "q D",
      "8 4",
      "n Z",
      "l s",
      "t t",
      "a a",
      "w w",
      "1 1",
      "W Z",
      "I w",
      "t Z",
      "n I",
      "W e",
      "b n",
      "W a",
      "2 6",
      "8 2",
      "N w",
      "4 4",
      "s s",
      "a l",
      "b O",
      "t N",
      "n w",
      "b D",
      "n O",
      "a W",
      "t W",
      "n r",
      "4 2",
      "I q",
      "c w",
      "I I",
      "l h",
      "J q",
      "N r",
      "W h",
      "s u",
      "b c",
      "n N",
      "6 2",
      "l W",
      "l q",
      "C q",
      "b B",
      "d s",
      "1 2",
      "N q",
      "m n",
      "N b",
      "D D",
      "r z",
      "O w",
      "e h",
      "s a",
      "I z",
      "n a",
      "q O",
      "B w",
      "l V",
      "I s",
      "7 8",
      "W b",
      "d h",
      "W d",
      "c c",
      "m D",
      "w Z",
      "t s",
      "W r",
      "e N",
      "n c",
      "a t",
      "n q",
      "W O",
      "1 6",
      "Z l",
      "2 7",
      "J N",
      "b w",
      "n t",
      "1 8",
      "D O",
      "N l",
      "E q",
      "N z",
      "s r",
      "n B",
      "A N",
      "e T",
      "I e",
      "a r",
      "s Z",
      "w l",
      "6 4",
      "T e",
      "a N",
      "J Z",
      "D b",
      "s t",
      "q q",
      "I B",
      "4 1",
      "a n",
      "W w",
      "O O",
      "r N",
      "B B",
      "g I",
      "l N",
      "J W",
      "I D",
      "l r",
      "b R",
      "l w",
      "a J",
      "d r",
      "l Z",
      "c N",
      "V s",
      "t e",
      "m B",
      "Z Z",
      "6 8",
      "W D",
      "z B",
      "Z Q",
      "b N",
      "D N",
      "b a",
      "D h",
      "I Z",
      "q W",
      "c B",
      "Q N",
      "6 24",
      "q g",
      "l a",
      "! s",
      "Z d",
      "t w",
      "W V",
      "s q",
      "b b",
      "N Q",
      "D c",
      "q a",
      "J r",
      "f c",
      "n s",
      "n g",
      "6 1",
      "f B",
      "s S",
      "C w",
      "I g",
      "b g",
      "C s",
      "a V",
      "D B",
      "D w",
      "O N",
      "W q",
      "I N",
      "J t",
      "n U",
      "J e",
      "l t",
      "A a",
      "1 4",
      "c d",
      "z q",
      "z h",
      "I O",
      "z N",
      "l d",
      "q t",
      "e t",
      "w Q",
      "U n",
      "D g",
      "I c",
      "J w",
      "q s",
      "W c",
      "Z N",
      "D a",
      "4 8",
      "D q",
      "! N",
      "o B",
      "G d",
      "A t",
      "z c",
      "W u",
      "E E",
      "8 1",
      "m O",
      "F n",
      "e s",
      "f N",
      "h s",
      "7 2",
      "b m",
      "r r",
      "W B",
      "w N",
      "l A",
      "v O",
      "n l",
      "O c",
      "Q Z",
      "d V",
      "S W",
      "q B",
      "t a",
      "O B",
      "o c",
      "e W",
      "e V",
      "g D",
      "m R",
      "y I",
      "b Z",
      "Y I",
      "z O",
      "h a",
      "B N",
      "B b",
      "I r",
      "n n",
      "G I",
      "q N",
      "D V",
      "7 1",
      "g O",
      "D v",
      "E w",
      "q r",
      "w d",
      "w J",
      "Z J",
      "I i",
      "l e",
      "N f",
      "N c",
      "w f",
      "re h",
      "g g",
      "n i",
      "I b",
      "D t",
      "! Q",
      "W z",
      "I f",
      "a Z",
      "N t",
      "N F",
      "q E",
      "q i",
      "N u",
      "9 4",
      "h t",
      "z L",
      "c R",
      "a D",
      "r t",
      "6 6",
      "I P",
      "O g",
      "z g",
      "N a",
      "O r",
      "m c",
      "B d",
      "O D",
      "W g",
      "q w",
      "O Z",
      "z v",
      "r a",
      "r n",
      "B c",
      "1 9",
      "s n",
      "V Z",
      "B R",
      "b C",
      "t n",
      "7 6",
      "a w",
      "A s",
      "N m",
      "b y",
      "U l",
      "c Z",
      "r G",
      "9 2",
      "J J",
      "T n",
      "l y",
      "B Z",
      "D Z",
      "E z",
      "O q",
      "A A",
      "U e",
      "n ah",
      "8 7",
      "b s",
      "V t",
      "a e",
      "q f",
      "I m",
      "c s",
      "n e",
      "W U",
      "N !",
      "b t",
      "V S",
      "e L",
      "q Z",
      "c f",
      "b d",
      "N R",
      "O o",
      "Ne re",
      "g w",
      "r s",
      "f t",
      "r d",
      "D L",
      "G R",
      "W J",
      "W l",
      "2 8",
      "C Z",
      "s d",
      "a U",
      "D E",
      "w E",
      "4 6",
      "A B",
      "b T",
      "9 9",
      "w e",
      "Q B",
      "D W",
      "s U",
      "m P",
      "q C",
      "b x",
      "m y",
      "n W",
      "D s",
      "e v",
      "r Z",
      "w B",
      "z t",
      "Q s",
      "f !",
      "i B",
      "O W",
      "b A",
      "6 7",
      "h e",
      "n b",
      "q c",
      "I Q",
      "m i",
      "O t",
      "n d",
      "N J",
      "g i",
      "2 9",
      "N B",
      "O s",
      "I E",
      "T d",
      "U a",
      "q u",
      "z a",
      "n J",
      "c y",
      "w C",
      "4 7",
      "Z Wt",
      "624 1",
      "Z C",
      "n y",
      "Z p",
      "A NN",
      "w a",
      "q l",
      "F l",
      "s l",
      "q Q",
      "U N",
      "n z",
      "E s",
      "t A",
      "b l",
      "T N",
      "WW Z",
      "e a",
      "c Q",
      "I W",
      "w z",
      "E i",
      "U t",
      "s Q",
      "q P",
      "F a",
      "O !",
      "s J",
      "l U",
      "i c",
      "C N",
      "b W",
      "w c",
      "O E",
      "2 0",
      "A c",
      "D r",
      "b X",
      "! e",
      "q d",
      "q R",
      "C v",
      "f A",
      "n h",
      "a s",
      "b o",
      "x B",
      "v g",
      "w R",
      "b E",
      "Z u",
      "N W",
      "! !",
      "m g",
      "f E",
      "I h",
      "Nd h",
      "Z e",
      "O h",
      "t !",
      "I F",
      "O x",
      "r U",
      "w s",
      "7 4",
      "A V",
      "ls Te",
      "E D",
      "O C",
      "Q !",
      "q U",
      "m X",
      "t U",
      "Q c",
      "z V",
      "v B",
      "SW reh",
      "I x",
      "O y",
      "o L",
      "t J",
      "Q l",
      "C B",
      "W Nn",
      "O l",
      "D d",
      "F X",
      "ll Z",
      "r B",
      "T J",
      "N A",
      "m T",
      "w y",
      "f x",
      "e g",
      "D o",
      "c o",
      "q J",
      "T a",
      "I V",
      "N S",
      "n G",
      "Z y",
      "g r",
      "! A",
      "O i",
      "I y",
      "N U",
      "g W",
      "Q A",
      "22 2",
      "R E",
      "e c",
      "s D",
      "lJ Z",
      "I l",
      "t u",
      "F T",
      "W n",
      "d l",
      "O J",
      "m K",
      "m Z",
      "a C",
      "m w",
      "a A",
      "t S",
      "r c",
      "t h",
      "b I",
      "D i",
      "g E",
      "a B",
      "D P",
      "m I",
      "O V",
      "NN Z",
      "f o",
      "l C",
      "d G",
      "B z",
      "b q",
      "d !",
      "D C",
      "a c",
      "d A",
      "0 2",
      "6 9",
      "M B",
      "Y R",
      "l c",
      "w F",
      "z T",
      "Z W",
      "n K",
      "! q",
      "D R",
      "g B",
      "s w",
      "z X",
      "I C",
      "q y",
      "e B",
      "24 1",
      "o x",
      "N p",
      "D l",
      "e S",
      "U h",
      "8 6",
      "K B",
      "U B",
      "o O",
      "W v",
      "U J",
      "b P",
      "d Z",
      "n m",
      "G Z",
      "z W",
      "l B",
      "G h",
      "s N",
      "! t",
      "n D",
      "r A",
      "a Js",
      "C C",
      "q x",
      "eh Nere",
      "z w",
      "F R",
      "d J",
      "9 1",
      "I t",
      "r tN",
      "O G",
      "e u",
      "T t",
      "e X",
      "z s",
      "f w",
      "e b",
      "F J",
      "g P",
      "I J",
      "m E",
      "0 1",
      "o o",
      "R c",
      "C J",
      "m d",
      "R B",
      "b i",
      "ll d",
      "1 7",
      "F B",
      "Js Te",
      "D y",
      "q h",
      "Q S",
      "c E",
      "a O",
      "D m",
      "A h",
      "D x",
      "Wt Z",
      "v M",
      "w n",
      "We s",
      "z b",
      "f Z",
      "I n",
      "p l",
      "C L",
      "C E",
      "a L",
      "W L",
      "U c",
      "d t",
      "F h",
      "f J",
      "C o",
      "I !",
      "r u",
      "q S",
      "b J",
      "I A",
      "9 6",
      "F y",
      "I R",
      "ll t",
      "C c",
      "n V",
      "21 1",
      "m N",
      "w u",
      "b !",
      "F O",
      "w Y",
      "w P",
      "z E",
      "V e",
      "v S",
      "i i",
      "D J",
      "c u",
      "q !",
      "q o",
      "Q h",
      "g Z",
      "i Y",
      "C W",
      "I o",
      "a u",
      "Q J",
      "g c",
      "0 0",
      "C h",
      "y B",
      "I X",
      "r !",
      "v c",
      "f l",
      "g d",
      "O A",
      "g h",
      "t q",
      "i e",
      "dr Nn",
      "O a",
      "I a",
      "r S",
      "N T",
      "l n",
      "We J",
      "nO h",
      "g n",
      "C V",
      "Q w",
      "f s",
      "nt u",
      "r l",
      "8 8",
      "c !",
      "h B",
      "a d",
      "b bc",
      "w b",
      "U U",
      "W !",
      "W m",
      "WN !",
      "O P",
      "C x",
      "64 8",
      "z D",
      "V N",
      "4 0",
      "Z G",
      "t l",
      "h N",
      "t B",
      "V q",
      "sS Ndh",
      "bw f",
      "S e",
      "Z F",
      "a v",
      "w m",
      "e NN",
      "B l",
      "w W",
      "A T",
      "C m",
      "n R",
      "p d",
      "r R",
      "g q",
      "Z I",
      "P P",
      "y b",
      "e J",
      "r O",
      "a q",
      "D !",
      "44 8",
      "o s",
      "eT !",
      "F N",
      "F t",
      "r p",
      "9 0",
      "B e",
      "C !",
      "E b",
      "L G",
      "w g",
      "U V",
      "z m",
      "I H",
      "Z R",
      "t c",
      "n x",
      "F c",
      "B y",
      "z R",
      "L bn",
      "Un ah",
      "J !",
      "n NZ",
      "n A",
      "u w",
      "R h",
      "a p",
      "s ll",
      "C b",
      "0 8",
      "A e",
      "SWreh Js",
      "T W",
      "f S",
      "9 7",
      "t D",
      "G Q",
      "n !",
      "n P",
      "l !",
      "Z c",
      "n Nw",
      "d W",
      "r w",
      "F W",
      "y l",
      "g N",
      "z i",
      "lV S",
      "J a",
      "h q",
      "M c",
      "1 82",
      "O v",
      "o y",
      "X m",
      "g y",
      "B m",
      "u Z",
      "! NN",
      "Z f",
      "4 9",
      "C l",
      "d T",
      "B E",
      "c A",
      "h Z",
      "C i",
      "h l",
      "R s",
      "0 6",
      "o v",
      "B n",
      "e l",
      "t d",
      "nO L",
      "E c",
      "f a",
      "Q t",
      "I U",
      "J b",
      "C r",
      "I G",
      "e O",
      "v E",
      "V a",
      "z y",
      "I K",
      "g a",
      "I L",
      "Z w",
      "! B",
      "T l",
      "u l",
      "W i",
      "q n",
      "z x",
      "g U",
      "d N",
      "W A",
      "J U",
      "r b",
      "W F",
      "1 3",
      "Z B",
      "l D",
      "y N",
      "O L",
      "o E",
      "o q",
      "q A",
      "i G",
      "s lJ",
      "V G",
      "x w",
      "g K",
      "c b",
      "V O",
      "Z n",
      "Wt rN",
      "NZ Wt",
      "c O",
      "nZ G",
      "c l",
      "J l",
      "g R",
      "1 0",
      "w G",
      "! a",
      "r q",
      "x x",
      "bw Q",
      "L M",
      "r Q",
      "d e",
      "eT A",
      "Ws N",
      "m W",
      "w q",
      "Y z",
      "W NN",
      "A l",
      "s O",
      "r m",
      "w i",
      "A y",
      "I v",
      "I qD",
      "p h",
      "N WW",
      "c q",
      "p N",
      "22 1",
      "y f",
      "o N",
      "F D",
      "L B",
      "b f",
      "s f",
      "Z P",
      "A q",
      "g l",
      "y E",
      "c J",
      "w O",
      "8 0",
      "i n",
      "ll N",
      "m x",
      "s tr",
      "bD v",
      "F P",
      "W P",
      "g e",
      "r F",
      "w D",
      "f C",
      "T z",
      "9 8",
      "a y",
      "rz h",
      "g t",
      "Ws Tn",
      "K q",
      "m U",
      "B i",
      "w t",
      "X N",
      "s i",
      "O b",
      "! b",
      "Z t",
      "U d",
      "p J",
      "Js W",
      "g o",
      "r f",
      "7 7",
      "c i",
      "g x",
      "I d",
      "q G",
      "w r",
      "a G",
      "m l",
      "N G",
      "n v",
      "sr nah",
      "l b",
      "L mn",
      "lJ t",
      "d p",
      "E P",
      "d U",
      "s Wt",
      "J F",
      "O R",
      "N y",
      "b NN",
      "h bn",
      "g Y",
      "t V",
      "v s",
      "V sW",
      "Z T",
      "a I",
      "QN h",
      "l G",
      "A Nd",
      "A O",
      "Q x",
      "s F",
      "s h",
      "y c",
      "u fc",
      "E B",
      "A n",
      "I Y",
      "9 3",
      "L Y",
      "! Z",
      "s e",
      "i z",
      "A J",
      "s Unah",
      "z P",
      "r h",
      "w Wt",
      "d d",
      "re N",
      "fB L",
      "i R",
      "K c",
      "C O",
      "R N",
      "w p",
      "5 4",
      "s M",
      "Ns Q",
      "g !",
      "m a",
      "E R",
      "W R",
      "E m",
      "J d",
      "X B",
      "D z",
      "E e",
      "J A",
      "tr tr",
      "al at",
      "C t",
      "s y",
      "r i",
      "y y",
      "g G",
      "ah t",
      "U G",
      "o V",
      "J B",
      "O n",
      "nr f",
      "g z",
      "W I",
      "s p",
      "na V",
      "D U",
      "F d",
      "b h",
      "v bn",
      "nt h",
      "r W",
      "WW w",
      "l I",
      "l O",
      "l v",
      "Q q",
      "m f",
      "h Fn",
      "U z",
      "8 9",
      "c C",
      "x e",
      "N D",
      "T su",
      "V B",
      "g s",
      "P B",
      "y w",
      "a !",
      "c e",
      "a i",
      "P O",
      "r J",
      "nZ Js",
      "L O",
      "C R",
      "u b",
      "F g",
      "N O",
      "U JN",
      "0 9",
      "X e",
      "E I",
      "T S",
      "w !",
      "U r",
      "X b",
      "l L",
      "s tt",
      "V W",
      "T F",
      "m q",
      "l p",
      "u e",
      "v t",
      "Q r",
      "g A",
      "L YI",
      "x c",
      "22 4",
      "L E",
      "X J",
      "X d",
      "Y e",
      "X c",
      "B K",
      "n S",
      "Nd s",
      "m r",
      "w K",
      "nO v",
      "G qq",
      "l T",
      "s !",
      "Z Wa",
      "Q Vs",
      "q I",
      "Q e",
      "U R",
      "bD h",
      "D G",
      "f O",
      "n p",
      "ll w",
      "t i",
      "1 84",
      "V w",
      "M D",
      "Y E",
      "x y",
      "z Z",
      "d a",
      "P i",
      "m A",
      "Nn Z",
      "x L",
      "I T",
      "b F",
      "S B",
      "Q Q",
      "d Wh",
      "u a",
      "qD Iw",
      "e w",
      "y W",
      "0 4",
      "y J",
      "eh Js",
      "Z a",
      "g C",
      "3 4",
      "i N",
      "h tW",
      "l R",
      "6 0",
      "W C",
      "Ne rz",
      "y Z",
      "y m",
      "b Q",
      "R a",
      "b K",
      "n o",
      "s B",
      "c x",
      "e m",
      "v G",
      "n tZ",
      "z J",
      "p a",
      "B r",
      "h O",
      "o g",
      "D A",
      "S l",
      "We l",
      "4 3",
      "s C",
      "WW ZN",
      "h G",
      "v N",
      "! c",
      "R x",
      "F C",
      "Q o",
      "B A",
      "c z",
      "V u",
      "m t",
      "p Z",
      "B I",
      "W sW",
      "e Z",
      "v q",
      "O I",
      "4 82",
      "N X",
      "n Y",
      "tr n",
      "d q",
      "e q",
      "m m",
      "U O",
      "n cw",
      "u f",
      "b r",
      "i E",
      "o w",
      "t z",
      "B C",
      "R q",
      "l sW",
      "K X",
      "! z",
      "V M",
      "2 5",
      "v mn",
      "a g",
      "NZ Z",
      "n F",
      "B F",
      "Z E",
      "h mn",
      "i x",
      "p W",
      "t O",
      "R w",
      "nU Wu",
      "t I",
      "l F",
      "nO V",
      "m h",
      "o !",
      "d b",
      "z C",
      "B J",
      "24 82",
      "b S",
      "3 9",
      "e F",
      "l i",
      "y F",
      "R D",
      "c r",
      "y D",
      "tN tr",
      "B s",
      "S J",
      "Z m",
      "Nd tW",
      "ss h",
      "bb T",
      "24 8",
      "v w",
      "Z b",
      "y Y",
      "G E",
      "n L",
      "b U",
      "f h",
      "q M",
      "v x",
      "3 2",
      "rn Q",
      "C A",
      "a T",
      "a ls",
      "p t",
      "84 4",
      "q aa",
      "a P",
      "bn c",
      "Q F",
      "T u",
      "e D",
      "q z",
      "W K",
      "S s",
      "G b",
      "g J",
      "G s",
      "C D",
      "ah a",
      "n Bw",
      "u t",
      "c a",
      "l ds",
      "R V",
      "K x",
      "b bB",
      "q L",
      "nr Q",
      "Z D",
      "R O",
      "X n",
      "y !",
      "ld sW",
      "m s",
      "o A",
      "Ws Ta",
      "e p",
      "y Q",
      "dh tr",
      "E x",
      "i m",
      "o h",
      "G f",
      "a z",
      "c n",
      "d L",
      "P g",
      "J z",
      "na L",
      "G N",
      "K w",
      "R t",
      "W S",
      "E y",
      "E O",
      "Y qq",
      "F Z",
      "c g",
      "m wf",
      "R b",
      "wI B",
      "bZ f",
      "7 5",
      "a Jq",
      "F A",
      "G w",
      "U A",
      "c t",
      "f Q",
      "o t",
      "Ws Tt",
      "O d",
      "l NZ",
      "v a",
      "E L",
      "u rU",
      "lJ w",
      "Nd aJ",
      "h A",
      "B !",
      "N C",
      "O e",
      "X a",
      "O U",
      "E o",
      "T !",
      "y z",
      "J NZ",
      "N I",
      "r V",
      "Q b",
      "s sW",
      "Q a",
      "21 2",
      "rG s",
      "P h",
      "r I",
      "T ll",
      "Nn tu",
      "J V",
      "m z",
      "ll a",
      "W o",
      "WN A",
      "lW @",
      "C I",
      "f q",
      "wI P",
      "lJ d",
      "a S",
      "b u",
      "n ds",
      "y G",
      "fB h",
      "V A",
      "e drNn",
      "w x",
      "C S",
      "K N",
      "g L",
      "v Z",
      "J h",
      "X x",
      "e d",
      "Zd !",
      "2 3",
      "F U",
      "J S",
      "eV Nere",
      "bO L",
      "r Nb",
      "P c",
      "s I",
      "Q C",
      "Y d",
      "n C",
      "y x",
      "! r",
      "P D",
      "u Q",
      "Y V",
      "e !",
      "s g",
      "fc L",
      "J m",
      "c T",
      "1 44",
      "D u",
      "M W",
      "U p",
      "e re",
      "G l",
      "w A",
      "aa W",
      "U W",
      "l z",
      "w T",
      "O S",
      "R o",
      "bD L",
      "T A",
      "Nd aW",
      "r K",
      "f i",
      "an nw",
      "ss lJ",
      "D e",
      "Z z",
      "y e",
      "W NZ",
      "V m",
      "Z s",
      "g Db",
      "7 0",
      "C d",
      "h aW",
      "l m",
      "c G",
      "ss ll",
      "g Iw",
      "Qh sW",
      "A !",
      "P q",
      "P t",
      "T I",
      "al aa",
      "C e",
      "N K",
      "bO h",
      "nr Wu",
      "c X",
      "p r",
      "B G",
      "T T",
      "d Nr",
      "s aa",
      "u A",
      "sW N",
      "eL nq",
      "U tN",
      "f R",
      "E K",
      "o e",
      "x N",
      "NZ l",
      "h J",
      "re V",
      "6 68",
      "w nl",
      "d Q",
      "lZ Ws",
      "Z X",
      "z o",
      "h w",
      "V tW",
      "m Q",
      "u N",
      "z !",
      "NQ WNn",
      "K O",
      "S N",
      "Y q",
      "QN V",
      "T Z",
      "B a",
      "i O",
      "! F",
      "J I",
      "x q",
      "C y",
      "S r",
      "T b",
      "I u",
      "c m",
      "D K",
      "L s",
      "B O",
      "J O",
      "R r",
      "W G",
      "n j",
      "P w",
      "fB v",
      "E g",
      "z f",
      "na u",
      "V r",
      "D Nn",
      "S A",
      "g v",
      "Ns Z",
      "D I",
      "q V",
      "x O",
      "J c",
      "X F",
      "z I",
      "A Q",
      "Y i",
      "! m",
      "C a",
      "G su",
      "w U",
      "x m",
      "dh ll",
      "G qs",
      "u d",
      "B U",
      "F nZ",
      "h W",
      "! d",
      "D Ow",
      "e e",
      "Wr h",
      "E Z",
      "JW @",
      "a K",
      "p s",
      "z d",
      "lJ N",
      "y i",
      "NN N",
      "Wd r",
      "A b",
      "C F",
      "E v",
      "P Z",
      "S Z",
      "r aN",
      "M C",
      "o b",
      "z r",
      "11 1",
      "ss nah",
      "ds N",
      "R Z",
      "tt Z",
      "s G",
      "A g",
      "B q",
      "V bn",
      "h g",
      "p U",
      "t Q",
      "nI gi",
      "J n",
      "X z",
      "na v",
      "R !",
      "NZ Wa",
      "u r",
      "R L",
      "QZ Wt",
      "b ZQ",
      "x s",
      "II P",
      "V d",
      "f M",
      "K s",
      "S S",
      "Y w",
      "Wt w",
      "zL nq",
      "f b",
      "p V",
      "K M",
      "nI g",
      "mB m",
      "TJ S",
      "A d",
      "B u",
      "e G",
      "t g",
      "bD V",
      "! O",
      "l g",
      "z u",
      "i r",
      "NN WW",
      "Wh rtN",
      "U y",
      "b IB",
      "z F",
      "R G",
      "T m",
      "i b",
      "X R",
      "X l",
      "26 1",
      "P s",
      "S h",
      "X t",
      "Z q",
      "b ah",
      "j d",
      "s A",
      "t WW",
      "x g",
      "nr G",
      "rz N",
      "eT! Nr",
      "i o",
      "Ie G",
      "d v",
      "h c",
      "h m",
      "i K",
      "m wQ",
      "G e",
      "8 24",
      "b Nb",
      "o a",
      "f f",
      "x z",
      "A r",
      "M P",
      "Q T",
      "j R",
      "fc v",
      "dT NZ",
      "L e",
      "P V",
      "i Q",
      "C H",
      "g V",
      "y o",
      "C P",
      "T s",
      "l o",
      "A F",
      "L m",
      "C g",
      "mn c",
      "N Js",
      "X I",
      "x i",
      "X E",
      "Ne N",
      "c V",
      "l Js",
      "B x",
      "K f",
      "R v",
      "tZ Z",
      "U i",
      "X !",
      "y P",
      "bO v",
      "eT AV",
      "X w",
      "3 0",
      "d x",
      "! w",
      "B o",
      "G W",
      "N Wt",
      "P a",
      "d F",
      "m J",
      "mD v",
      "bb X",
      "fN h",
      "C qD",
      "G q",
      "R g",
      "h y",
      "l H",
      "e NNZ",
      "n Q",
      "P r",
      "b !Q",
      "B g",
      "O m",
      "l S",
      "t NZ",
      "o Z",
      "Gd G",
      "C z",
      "e I",
      "r T",
      "x b",
      "a R",
      "Wb Q",
      "c I",
      "s Ns",
      "t WZ",
      "x E",
      "Ws N!",
      "3 3",
      "a NZ",
      "s c",
      "w wI",
      "7 18",
      "N Wd",
      "Q W",
      "r M",
      "n Dv",
      "NN e",
      "D NZ",
      "We N",
      "L g",
      "P N",
      "V c",
      "n f",
      "al VS",
      "l WN",
      "Z h",
      "u y",
      "z K",
      "Nd al",
      "A W",
      "nN YV",
      "J NN",
      "L c",
      "P I",
      "t F",
      "84 222",
      "Un Q",
      "Nn r",
      "bn B",
      "mn B",
      "V sa",
      "x V",
      "e n",
      "s b",
      "v y",
      "L q",
      "i d",
      "C f",
      "F ah",
      "s V",
      "8 22",
      "m o",
      "Wb QN",
      "U Z",
      "b V",
      "D Ww",
      "L i",
      "N h",
      "y A",
      "O M",
      "Y P",
      "u J",
      "mD h",
      "3 7",
      "G B",
      "U C",
      "mZ f",
      "G r",
      "G sq",
      "K o",
      "q tt",
      "V g",
      "t K",
      "bc N",
      "nZJs sS",
      "D gI",
      "F w",
      "N Wes",
      "Z !",
      "e K",
      "q b",
      "v A",
      "an nZ",
      "B h",
      "m IB",
      "r bA",
      "qD M",
      "nI Or",
      "Se re",
      "G V",
      "a F",
      "e R",
      "t p",
      "nZ p",
      "D wI",
      "P z",
      "r o",
      "v !",
      "E W",
      "llZ Ne",
      "G !",
      "W p",
      "ANN eNN",
      "eTA Nr",
      "B Q",
      "B Y",
      "O Wb",
      "d o",
      "h S",
      "x o",
      "NN f",
      "al q",
      "A tZ",
      "F Q",
      "L S",
      "U F",
      "dV tr",
      "O z",
      "5 2",
      "z S",
      "D n",
      "N Wa",
      "Z r",
      "I DD",
      "f d",
      "a WW",
      "i w",
      "y s",
      "44 4",
      "sd !",
      "d sW",
      "i U",
      "L y",
      "W T",
      "g Wb",
      "r ss",
      "u B",
      "u rr",
      "NN A",
      "zq f",
      "p w",
      "t b",
      "Ne NN",
      "eh nq",
      "Qc h",
      "n E",
      "J D",
      "Q d",
      "Z j",
      "u trn",
      "8 21",
      "P v",
      "i I",
      "n M",
      "sW Z",
      "R A",
      "Nd V",
      "21 8",
      "mD L",
      "B f",
      "b su",
      "o m",
      "v d",
      "Js Nn",
      "B t",
      "P E",
      "1 5",
      "nt V",
      "Q U",
      "X JN",
      "a b",
      "p R",
      "dh ar",
      "7 9",
      "O f",
      "P m",
      "S D",
      "d WV",
      "q Wt",
      "4 24",
      "f V",
      "nw G",
      "b tZ",
      "c U",
      "q F",
      "Y DD",
      "Z A",
      "h F",
      "t lVS",
      "ll Ir",
      "Q E",
      "S z",
      "Z O",
      "o I",
      "ww d",
      "SW rzh",
      "D Nw",
      "Ig r",
      "aV Z",
      "K E",
      "X u",
      "c L",
      "p p",
      "4 5",
      "D Iw",
      "G m",
      "I p",
      "T lJ",
      "Iq W",
      "llZ Wh",
      "N g",
      "N o",
      "c F",
      "z l",
      "lh Te",
      "Wh lV",
      "c h",
      "y O",
      "edrNn l",
      "J H",
      "T B",
      "U eN",
      "s P",
      "Js n",
      "Is y",
      "ww Z",
      "ON tr",
      "P L",
      "W E",
      "m C",
      "! f",
      "d S",
      "e C",
      "q m",
      "WN w",
      "J lZ",
      "h tw",
      "r g",
      "t nw",
      "re sQ",
      "Ws TW",
      "qO O",
      "5 1",
      "E C",
      "U !",
      "i C",
      "q v",
      "s nl",
      "w WO",
      "X S",
      "i h",
      "tr N",
      "R z",
      "U m",
      "f g",
      "s m",
      "x I",
      "lq Te",
      "A L",
      "D X",
      "Q m",
      "Q hs",
      "U w",
      "U aN",
      "eh ls",
      "O u",
      "e r",
      "! V",
      "R W",
      "b Ic",
      "r aW",
      "s WW",
      "y Iw",
      "rz qf",
      "tA n",
      "c Eq",
      "e M",
      "l X",
      "n Js",
      "w X",
      "z n",
      "D M",
      "E r",
      "Y f",
      "o Q",
      "v R",
      "nw Js",
      "O cw",
      "e lJ",
      "t P",
      "sa r",
      "es Q",
      "A p",
      "O Db",
      "U L",
      "j V",
      "s QN",
      "lJZ Ne",
      "N i",
      "a WZ",
      "r NZ",
      "Ns ll",
      "E F",
      "E a",
      "J i",
      "V F",
      "h tZ",
      "q ll",
      "G ss",
      "R i",
      "z G",
      "Iq y",
      "ng h",
      "y C",
      "D F",
      "W Q",
      "V mn",
      "Z U",
      "h U",
      "o f",
      "QB L",
      "T ru",
      "bB B",
      "16 4",
      "eT Ah",
      "sn ft",
      "1 22",
      "O K",
      "l NN",
      "t nI",
      "I EE",
      "J Q",
      "S C",
      "x cu",
      "sW Iw",
      "bn b",
      "bB i",
      "NQ W",
      "NdtW SWrehJs",
      "T r",
      "a tZ",
      "q Ns",
      "E H",
      "R m",
      "S U",
      "bc c",
      "rz V",
      "27 1",
      "WW s",
      "U T",
      "g b",
      "w Wa",
      "ng L",
      "aA n",
      "K Q",
      "W y",
      "v u",
      "A m",
      "S f",
      "nn y",
      "S Q",
      "a X",
      "p n",
      "6 3",
      "B T",
      "E qD",
      "c D",
      "h WZ",
      "z z",
      "Nq tS",
      "fc h",
      "F I",
      "S c",
      "X W",
      "Y r",
      "P x",
      "a Aa",
      "n sr",
      "y K",
      "! W",
      "F V",
      "T q",
      "m NN",
      "w j",
      "! n",
      "B V",
      "Q WW",
      "b ds",
      "zv nq",
      "E ny",
      "e x",
      "o qg",
      "q K",
      "w S",
      "nI Oi",
      "bc B",
      "M L",
      "N V",
      "w nJ",
      "y R",
      "Iw l",
      "Wh As",
      "lN @",
      "Q V",
      "T o",
      "W x",
      "r ON",
      "w o",
      "Nw Z",
      "64 1",
      "G A",
      "V Fn",
      "b Iz",
      "Nw Wt",
      "Nf l",
      "B X",
      "J @",
      "L t",
      "L Fn",
      "W Ow",
      "eh Nerz",
      "6 5",
      "F p",
      "G x",
      "L a",
      "b Ie",
      "d i",
      "q wI",
      "nI OB",
      "lZ We",
      "Ig i",
      "JsTe p",
      "c v",
      "m !",
      "o n",
      "r Ne",
      "t nZ",
      "w ll",
      "x F",
      "22 6",
      "ls sS",
      "F nN",
      "q X",
      "t C",
      "z NN",
      "WW d",
      "J JZ",
      "Y B",
      "o z",
      "w DO",
      "I wI",
      "M v",
      "O Q",
      "y a",
      "NQ Q",
      "Je s",
      "T K",
      "lsTe p",
      "! S",
      "! o",
      "V Nr",
      "i g",
      "m u",
      "G ww",
      "Js Z",
      "Nn w",
      "Nd Q",
      "J C",
      "P o",
      "T R",
      "h NZ",
      "j I",
      "aa nZ",
      "Nf J",
      "QB h",
      "P W",
      "i A",
      "re qf",
      "wI N",
      "bn N",
      "lA A",
      "GI Lbn",
      "V b",
      "W lh",
      "h p",
      "B p",
      "D f",
      "h ll",
      "Wd rN",
      "SWreh ls",
      "! K",
      "d K",
      "m F",
      "t f",
      "AN Q",
      "! U",
      "d w",
      "lJ a",
      "ss t",
      "mB i",
      "D lh",
      "v o",
      "Nn l",
      "mD gI",
      "JZ Ws",
      "bm X",
      "! g",
      "F r",
      "P R",
      "X C",
      "bB b",
      "L w",
      "x h",
      "A U",
      "X q",
      "b Wh",
      "I sW",
      "J ts",
      "L N",
      "L z",
      "t R",
      "v J",
      "bB N",
      "sSNdh ll",
      "8 5",
      "p qq",
      "1 21",
      "W Iw",
      "v m",
      "y n",
      "NN Q",
      "We q",
      "bR Nw",
      "48 211",
      "l K",
      "WZ n",
      "nO u",
      "G c",
      "Q p",
      "a E",
      "y q",
      "h d",
      "v e",
      "JN @",
      "K Y",
      "N Gh",
      "O X",
      "U g",
      "e Ne",
      "i V",
      "m nN",
      "o qO",
      "I j",
      "S lW",
      "rnQ NsQ",
      "e Q",
      "s R",
      "t Wt",
      "mO v",
      "4 71",
      "D T",
      "F ZQ",
      "G z",
      "i a",
      "s Nt",
      "lh N",
      "h r",
      "m e",
      "Ns t",
      "Cq n",
      "Dc M",
      "wd !",
      "! l",
      "C Wb",
      "O Js",
      "R F",
      "f m",
      "q lt",
      "t o",
      "nt w",
      "p dr",
      "al tt",
      "Jq Te",
      "sa d",
      "Nz rz",
      "B D",
      "M N",
      "X o",
      "ww w",
      "oc u",
      "ni f",
      "! x",
      "G wZ",
      "L x",
      "T w",
      "sW r",
      "nI O",
      "ss J",
      "5 6",
      "G t",
      "V z",
      "c S",
      "f F",
      "i f",
      "j e",
      "u R",
      "D NN",
      "U b",
      "i J",
      "r y",
      "Nn U",
      "Ns tS",
      "3 6",
      "N ls",
      "P d",
      "X T",
      "h h",
      "p e",
      "wI D",
      "21 22",
      "dh lJ",
      "16 8",
      "F s",
      "N @",
      "n ft",
      "o d",
      "r x",
      "t NN",
      "Ns Zd",
      "nr p",
      "AN f",
      "R f",
      "e Ue",
      "J G",
      "L Z",
      "U s",
      "V NN",
      "L Iz",
      "W wI",
      "Y Y",
      "i !",
      "y u",
      "D S",
      "X oL",
      "sa U",
      "qW Iw",
      "sn J",
      "V J",
      "X Z",
      "s fN",
      "WD w",
      "P J",
      "m Nm",
      "GI hbn",
      "G D",
      "M z",
      "N x",
      "V aW",
      "h b",
      "Wc !",
      "R e",
      "T c",
      "a o",
      "l x",
      "q e",
      "x d",
      "ID i",
      "ba L",
      "Zd A",
      "wN S",
      "! J",
      "4 21",
      "S w",
      "Y Z",
      "f v",
      "h z",
      "s Jt",
      "sq lJ",
      "ev nq",
      "E d",
      "M x",
      "O T",
      "P !",
      "Q sW",
      "e dr",
      "E n",
      "W Js",
      "W Ne",
      "i zq",
      "Ns l",
      "aV S",
      "A X",
      "F f",
      "J ld",
      "K D",
      "Z S",
      "e A",
      "u U",
      "nI B",
      "ss l",
      "dh llN",
      "oB u",
      "Gd If",
      "3 1",
      "K h",
      "t x",
      "u m",
      "v Iz",
      "Iw E",
      "bO c",
      "K G",
      "O Y",
      "S !",
      "ah aaW",
      "C M",
      "K a",
      "Q VsW",
      "d c",
      "q p",
      "u g",
      "bB m",
      "rz v",
      "Is I",
      "Q rr",
      "Z WO",
      "i l",
      "u W",
      "Js N",
      "NZ J",
      "bc b",
      "J WN",
      "NN b",
      "bO V",
      "st S",
      "NdaW SWrehJs",
      "B P",
      "D j",
      "G O",
      "N E",
      "h V",
      "o Nu",
      "q lJ",
      "ut Un",
      "i Z",
      "v Ie",
      "re qQ",
      "ss d",
      "W lVS",
      "a nZ",
      "b WZ",
      "y V",
      "mD V",
      "! T",
      "d O",
      "x v",
      "4 18",
      "L b",
      "c W",
      "h ts",
      "aa nw",
      "ww E",
      "11 2",
      "O qD",
      "X A",
      "X s",
      "d z",
      "Ns aa",
      "J K",
      "N lJ",
      "f L",
      "l ts",
      "nn Nn",
      "M l",
      "P K",
      "P b",
      "Z nr",
      "Z nl",
      "a tW",
      "f Vs",
      "r C",
      "u s",
      "Ne Ue",
      "ss lW",
      "1 24",
      "7 11",
      "E V",
      "F Dh",
      "T U",
      "W gI",
      "i y",
      "r j",
      "su r!",
      "DD w",
      "P e",
      "S a",
      "U v",
      "y p",
      "bR q",
      "8 3",
      "i s",
      "t T",
      "tW SWrehJs",
      "Iq E",
      "zh Js",
      "6 11",
      "F wQ",
      "Q I",
      "o X",
      "x C",
      "x qg",
      "Wt r",
      "F i",
      "J u",
      "z Y",
      "Nl WN",
      "sq h",
      "ng v",
      "J o",
      "S we",
      "y g",
      "y j",
      "lw sS",
      "C G",
      "P l",
      "Z x",
      "n lw",
      "o i",
      "p A",
      "s K",
      "su Nl",
      "Wz J",
      "htW l",
      "Tru te",
      "4 16",
      "F x",
      "h st",
      "y t",
      "Js !",
      "WN JW",
      "sa e",
      "bN c",
      "fB V",
      "tJ tt",
      "F WZ",
      "G U",
      "O Ow",
      "d m",
      "s z",
      "24 2",
      "rz L",
      "Is D",
      "66 82",
      "D WZ",
      "O Iw",
      "R P",
      "i t",
      "bO B",
      "Zl a",
      "rG l",
      "A Z",
      "A w",
      "N j",
      "d B",
      "e Y",
      "e WW",
      "m G",
      "11 8",
      "tZ W",
      "D Iz",
      "F !",
      "M E",
      "b v",
      "l es",
      "Wt s",
      "re L",
      "YI Lmn",
      "b oB",
      "o C",
      "ls N",
      "mO L",
      "4 22",
      "S t",
      "X r",
      "X Nn",
      "e z",
      "f z",
      "r VZ",
      "Wt rNb",
      "bD gI",
      "Iq P",
      "wd A",
      "tA tZ",
      "M w",
      "N Y",
      "R J",
      "V p",
      "b z",
      "e sZ",
      "o l",
      "p O",
      "ll h",
      "Nn t",
      "11 4",
      "K g",
      "Z Y",
      "b ev",
      "y d",
      "Nn S",
      "ah Z",
      "ww Y",
      "bm T",
      "NnZ Js",
      "B nO",
      "N lW",
      "V NZ",
      "x A",
      "aa D",
      "aW SWrehJs",
      "bc i",
      "b Ne",
      "l Nw",
      "v i",
      "w lJ",
      "y Wb",
      "tt tW",
      "ZN t",
      "qr nah",
      "by Db",
      "Q M",
      "e U",
      "f qD",
      "n WZ",
      "n Wb",
      "s E",
      "wI c",
      "es f",
      "JJ d",
      "Td J",
      "dWh rtN",
      "B L",
      "B v",
      "F q",
      "g bB",
      "h !",
      "h Nn",
      "NZ W",
      "wI g",
      "zc R",
      "yI Y",
      "A G",
      "B W",
      "G u",
      "d aJ",
      "g m",
      "s lW",
      "tr sW",
      "Qc V",
      "6 44",
      "E h",
      "S q",
      "W aa",
      "0 3",
      "G C",
      "Q O",
      "Q Y",
      "s llZNe",
      "y r",
      "Js Ze",
      "rz B",
      "bR h",
      "NQ J",
      "Wq Tn",
      "N Je",
      "e i",
      "j h",
      "n lq",
      "p D",
      "bO Z",
      "su t",
      "mn m",
      "Wu b",
      "E U",
      "c H",
      "d I",
      "q Y",
      "bB c",
      "qt S",
      "F m",
      "M J",
      "l Ws",
      "p B",
      "s T",
      "x a",
      "aa w",
      "II D",
      "sSNdh lJ",
      "ub eT",
      "F wf",
      "K t",
      "P C",
      "R Y",
      "d y",
      "q tr",
      "x Z",
      "Js WN",
      "Ns r",
      "aa Z",
      "WZ V",
      "cc o",
      "QZ Wa",
      "GR If",
      "nb u",
      "J p",
      "K Z",
      "n bb",
      "y Db",
      "WW u",
      "ss a",
      "su r",
      "nU f",
      "aJs A",
      "! p",
      "E Y",
      "L Ie",
      "X su",
      "b mB",
      "m ZQ",
      "q T",
      "q ww",
      "na wN",
      "wZ G",
      "624 2",
      "WWZN G",
      "5 9",
      "J WZ",
      "N M",
      "R H",
      "p ns",
      "22 8",
      "wI w",
      "lw Ws",
      "dV S",
      "b oc",
      "b qi",
      "f W",
      "l WZ",
      "x Y",
      "z M",
      "nB R",
      "fN V",
      "wa Ow",
      "ssh et",
      "a m",
      "nI gr",
      "sa t",
      "1 62",
      "A Ne",
      "F Wd",
      "G G",
      "L u",
      "P y",
      "R K",
      "U lN",
      "b IN",
      "d C",
      "84 2",
      "II B",
      "aJ tt",
      "rG q",
      "L R",
      "e qf",
      "x !",
      "NN s",
      "22 7",
      "F ds",
      "G i",
      "I DO",
      "N lq",
      "P n",
      "f e",
      "l j",
      "NN eN",
      "tr Z",
      "na Z",
      "QN lld",
      "SWreh Jq",
      "K I",
      "O F",
      "U X",
      "Z DO",
      "i v",
      "l qD",
      "n Cw",
      "u wI",
      "w gg",
      "x P",
      "ll R",
      "re v",
      "WZ nNZ",
      "Nr Z",
      "Nz re",
      "AN U",
      "lU Wu",
      "Ih bn",
      "UnQ NsQ",
      "A ts",
      "N ll",
      "R l",
      "Y C",
      "q la",
      "r L",
      "t m",
      "!Q J",
      "R I",
      "U WW",
      "V n",
      "o J",
      "x K",
      "Jq W",
      "at w",
      "bR cw",
      "fN v",
      "str Nd",
      "! I",
      "T O",
      "f Cw",
      "p C",
      "q fN",
      "dh S",
      "ar n",
      "Cs Te",
      "! h",
      "K L",
      "p q",
      "z Q",
      "z VS",
      "ll VS",
      "Ne t",
      "qO g",
      "oc ufc",
      "248 211",
      "A v",
      "J Jt",
      "R C",
      "S n",
      "S v",
      "T C",
      "Z Dt",
      "n Db",
      "o D",
      "t Js",
      "Nn a",
      "bn Db",
      "su a",
      "JW Nn",
      "tn nw",
      "8 14",
      "G J",
      "L F",
      "M h",
      "N Ws",
      "X X",
      "Z bn",
      "Z Da",
      "b e",
      "f r",
      "m zO",
      "p F",
      "lV ra",
      "ba V",
      "bg L",
      "QZ TJS",
      "lsTe G",
      "WsN! t",
      "! sW",
      "i L",
      "m Y",
      "82 8",
      "tN A",
      "str NdaJ",
      "K T",
      "P U",
      "d n",
      "f y",
      "j E",
      "w Da",
      "x t",
      "tW w",
      "sD Iw",
      "4 241",
      "D Iq",
      "ll s",
      "bn m",
      "26 2",
      "sSNdh llN",
      "ldsW NZ",
      "F lh",
      "J Wb",
      "K b",
      "T Q",
      "W Ns",
      "b lh",
      "l E",
      "m V",
      "p sq",
      "t ht",
      "w OO",
      "nZ J",
      "ww P",
      "bn bbc",
      "bD Z",
      "na J",
      "aV t",
      "WsN At",
      "Tll H",
      "B H",
      "K j",
      "V !",
      "Y n",
      "d f",
      "l P",
      "r E",
      "nZ l",
      "nw l",
      "Iq I",
      "16 1",
      "!s b!Q"
    ]
  }
}