{
  "version": "1.0",
  "truncation": null,
  "padding": null,
  "added_tokens": [
    {
      "id": 0,
      "content": "[UNK]",
      "single_word": false,
      "lstrip": false,
      "rstrip": false,
      "normalized": false,
      "special": true
    },
    {
      "id": 1,
      "content": "[CLS]",
      "single_word": false,
      "lstrip": false,
      "rstrip": false,
      "normalized": false,
      "special": true
    },
    {
      "id": 2,
      "content": "[SEP]",
      "single_word": false,
      "lstrip": false,
      "rstrip": false,
      "normalized": false,
      "special": true
    },
    {
      "id": 3,
      "content": "[PAD]",
      "single_word": false,
      "lstrip": false,
      "rstrip": false,
      "normalized": false,
      "special": true
    },
    {
      "id": 4,
      "content": "[MASK]",
      "single_word": false,
      "lstrip": false,
      "rstrip": false,
      "normalized": false,
      "special": true
    },
    {
      "id": 5,
      "content": "[BOS]",
      "single_word": false,
      "lstrip": false,
      "rstrip": false,
      "normalized": false,
      "special": true
    },
    {
      "id": 6,
      "content": "[EOS]",
      "single_word": false,
      "lstrip": false,
      "rstrip": false,
      "normalized": false,
      "special": true
    }
  ],
  "normalizer": null,
  "pre_tokenizer": {
    "type": "Digits",
    "individual_digits": false
  },
  "post_processor": {
    "type": "TemplateProcessing",
    "single": [
      {
        "SpecialToken": {
          "id": "[BOS]",
          "type_id": 0
        }
      },
      {
        "Sequence": {
          "id": "A",
          "type_id": 0
        }
      },
      {
        "SpecialToken": {
          "id": "[EOS]",
          "type_id": 0
        }
      }
    ],
    "pair": [
      {
        "Sequence": {
          "id": "A",
          "type_id": 0
        }
      },
      {
        "Sequence": {
          "id": "B",
          "type_id": 1
        }
      }
    ],
    "special_tokens": {
      "[BOS]": {
        "id": "[BOS]",
        "ids": [
          5
        ],
        "tokens": [
          "[BOS]"
        ]
      },
      "[EOS]": {
        "id": "[EOS]",
        "ids": [
          6
        ],
        "tokens": [
          "[EOS]"
        ]
      }
    }
  },
  "decoder": {
    "type": "ByteLevel",
    "add_prefix_space": true,
    "trim_offsets": true,
    "use_regex": true
  },
  "model": {
    "type": "BPE",
    "dropout": null,
    "unk_token": "[UNK]",
    "continuing_subword_prefix": null,
    "end_of_word_suffix": null,
    "fuse_unk": false,
    "byte_fallback": false,
    "vocab": {
      "[UNK]": 0,
      "[CLS]": 1,
      "[SEP]": 2,
      "[PAD]": 3,
      "[MASK]": 4,
      "[BOS]": 5,
      "[EOS]": 6,
      "!": 7,
      "0": 8,
      "1": 9,
      "2": 10,
      "3": 11,
      "4": 12,
      "5": 13,
      "6": 14,
      "7": 15,
      "8": 16,
      "9": 17,
      "@": 18,
      "A": 19,
      "B": 20,
      "C": 21,
      "D": 22,
      "E": 23,
      "F": 24,
      "G": 25,
      "H": 26,
      "I": 27,
      "J": 28,
      "K": 29,
      "L": 30,
      "M": 31,
      "N": 32,
      "O": 33,
      "P": 34,
      "Q": 35,
      "R": 36,
      "S": 37,
      "T": 38,
      "U": 39,
      "V": 40,
      "W": 41,
      "X": 42,
      "Y": 43,
      "Z": 44,
      "a": 45,
      "b": 46,
      "c": 47,
      "d": 48,
      "e": 49,
      "f": 50,
      "g": 51,
      "h": 52,
      "i": 53,
      "j": 54,
      "k": 55,
      "l": 56,
      "m": 57,
      "n": 58,
      "o": 59,
      "p": 60,
      "q": 61,
      "r": 62,
      "s": 63,
      "t": 64,
      "u": 65,
      "v": 66,
      "w": 67,
      "x": 68,
      "y": 69,
      "z": 70,
      "NN": 71,
      "22": 72,
      "Js": 73,
      "WW": 74,
      "24": 75,
      "ll": 76,
      "Wt": 77,
      "NZ": 78,
      "Nn": 79,
      "sW": 80,
      "Ws": 81,
      "re": 82,
      "wI": 83,
      "Ne": 84,
      "lJ": 85,
      "ah": 86,
      "Ns": 87,
      "Nd": 88,
      "21": 89,
      "tr": 90,
      "WN": 91,
      "qD": 92,
      "84": 93,
      "nZ": 94,
      "tt": 95,
      "ls": 96,
      "aa": 97,
      "ww": 98,
      "WZ": 99,
      "Iw": 100,
      "11": 101,
      "nI": 102,
      "tZ": 103,
      "bn": 104,
      "We": 105,
      "Wa": 106,
      "26": 107,
      "82": 108,
      "Nw": 109,
      "ss": 110,
      "44": 111,
      "al": 112,
      "bO": 113,
      "tN": 114,
      "nw": 115,
      "bD": 116,
      "nO": 117,
      "tW": 118,
      "aW": 119,
      "42": 120,
      "nr": 121,
      "Iq": 122,
      "cw": 123,
      "II": 124,
      "lh": 125,
      "Jq": 126,
      "Nr": 127,
      "Wh": 128,
      "bc": 129,
      "su": 130,
      "nN": 131,
      "lq": 132,
      "62": 133,
      "lW": 134,
      "Cq": 135,
      "bB": 136,
      "ds": 137,
      "12": 138,
      "Nq": 139,
      "mn": 140,
      "DD": 141,
      "rz": 142,
      "Nb": 143,
      "OO": 144,
      "eh": 145,
      "Is": 146,
      "wZ": 147,
      "Iz": 148,
      "na": 149,
      "lV": 150,
      "sa": 151,
      "78": 152,
      "nB": 153,
      "Wd": 154,
      "WO": 155,
      "Wb": 156,
      "dh": 157,
      "DO": 158,
      "cc": 159,
      "ts": 160,
      "nq": 161,
      "Wr": 162,
      "nc": 163,
      "eN": 164,
      "mD": 165,
      "at": 166,
      "Eq": 167,
      "16": 168,
      "27": 169,
      "nt": 170,
      "JN": 171,
      "Zl": 172,
      "bw": 173,
      "18": 174,
      "AN": 175,
      "rN": 176,
      "Ie": 177,
      "Bw": 178,
      "eT": 179,
      "aN": 180,
      "lN": 181,
      "qO": 182,
      "Vs": 183,
      "Te": 184,
      "Db": 185,
      "41": 186,
      "Ww": 187,
      "ar": 188,
      "JZ": 189,
      "Nz": 190,
      "lr": 191,
      "sr": 192,
      "qq": 193,
      "lw": 194,
      "IB": 195,
      "sZ": 196,
      "an": 197,
      "64": 198,
      "gI": 199,
      "st": 200,
      "Ow": 201,
      "BB": 202,
      "lZ": 203,
      "aJ": 204,
      "bR": 205,
      "ID": 206,
      "cN": 207,
      "JW": 208,
      "dr": 209,
      "te": 210,
      "mB": 211,
      "la": 212,
      "ZZ": 213,
      "WD": 214,
      "68": 215,
      "zB": 216,
      "DN": 217,
      "QN": 218,
      "bN": 219,
      "IZ": 220,
      "ba": 221,
      "Dh": 222,
      "qW": 223,
      "ZQ": 224,
      "cB": 225,
      "624": 226,
      "qg": 227,
      "Zd": 228,
      "wl": 229,
      "sq": 230,
      "!s": 231,
      "Nl": 232,
      "Dc": 233,
      "WV": 234,
      "bb": 235,
      "tw": 236,
      "qa": 237,
      "NQ": 238,
      "fc": 239,
      "sS": 240,
      "Cw": 241,
      "fB": 242,
      "Ig": 243,
      "ng": 244,
      "ns": 245,
      "Jr": 246,
      "61": 247,
      "bg": 248,
      "Dw": 249,
      "ON": 250,
      "Wq": 251,
      "DB": 252,
      "IN": 253,
      "Cs": 254,
      "aV": 255,
      "Je": 256,
      "Jt": 257,
      "nU": 258,
      "Aa": 259,
      "lt": 260,
      "cd": 261,
      "zq": 262,
      "14": 263,
      "ld": 264,
      "zh": 265,
      "qt": 266,
      "zN": 267,
      "wQ": 268,
      "Dg": 269,
      "Ic": 270,
      "Jw": 271,
      "IO": 272,
      "Un": 273,
      "Wc": 274,
      "et": 275,
      "qs": 276,
      "ZN": 277,
      "Da": 278,
      "oB": 279,
      "!N": 280,
      "48": 281,
      "Dq": 282,
      "At": 283,
      "Gd": 284,
      "zc": 285,
      "wN": 286,
      "EE": 287,
      "es": 288,
      "fN": 289,
      "Wu": 290,
      "mO": 291,
      "81": 292,
      "Fn": 293,
      "72": 294,
      "WB": 295,
      "rr": 296,
      "hs": 297,
      "bm": 298,
      "lA": 299,
      "Oc": 300,
      "nl": 301,
      "QZ": 302,
      "qB": 303,
      "OB": 304,
      "SW": 305,
      "dV": 306,
      "eW": 307,
      "OD": 308,
      "gg": 309,
      "oc": 310,
      "ta": 311,
      "eV": 312,
      "mR": 313,
      "YI": 314,
      "bZ": 315,
      "yI": 316,
      "Dv": 317,
      "Og": 318,
      "Bb": 319,
      "ha": 320,
      "BN": 321,
      "GI": 322,
      "Ir": 323,
      "wd": 324,
      "qN": 325,
      "nn": 326,
      "71": 327,
      "wJ": 328,
      "mz": 329,
      "le": 330,
      "qr": 331,
      "Ew": 332,
      "ZJ": 333,
      "DV": 334,
      "wf": 335,
      "Ii": 336,
      "Oq": 337,
      "ni": 338,
      "Nc": 339,
      "Or": 340,
      "reh": 341,
      "Wz": 342,
      "Nf": 343,
      "!Q": 344,
      "If": 345,
      "Ib": 346,
      "Nt": 347,
      "Ez": 348,
      "Dt": 349,
      "qi": 350,
      "aZ": 351,
      "NF": 352,
      "Nu": 353,
      "Wg": 354,
      "94": 355,
      "ht": 356,
      "cR": 357,
      "OZ": 358,
      "Na": 359,
      "gD": 360,
      "wB": 361,
      "mc": 362,
      "66": 363,
      "rt": 364,
      "IP": 365,
      "aD": 366,
      "zv": 367,
      "Oo": 368,
      "zL": 369,
      "rn": 370,
      "Bd": 371,
      "19": 372,
      "ra": 373,
      "cZ": 374,
      "qE": 375,
      "VZ": 376,
      "sn": 377,
      "bC": 378,
      "76": 379,
      "BR": 380,
      "As": 381,
      "by": 382,
      "tn": 383,
      "OW": 384,
      "Tn": 385,
      "92": 386,
      "Ul": 387,
      "qw": 388,
      "Bc": 389,
      "rG": 390,
      "ly": 391,
      "aw": 392,
      "87": 393,
      "AA": 394,
      "DZ": 395,
      "JJ": 396,
      "UN": 397,
      "Ue": 398,
      "qf": 399,
      "BZ": 400,
      "nah": 401,
      "Vt": 402,
      "bs": 403,
      "cs": 404,
      "ae": 405,
      "bt": 406,
      "ne": 407,
      "ft": 408,
      "VS": 409,
      "eL": 410,
      "Im": 411,
      "bd": 412,
      "wz": 413,
      "!A": 414,
      "Nere": 415,
      "qZ": 416,
      "sd": 417,
      "we": 418,
      "cf": 419,
      "my": 420,
      "CZ": 421,
      "GR": 422,
      "rd": 423,
      "DL": 424,
      "WU": 425,
      "28": 426,
      "WJ": 427,
      "ev": 428,
      "99": 429,
      "NR": 430,
      "DE": 431,
      "mP": 432,
      "bT": 433,
      "QB": 434,
      "rs": 435,
      "Ds": 436,
      "OE": 437,
      "qC": 438,
      "nW": 439,
      "46": 440,
      "bA": 441,
      "aU": 442,
      "Os": 443,
      "wE": 444,
      "DW": 445,
      "Qs": 446,
      "Bz": 447,
      "f!": 448,
      "he": 449,
      "nb": 450,
      "67": 451,
      "Ot": 452,
      "mi": 453,
      "ws": 454,
      "nz": 455,
      "bx": 456,
      "gi": 457,
      "cq": 458,
      "rZ": 459,
      "IQ": 460,
      "O!": 461,
      "nd": 462,
      "wC": 463,
      "29": 464,
      "bq": 465,
      "AB": 466,
      "Ua": 467,
      "Wl": 468,
      "wc": 469,
      "TN": 470,
      "47": 471,
      "IE": 472,
      "ZWt": 473,
      "6241": 474,
      "tA": 475,
      "Td": 476,
      "nJ": 477,
      "cy": 478,
      "wa": 479,
      "Ox": 480,
      "ny": 481,
      "NJ": 482,
      "Zp": 483,
      "iB": 484,
      "NB": 485,
      "wg": 486,
      "lU": 487,
      "WWZ": 488,
      "RE": 489,
      "lC": 490,
      "hq": 491,
      "N!": 492,
      "mg": 493,
      "sU": 494,
      "vg": 495,
      "lI": 496,
      "ea": 497,
      "cQ": 498,
      "vO": 499,
      "ZC": 500,
      "zg": 501,
      "Es": 502,
      "Nm": 503,
      "qu": 504,
      "Ut": 505,
      "sQ": 506,
      "Vq": 507,
      "Fa": 508,
      "IW": 509,
      "Dr": 510,
      "Fl": 511,
      "OC": 512,
      "20": 513,
      "bX": 514,
      "bW": 515,
      "t!": 516,
      "NA": 517,
      "fA": 518,
      "bo": 519,
      "ic": 520,
      "fE": 521,
      "as": 522,
      "!q": 523,
      "!e": 524,
      "Zu": 525,
      "bE": 526,
      "wq": 527,
      "WNn": 528,
      "Qc": 529,
      "bl": 530,
      "nh": 531,
      "Q!": 532,
      "mI": 533,
      "xB": 534,
      "Oh": 535,
      "74": 536,
      "tU": 537,
      "lsTe": 538,
      "CN": 539,
      "rU": 540,
      "ED": 541,
      "sJ": 542,
      "qc": 543,
      "Ze": 544,
      "Ndh": 545,
      "Oy": 546,
      "mX": 547,
      "Cv": 548,
      "sl": 549,
      "tJ": 550,
      "SWreh": 551,
      "Ac": 552,
      "Ve": 553,
      "FX": 554,
      "bI": 555,
      "QA": 556,
      "fo": 557,
      "wy": 558,
      "TJ": 559,
      "!!": 560,
      "co": 561,
      "Dd": 562,
      "gr": 563,
      "vB": 564,
      "qP": 565,
      "Do": 566,
      "wR": 567,
      "Ta": 568,
      "nG": 569,
      "Ei": 570,
      "ZW": 571,
      "za": 572,
      "ZI": 573,
      "Ql": 574,
      "CB": 575,
      "OI": 576,
      "fx": 577,
      "Ol": 578,
      "Oi": 579,
      "Di": 580,
      "rB": 581,
      "NW": 582,
      "th": 583,
      "gw": 584,
      "zV": 585,
      "tu": 586,
      "Zy": 587,
      "eTA": 588,
      "mT": 589,
      "eg": 590,
      "OJ": 591,
      "tS": 592,
      "gW": 593,
      "zt": 594,
      "qQ": 595,
      "dA": 596,
      "NU": 597,
      "222": 598,
      "NS": 599,
      "FT": 600,
      "Ih": 601,
      "aC": 602,
      "dG": 603,
      "mK": 604,
      "sD": 605,
      "aA": 606,
      "dl": 607,
      "RB": 608,
      "Wn": 609,
      "mZ": 610,
      "llZ": 611,
      "tq": 612,
      "gE": 613,
      "IF": 614,
      "d!": 615,
      "NNZ": 616,
      "aB": 617,
      "mw": 618,
      "Iy": 619,
      "ie": 620,
      "lJZ": 621,
      "DP": 622,
      "69": 623,
      "OV": 624,
      "lc": 625,
      "DC": 626,
      "DR": 627,
      "nK": 628,
      "wF": 629,
      "rc": 630,
      "zO": 631,
      "ox": 632,
      "02": 633,
      "UB": 634,
      "sw": 635,
      "ac": 636,
      "oL": 637,
      "CC": 638,
      "Ix": 639,
      "KB": 640,
      "Np": 641,
      "ec": 642,
      "241": 643,
      "Rc": 644,
      "lB": 645,
      "ANN": 646,
      "bP": 647,
      "IV": 648,
      "Wv": 649,
      "86": 650,
      "Uh": 651,
      "YR": 652,
      "gO": 653,
      "dZ": 654,
      "UJ": 655,
      "OG": 656,
      "sN": 657,
      "ln": 658,
      "rA": 659,
      "gB": 660,
      "Gh": 661,
      "GZ": 662,
      "nD": 663,
      "vM": 664,
      "ehNere": 665,
      "aJs": 666,
      "mN": 667,
      "FJ": 668,
      "rtN": 669,
      "EI": 670,
      "dJ": 671,
      "17": 672,
      "OA": 673,
      "CJ": 674,
      "wP": 675,
      "Tt": 676,
      "FR": 677,
      "oo": 678,
      "wY": 679,
      "Dl": 680,
      "eB": 681,
      "Dz": 682,
      "aI": 683,
      "md": 684,
      "eX": 685,
      "91": 686,
      "QS": 687,
      "!t": 688,
      "eS": 689,
      "eu": 690,
      "lld": 691,
      "zW": 692,
      "eb": 693,
      "CL": 694,
      "Uc": 695,
      "mE": 696,
      "CE": 697,
      "JsTe": 698,
      "gP": 699,
      "qd": 700,
      "Oa": 701,
      "Wes": 702,
      "Co": 703,
      "iz": 704,
      "MB": 705,
      "Dx": 706,
      "yB": 707,
      "WtZ": 708,
      "01": 709,
      "FB": 710,
      "wu": 711,
      "WL": 712,
      "fJ": 713,
      "fZ": 714,
      "qJ": 715,
      "hN": 716,
      "wn": 717,
      "Dm": 718,
      "zT": 719,
      "vS": 720,
      "ql": 721,
      "wb": 722,
      "211": 723,
      "Dy": 724,
      "qR": 725,
      "pl": 726,
      "aL": 727,
      "96": 728,
      "llt": 729,
      "CW": 730,
      "nm": 731,
      "Ov": 732,
      "qU": 733,
      "ru": 734,
      "!B": 735,
      "Cc": 736,
      "hB": 737,
      "ii": 738,
      "qx": 739,
      "Yz": 740,
      "nV": 741,
      "QJ": 742,
      "ad": 743,
      "00": 744,
      "Fy": 745,
      "zX": 746,
      "qy": 747,
      "DJ": 748,
      "drNn": 749,
      "cu": 750,
      "b!": 751,
      "bJ": 752,
      "OP": 753,
      "au": 754,
      "tl": 755,
      "cE": 756,
      "av": 757,
      "VN": 758,
      "WeJ": 759,
      "wW": 760,
      "Il": 761,
      "gd": 762,
      "rS": 763,
      "bbc": 764,
      "IJ": 765,
      "In": 766,
      "tB": 767,
      "fl": 768,
      "nOh": 769,
      "os": 770,
      "NT": 771,
      "Fh": 772,
      "ntu": 773,
      "zs": 774,
      "bi": 775,
      "fs": 776,
      "UU": 777,
      "og": 778,
      "aq": 779,
      "qS": 780,
      "oO": 781,
      "!Z": 782,
      "88": 783,
      "vc": 784,
      "648": 785,
      "aO": 786,
      "WN!": 787,
      "CV": 788,
      "Cx": 789,
      "wm": 790,
      "40": 791,
      "hZ": 792,
      "dt": 793,
      "IR": 794,
      "wr": 795,
      "Wm": 796,
      "cA": 797,
      "FN": 798,
      "IA": 799,
      "Ch": 800,
      "bwf": 801,
      "sSNdh": 802,
      "PP": 803,
      "!NN": 804,
      "It": 805,
      "gh": 806,
      "gc": 807,
      "oq": 808,
      "pd": 809,
      "eNN": 810,
      "FW": 811,
      "Se": 812,
      "nR": 813,
      "Ft": 814,
      "I!": 815,
      "LG": 816,
      "Fc": 817,
      "gZ": 818,
      "448": 819,
      "yb": 820,
      "r!": 821,
      "nx": 822,
      "eJ": 823,
      "gq": 824,
      "D!": 825,
      "rO": 826,
      "rl": 827,
      "08": 828,
      "Cm": 829,
      "nA": 830,
      "dW": 831,
      "Eb": 832,
      "ZG": 833,
      "Bl": 834,
      "Lbn": 835,
      "FO": 836,
      "wt": 837,
      "wG": 838,
      "UV": 839,
      "nNZ": 840,
      "Unah": 841,
      "Be": 842,
      "qh": 843,
      "rp": 844,
      "sll": 845,
      "TW": 846,
      "Cb": 847,
      "IX": 848,
      "nP": 849,
      "Qh": 850,
      "By": 851,
      "AT": 852,
      "ap": 853,
      "SWrehJs": 854,
      "fw": 855,
      "iY": 856,
      "lv": 857,
      "Rh": 858,
      "ZR": 859,
      "lb": 860,
      "Lg": 861,
      "rR": 862,
      "fS": 863,
      "nNw": 864,
      "90": 865,
      "zb": 866,
      "Ja": 867,
      "97": 868,
      "eT!": 869,
      "lVS": 870,
      "GQ": 871,
      "gn": 872,
      "uZ": 873,
      "tD": 874,
      "C!": 875,
      "zE": 876,
      "Ia": 877,
      "Qw": 878,
      "Ae": 879,
      "Ci": 880,
      "LM": 881,
      "oy": 882,
      "Zf": 883,
      "uw": 884,
      "Jd": 885,
      "gN": 886,
      "lD": 887,
      "n!": 888,
      "Rs": 889,
      "Qt": 890,
      "49": 891,
      "Zc": 892,
      "mq": 893,
      "Ay": 894,
      "ZF": 895,
      "182": 896,
      "Cr": 897,
      "Io": 898,
      "W!": 899,
      "zD": 900,
      "zw": 901,
      "c!": 902,
      "06": 903,
      "ms": 904,
      "nOL": 905,
      "q!": 906,
      "mr": 907,
      "mW": 908,
      "ov": 909,
      "td": 910,
      "Bn": 911,
      "ag": 912,
      "zR": 913,
      "hl": 914,
      "Kq": 915,
      "tc": 916,
      "fa": 917,
      "JU": 918,
      "vE": 919,
      "Jb": 920,
      "Aq": 921,
      "oE": 922,
      "VG": 923,
      "LB": 924,
      "IG": 925,
      "yN": 926,
      "eO": 927,
      "ul": 928,
      "iG": 929,
      "mx": 930,
      "Cl": 931,
      "dN": 932,
      "J!": 933,
      "wi": 934,
      "yc": 935,
      "WF": 936,
      "Va": 937,
      "WA": 938,
      "EB": 939,
      "WtrN": 940,
      "qo": 941,
      "rb": 942,
      "13": 943,
      "sWd": 944,
      "Zw": 945,
      "Wi": 946,
      "xx": 947,
      "gU": 948,
      "bwQ": 949,
      "NZWt": 950,
      "Ec": 951,
      "IH": 952,
      "nZG": 953,
      "rq": 954,
      "bDv": 955,
      "Tl": 956,
      "ZB": 957,
      "WsN": 958,
      "!a": 959,
      "cb": 960,
      "yf": 961,
      "Tz": 962,
      "mU": 963,
      "Lmn": 964,
      "lL": 965,
      "slJ": 966,
      "pN": 967,
      "WNN": 968,
      "yy": 969,
      "cO": 970,
      "lG": 971,
      "Pg": 972,
      "10": 973,
      "rQ": 974,
      "JA": 975,
      "bf": 976,
      "lO": 977,
      "oN": 978,
      "IC": 979,
      "OL": 980,
      "nv": 981,
      "Fg": 982,
      "l!": 983,
      "ph": 984,
      "NWW": 985,
      "in": 986,
      "rzh": 987,
      "221": 988,
      "VO": 989,
      "WP": 990,
      "wD": 991,
      "de": 992,
      "80": 993,
      "llN": 994,
      "Kc": 995,
      "WsTn": 996,
      "fC": 997,
      "PB": 998,
      "gR": 999,
      "Vw": 1000,
      "Gs": 1001,
      "XN": 1002,
      "zx": 1003,
      "ga": 1004,
      "lp": 1005,
      "Zn": 1006,
      "sf": 1007,
      "98": 1008,
      "iR": 1009,
      "Mc": 1010,
      "vbn": 1011,
      "Ob": 1012,
      "FD": 1013,
      "Ny": 1014,
      "qn": 1015,
      "FP": 1016,
      "gt": 1017,
      "OR": 1018,
      "str": 1019,
      "el": 1020,
      "mA": 1021,
      "Jz": 1022,
      "rw": 1023,
      "IU": 1024,
      "srnah": 1025,
      "dU": 1026,
      "bh": 1027,
      "lJt": 1028,
      "ma": 1029,
      "dWh": 1030,
      "tV": 1031,
      "gz": 1032,
      "Jl": 1033,
      "JB": 1034,
      "ge": 1035,
      "yE": 1036,
      "dp": 1037,
      "mf": 1038,
      "77": 1039,
      "93": 1040,
      "JF": 1041,
      "qA": 1042,
      "vs": 1043,
      "JsW": 1044,
      "TS": 1045,
      "IL": 1046,
      "XB": 1047,
      "Qx": 1048,
      "rf": 1049,
      "sWt": 1050,
      "ufc": 1051,
      "ZP": 1052,
      "hbn": 1053,
      "QNh": 1054,
      "EP": 1055,
      "NG": 1056,
      "IK": 1057,
      "Zt": 1058,
      "aG": 1059,
      "qG": 1060,
      "yw": 1061,
      "On": 1062,
      "AV": 1063,
      "ci": 1064,
      "gK": 1065,
      "bNN": 1066,
      "yY": 1067,
      "Bs": 1068,
      "WI": 1069,
      "dd": 1070,
      "gx": 1071,
      "Ah": 1072,
      "Oe": 1073,
      "WR": 1074,
      "rF": 1075,
      "Ee": 1076,
      "ER": 1077,
      "Al": 1078,
      "Ss": 1079,
      "VB": 1080,
      "ua": 1081,
      "wWt": 1082,
      "rh": 1083,
      "wp": 1084,
      "Ye": 1085,
      "ZT": 1086,
      "sUnah": 1087,
      "Id": 1088,
      "cJ": 1089,
      "cl": 1090,
      "wK": 1091,
      "trtr": 1092,
      "alat": 1093,
      "RN": 1094,
      "cx": 1095,
      "sM": 1096,
      "naV": 1097,
      "54": 1098,
      "w!": 1099,
      "QVs": 1100,
      "NsQ": 1101,
      "nth": 1102,
      "ce": 1103,
      "reN": 1104,
      "mwf": 1105,
      "bbX": 1106,
      "fBL": 1107,
      "Uz": 1108,
      "sF": 1109,
      "cC": 1110,
      "An": 1111,
      "Rx": 1112,
      "aht": 1113,
      "qI": 1114,
      "Ur": 1115,
      "lT": 1116,
      "Qr": 1117,
      "cg": 1118,
      "sh": 1119,
      "WWw": 1120,
      "Oz": 1121,
      "xe": 1122,
      "nrf": 1123,
      "tz": 1124,
      "DU": 1125,
      "iN": 1126,
      "se": 1127,
      "Bm": 1128,
      "yz": 1129,
      "Fd": 1130,
      "UJN": 1131,
      "!b": 1132,
      "Bi": 1133,
      "Ra": 1134,
      "09": 1135,
      "hFn": 1136,
      "ti": 1137,
      "ANd": 1138,
      "nZJs": 1139,
      "IqD": 1140,
      "Du": 1141,
      "Tsu": 1142,
      "ue": 1143,
      "yl": 1144,
      "gl": 1145,
      "sp": 1146,
      "89": 1147,
      "BE": 1148,
      "cz": 1149,
      "AO": 1150,
      "Iv": 1151,
      "VW": 1152,
      "Xe": 1153,
      "nOv": 1154,
      "LE": 1155,
      "Ct": 1156,
      "Qq": 1157,
      "Xx": 1158,
      "ai": 1159,
      "LY": 1160,
      "lR": 1161,
      "TF": 1162,
      "cn": 1163,
      "224": 1164,
      "bDh": 1165,
      "ZWa": 1166,
      "da": 1167,
      "rm": 1168,
      "BK": 1169,
      "AJ": 1170,
      "yZ": 1171,
      "go": 1172,
      "WC": 1173,
      "LYI": 1174,
      "bF": 1175,
      "DG": 1176,
      "YE": 1177,
      "UG": 1178,
      "CR": 1179,
      "XJ": 1180,
      "s!": 1181,
      "a!": 1182,
      "Od": 1183,
      "Xd": 1184,
      "gy": 1185,
      "np": 1186,
      "Qo": 1187,
      "Nds": 1188,
      "Qe": 1189,
      "bK": 1190,
      "Gqq": 1191,
      "184": 1192,
      "si": 1193,
      "ri": 1194,
      "DA": 1195,
      "stt": 1196,
      "tI": 1197,
      "04": 1198,
      "Pi": 1199,
      "gs": 1200,
      "rJ": 1201,
      "vN": 1202,
      "az": 1203,
      "gA": 1204,
      "lsW": 1205,
      "CO": 1206,
      "vG": 1207,
      "nS": 1208,
      "Nerz": 1209,
      "g!": 1210,
      "pJ": 1211,
      "NnZ": 1212,
      "ay": 1213,
      "rW": 1214,
      "MD": 1215,
      "60": 1216,
      "IY": 1217,
      "ehJs": 1218,
      "!z": 1219,
      "FC": 1220,
      "llw": 1221,
      "htW": 1222,
      "RD": 1223,
      "qDIw": 1224,
      "34": 1225,
      "yJ": 1226,
      "Ex": 1227,
      "QQ": 1228,
      "lz": 1229,
      "pa": 1230,
      "no": 1231,
      "NX": 1232,
      "OS": 1233,
      "WWZN": 1234,
      "Vu": 1235,
      "wx": 1236,
      "br": 1237,
      "hG": 1238,
      "nF": 1239,
      "vt": 1240,
      "cr": 1241,
      "ym": 1242,
      "ye": 1243,
      "ntZ": 1244,
      "GE": 1245,
      "Rq": 1246,
      "Za": 1247,
      "rnQ": 1248,
      "Pz": 1249,
      "ix": 1250,
      "gC": 1251,
      "mt": 1252,
      "yQ": 1253,
      "32": 1254,
      "OU": 1255,
      "482": 1256,
      "VM": 1257,
      "lF": 1258,
      "vq": 1259,
      "Ce": 1260,
      "yW": 1261,
      "KX": 1262,
      "Ud": 1263,
      "BA": 1264,
      "De": 1265,
      "BJ": 1266,
      "o!": 1267,
      "Cz": 1268,
      "pZ": 1269,
      "vmn": 1270,
      "bQ": 1271,
      "fO": 1272,
      "39": 1273,
      "Br": 1274,
      "CD": 1275,
      "TNZ": 1276,
      "zf": 1277,
      "25": 1278,
      "Rw": 1279,
      "bS": 1280,
      "PO": 1281,
      "nY": 1282,
      "Kx": 1283,
      "RO": 1284,
      "trn": 1285,
      "GN": 1286,
      "yF": 1287,
      "248": 1288,
      "bU": 1289,
      "li": 1290,
      "nUWu": 1291,
      "Le": 1292,
      "TA": 1293,
      "iE": 1294,
      "uf": 1295,
      "mh": 1296,
      "nL": 1297,
      "wIB": 1298,
      "bbB": 1299,
      "tNtr": 1300,
      "dq": 1301,
      "Sl": 1302,
      "mm": 1303,
      "ncw": 1304,
      "sC": 1305,
      "ct": 1306,
      "dQ": 1307,
      "hmn": 1308,
      "oV": 1309,
      "wO": 1310,
      "2482": 1311,
      "NdtW": 1312,
      "bmX": 1313,
      "pW": 1314,
      "NZZ": 1315,
      "bbT": 1316,
      "ml": 1317,
      "ut": 1318,
      "BF": 1319,
      "NO": 1320,
      "ND": 1321,
      "yx": 1322,
      "nOV": 1323,
      "CA": 1324,
      "T!": 1325,
      "Zz": 1326,
      "nrQ": 1327,
      "Rt": 1328,
      "Em": 1329,
      "y!": 1330,
      "Lz": 1331,
      "wU": 1332,
      "LS": 1333,
      "aP": 1334,
      "sO": 1335,
      "CI": 1336,
      "gY": 1337,
      "SJ": 1338,
      "qM": 1339,
      "FA": 1340,
      "lds": 1341,
      "sB": 1342,
      "844": 1343,
      "bnc": 1344,
      "ZE": 1345,
      "ssh": 1346,
      "ca": 1347,
      "VsW": 1348,
      "pt": 1349,
      "Tu": 1350,
      "WK": 1351,
      "ldsW": 1352,
      "Gb": 1353,
      "als": 1354,
      "Xn": 1355,
      "Zb": 1356,
      "ZX": 1357,
      "xq": 1358,
      "Pq": 1359,
      "UO": 1360,
      "oA": 1361,
      "43": 1362,
      "mJ": 1363,
      "dhtr": 1364,
      "vw": 1365,
      "xc": 1366,
      "sI": 1367,
      "hA": 1368,
      "WsTa": 1369,
      "Gf": 1370,
      "zJ": 1371,
      "wX": 1372,
      "rV": 1373,
      "BI": 1374,
      "Yqq": 1375,
      "db": 1376,
      "hg": 1377,
      "!c": 1378,
      "LO": 1379,
      "aS": 1380,
      "yD": 1381,
      "BC": 1382,
      "Ro": 1383,
      "eF": 1384,
      "bZf": 1385,
      "eZ": 1386,
      "wA": 1387,
      "75": 1388,
      "Rz": 1389,
      "sy": 1390,
      "WsTt": 1391,
      "WS": 1392,
      "gJ": 1393,
      "aJq": 1394,
      "tO": 1395,
      "UA": 1396,
      "ZD": 1397,
      "NdaJ": 1398,
      "Wel": 1399,
      "lNZ": 1400,
      "212": 1401,
      "RV": 1402,
      "Tll": 1403,
      "Yd": 1404,
      "Ey": 1405,
      "hJ": 1406,
      "KN": 1407,
      "urU": 1408,
      "Nntu": 1409,
      "aT": 1410,
      "lla": 1411,
      "naL": 1412,
      "rI": 1413,
      "vZ": 1414,
      "Li": 1415,
      "fQ": 1416,
      "Wo": 1417,
      "Rb": 1418,
      "WsW": 1419,
      "sslJ": 1420,
      "VA": 1421,
      "Xa": 1422,
      "uQ": 1423,
      "Bq": 1424,
      "nds": 1425,
      "yG": 1426,
      "IT": 1427,
      "cG": 1428,
      "vx": 1429,
      "ssW": 1430,
      "CS": 1431,
      "PD": 1432,
      "fq": 1433,
      "Zd!": 1434,
      "rGs": 1435,
      "edrNn": 1436,
      "ow": 1437,
      "em": 1438,
      "!r": 1439,
      "bah": 1440,
      "ot": 1441,
      "ub": 1442,
      "23": 1443,
      "hO": 1444,
      "lW@": 1445,
      "sg": 1446,
      "QF": 1447,
      "eq": 1448,
      "WNA": 1449,
      "NI": 1450,
      "Qa": 1451,
      "pU": 1452,
      "zP": 1453,
      "B!": 1454,
      "fBh": 1455,
      "Vg": 1456,
      "wT": 1457,
      "JS": 1458,
      "JNZ": 1459,
      "oe": 1460,
      "eVNere": 1461,
      "Ph": 1462,
      "ep": 1463,
      "cT": 1464,
      "FU": 1465,
      "bu": 1466,
      "xy": 1467,
      "Cd": 1468,
      "Cy": 1469,
      "Xc": 1470,
      "aaW": 1471,
      "YV": 1472,
      "ere": 1473,
      "lJd": 1474,
      "JI": 1475,
      "mQ": 1476,
      "rNb": 1477,
      "wIP": 1478,
      "BG": 1479,
      "oh": 1480,
      "Jh": 1481,
      "im": 1482,
      "cX": 1483,
      "Pt": 1484,
      "annw": 1485,
      "NK": 1486,
      "rM": 1487,
      "bOv": 1488,
      "EK": 1489,
      "Zm": 1490,
      "CF": 1491,
      "zi": 1492,
      "Pc": 1493,
      "Vm": 1494,
      "zm": 1495,
      "lJw": 1496,
      "MW": 1497,
      "fi": 1498,
      "!d": 1499,
      "Cg": 1500,
      "WNZ": 1501,
      "ew": 1502,
      "Gx": 1503,
      "haW": 1504,
      "Yq": 1505,
      "NQWNn": 1506,
      "Gsu": 1507,
      "gv": 1508,
      "qaa": 1509,
      "ur": 1510,
      "xN": 1511,
      "Zq": 1512,
      "Zs": 1513,
      "NdaW": 1514,
      "DI": 1515,
      "Jm": 1516,
      "TT": 1517,
      "144": 1518,
      "Eo": 1519,
      "lm": 1520,
      "pr": 1521,
      "wnl": 1522,
      "aha": 1523,
      "!F": 1524,
      "70": 1525,
      "dNr": 1526,
      "ssll": 1527,
      "Ag": 1528,
      "668": 1529,
      "lg": 1530,
      "bDL": 1531,
      "UtN": 1532,
      "Rg": 1533,
      "reV": 1534,
      "eLnq": 1535,
      "ps": 1536,
      "Ls": 1537,
      "hS": 1538,
      "Ge": 1539,
      "Bu": 1540,
      "saa": 1541,
      "sWN": 1542,
      "alaa": 1543,
      "DK": 1544,
      "uA": 1545,
      "NZl": 1546,
      "nau": 1547,
      "JV": 1548,
      "EL": 1549,
      "FZ": 1550,
      "UW": 1551,
      "ed": 1552,
      "EO": 1553,
      "Gl": 1554,
      "TI": 1555,
      "Xz": 1556,
      "nrWu": 1557,
      "Gqs": 1558,
      "wwI": 1559,
      "Cf": 1560,
      "TZ": 1561,
      "hW": 1562,
      "fcL": 1563,
      "VtW": 1564,
      "nj": 1565,
      "QNV": 1566,
      "Ba": 1567,
      "Sr": 1568,
      "eD": 1569,
      "va": 1570,
      "Bx": 1571,
      "lZWs": 1572,
      "Qb": 1573,
      "!ANN": 1574,
      "fBv": 1575,
      "R!": 1576,
      "JW@": 1577,
      "TJS": 1578,
      "AQ": 1579,
      "Iu": 1580,
      "JO": 1581,
      "Rr": 1582,
      "ir": 1583,
      "nC": 1584,
      "Vr": 1585,
      "zZ": 1586,
      "Jc": 1587,
      "KM": 1588,
      "uN": 1589,
      "aK": 1590,
      "QC": 1591,
      "wOO": 1592,
      "dhll": 1593,
      "BO": 1594,
      "RZ": 1595,
      "ud": 1596,
      "Tb": 1597,
      "bIB": 1598,
      "zd": 1599,
      "Wdr": 1600,
      "Ab": 1601,
      "Eg": 1602,
      "Gq": 1603,
      "Ad": 1604,
      "FnZ": 1605,
      "tQ": 1606,
      "NsZ": 1607,
      "lS": 1608,
      "nav": 1609,
      "Jn": 1610,
      "QV": 1611,
      "fR": 1612,
      "mo": 1613,
      "yi": 1614,
      "CH": 1615,
      "Vbn": 1616,
      "ee": 1617,
      "hc": 1618,
      "yo": 1619,
      "111": 1620,
      "EZ": 1621,
      "X!": 1622,
      "Yi": 1623,
      "A!": 1624,
      "DNn": 1625,
      "tg": 1626,
      "ssnah": 1627,
      "PZ": 1628,
      "Vd": 1629,
      "Ca": 1630,
      "Ks": 1631,
      "bZQ": 1632,
      "e!": 1633,
      "ttZ": 1634,
      "xz": 1635,
      "xm": 1636,
      "NNN": 1637,
      "sG": 1638,
      "lJN": 1639,
      "nIgi": 1640,
      "KO": 1641,
      "bOL": 1642,
      "dsN": 1643,
      "WbQN": 1644,
      "xg": 1645,
      "hw": 1646,
      "Wtw": 1647,
      "mwQ": 1648,
      "CP": 1649,
      "RG": 1650,
      "qz": 1651,
      "wo": 1652,
      "io": 1653,
      "Pr": 1654,
      "NNWW": 1655,
      "qDM": 1656,
      "bOh": 1657,
      "Ar": 1658,
      "ff": 1659,
      "jd": 1660,
      "Bo": 1661,
      "gL": 1662,
      "Ui": 1663,
      "SN": 1664,
      "Ts": 1665,
      "xO": 1666,
      "WG": 1667,
      "nrG": 1668,
      "mnc": 1669,
      "QZWt": 1670,
      "zLnq": 1671,
      "Tx": 1672,
      "Bg": 1673,
      "Kf": 1674,
      "mzO": 1675,
      "Ev": 1676,
      "fM": 1677,
      "yA": 1678,
      "Nst": 1679,
      "Wrh": 1680,
      "nIg": 1681,
      "Lq": 1682,
      "Vz": 1683,
      "Vc": 1684,
      "raN": 1685,
      "dv": 1686,
      "NZWa": 1687,
      "PN": 1688,
      "UR": 1689,
      "bDV": 1690,
      "BU": 1691,
      "Ps": 1692,
      "do": 1693,
      "lo": 1694,
      "rK": 1695,
      "gDb": 1696,
      "vA": 1697,
      "rzN": 1698,
      "SA": 1699,
      "lJs": 1700,
      "mzg": 1701,
      "!O": 1702,
      "dx": 1703,
      "eG": 1704,
      "SZ": 1705,
      "iK": 1706,
      "!m": 1707,
      "XR": 1708,
      "ib": 1709,
      "sA": 1710,
      "eT!Nr": 1711,
      "Rv": 1712,
      "Xt": 1713,
      "xs": 1714,
      "fb": 1715,
      "fNh": 1716,
      "Pw": 1717,
      "824": 1718,
      "pV": 1719,
      "zu": 1720,
      "NNe": 1721,
      "bnB": 1722,
      "iQ": 1723,
      "nQ": 1724,
      "tZZ": 1725,
      "NeN": 1726,
      "Px": 1727,
      "Lm": 1728,
      "tWZ": 1729,
      "mDv": 1730,
      "fcv": 1731,
      "eTAV": 1732,
      "Sh": 1733,
      "dF": 1734,
      "mnB": 1735,
      "lH": 1736,
      "tF": 1737,
      "CqD": 1738,
      "30": 1739,
      "Ko": 1740,
      "Up": 1741,
      "lX": 1742,
      "rT": 1743,
      "ys": 1744,
      "DWw": 1745,
      "NJs": 1746,
      "261": 1747,
      "IeG": 1748,
      "eU": 1749,
      "iO": 1750,
      "jR": 1751,
      "AF": 1752,
      "Fq": 1753,
      "fg": 1754,
      "hm": 1755,
      "bNb": 1756,
      "z!": 1757,
      "aF": 1758,
      "tNZ": 1759,
      "Lc": 1760,
      "fh": 1761,
      "QW": 1762,
      "nDv": 1763,
      "Gw": 1764,
      "NWd": 1765,
      "XI": 1766,
      "aR": 1767,
      "bcN": 1768,
      "WeN": 1769,
      "lsN": 1770,
      "WhrtN": 1771,
      "Kw": 1772,
      "Zh": 1773,
      "b!Q": 1774,
      "gIw": 1775,
      "iI": 1776,
      "eNNZ": 1777,
      "XE": 1778,
      "Xm": 1779,
      "iU": 1780,
      "cm": 1781,
      "33": 1782,
      "RL": 1783,
      "DM": 1784,
      "GB": 1785,
      "PI": 1786,
      "AW": 1787,
      "QT": 1788,
      "SS": 1789,
      "dz": 1790,
      "GW": 1791,
      "aNZ": 1792,
      "dL": 1793,
      "DNZ": 1794,
      "eI": 1795,
      "UnQ": 1796,
      "hy": 1797,
      "718": 1798,
      "NC": 1799,
      "PV": 1800,
      "xE": 1801,
      "Gz": 1802,
      "Pv": 1803,
      "nNYV": 1804,
      "PE": 1805,
      "en": 1806,
      "ob": 1807,
      "37": 1808,
      "Bt": 1809,
      "Tm": 1810,
      "gV": 1811,
      "WsN!": 1812,
      "lWN": 1813,
      "uy": 1814,
      "nZJssS": 1815,
      "822": 1816,
      "BY": 1817,
      "Dn": 1818,
      "Pm": 1819,
      "XA": 1820,
      "JsN": 1821,
      "Ndal": 1822,
      "OM": 1823,
      "oZ": 1824,
      "sb": 1825,
      "zF": 1826,
      "84222": 1827,
      "Uy": 1828,
      "sc": 1829,
      "lNN": 1830,
      "JNN": 1831,
      "alVS": 1832,
      "Pa": 1833,
      "oa": 1834,
      "xi": 1835,
      "GdG": 1836,
      "!w": 1837,
      "ZU": 1838,
      "QhsWd": 1839,
      "NeNN": 1840,
      "qV": 1841,
      "uB": 1842,
      "nIOr": 1843,
      "Wp": 1844,
      "id": 1845,
      "tnI": 1846,
      "IwE": 1847,
      "GV": 1848,
      "rbA": 1849,
      "Nh": 1850,
      "sNs": 1851,
      "Fah": 1852,
      "Z!": 1853,
      "cV": 1854,
      "EW": 1855,
      "tb": 1856,
      "mZf": 1857,
      "nf": 1858,
      "xb": 1859,
      "annZ": 1860,
      "BQ": 1861,
      "QU": 1862,
      "Ly": 1863,
      "OWb": 1864,
      "Po": 1865,
      "mDh": 1866,
      "Zr": 1867,
      "uJ": 1868,
      "JH": 1869,
      "mIB": 1870,
      "15": 1871,
      "821": 1872,
      "Yw": 1873,
      "Gsq": 1874,
      "Mx": 1875,
      "hU": 1876,
      "tK": 1877,
      "Nnr": 1878,
      "alq": 1879,
      "DwI": 1880,
      "JlZ": 1881,
      "cF": 1882,
      "hF": 1883,
      "sV": 1884,
      "v!": 1885,
      "zo": 1886,
      "eTANr": 1887,
      "cI": 1888,
      "Gr": 1889,
      "DX": 1890,
      "Qd": 1891,
      "ro": 1892,
      "yK": 1893,
      "ehnq": 1894,
      "dVtr": 1895,
      "sd!": 1896,
      "Ri": 1897,
      "TB": 1898,
      "WWtr": 1899,
      "NWes": 1900,
      "cU": 1901,
      "yV": 1902,
      "fd": 1903,
      "wWO": 1904,
      "nZp": 1905,
      "DgI": 1906,
      "bV": 1907,
      "nM": 1908,
      "eK": 1909,
      "mC": 1910,
      "vd": 1911,
      "Xl": 1912,
      "qL": 1913,
      "qtt": 1914,
      "zqf": 1915,
      "Qch": 1916,
      "Om": 1917,
      "NNf": 1918,
      "mDL": 1919,
      "Sz": 1920,
      "urr": 1921,
      "ig": 1922,
      "444": 1923,
      "SWrzh": 1924,
      "Xw": 1925,
      "btZ": 1926,
      "oI": 1927,
      "Sere": 1928,
      "tp": 1929,
      "zI": 1930,
      "FQ": 1931,
      "YDD": 1932,
      "NNA": 1933,
      "NdV": 1934,
      "bsu": 1935,
      "wj": 1936,
      "Ng": 1937,
      "rg": 1938,
      "UF": 1939,
      "eR": 1940,
      "yO": 1941,
      "llZNe": 1942,
      "hz": 1943,
      "mF": 1944,
      "wDO": 1945,
      "Lt": 1946,
      "Pd": 1947,
      "Vsa": 1948,
      "JD": 1949,
      "RW": 1950,
      "Xb": 1951,
      "ntV": 1952,
      "79": 1953,
      "nwG": 1954,
      "SD": 1955,
      "Zj": 1956,
      "llIr": 1957,
      "dhar": 1958,
      "Ip": 1959,
      "RA": 1960,
      "ZA": 1961,
      "ab": 1962,
      "218": 1963,
      "WhlV": 1964,
      "Igr": 1965,
      "ONtr": 1966,
      "MP": 1967,
      "UC": 1968,
      "dsW": 1969,
      "oQ": 1970,
      "snl": 1971,
      "XJN": 1972,
      "m!": 1973,
      "utrn": 1974,
      "52": 1975,
      "dWV": 1976,
      "gWb": 1977,
      "nE": 1978,
      "XF": 1979,
      "rss": 1980,
      "sWZ": 1981,
      "424": 1982,
      "WsTW": 1983,
      "Bf": 1984,
      "Tc": 1985,
      "oz": 1986,
      "tnw": 1987,
      "aVZ": 1988,
      "of": 1989,
      "sQN": 1990,
      "tlVS": 1991,
      "JsNn": 1992,
      "lhTe": 1993,
      "Ji": 1994,
      "Ou": 1995,
      "SQ": 1996,
      "TlJ": 1997,
      "Yf": 1998,
      "wS": 1999,
      "yq": 2000,
      "DNw": 2001,
      "Of": 2002,
      "PR": 2003,
      "xw": 2004,
      "zC": 2005,
      "edrNnl": 2006,
      "bmB": 2007,
      "rzqf": 2008,
      "CQ": 2009,
      "WQ": 2010,
      "WT": 2011,
      "jI": 2012,
      "51": 2013,
      "mu": 2014,
      "resQ": 2015,
      "Er": 2016,
      "Gm": 2017,
      "xI": 2018,
      "ANNeNN": 2019,
      "EC": 2020,
      "G!": 2021,
      "wWa": 2022,
      "EH": 2023,
      "Ni": 2024,
      "UaN": 2025,
      "Xu": 2026,
      "GA": 2027,
      "ODb": 2028,
      "PL": 2029,
      "Qhs": 2030,
      "cEq": 2031,
      "pR": 2032,
      "qb": 2033,
      "vy": 2034,
      "llZWh": 2035,
      "45": 2036,
      "No": 2037,
      "eM": 2038,
      "U!": 2039,
      "XS": 2040,
      "qOO": 2041,
      "sWW": 2042,
      "wwZ": 2043,
      "FI": 2044,
      "tAn": 2045,
      "Vb": 2046,
      "Vmn": 2047,
      "er": 2048,
      "pp": 2049,
      "Nsll": 2050,
      "lN@": 2051,
      "WE": 2052,
      "bIc": 2053,
      "bBB": 2054,
      "VF": 2055,
      "dS": 2056,
      "xo": 2057,
      "Jsn": 2058,
      "lsNn": 2059,
      "qll": 2060,
      "nwJs": 2061,
      "UZ": 2062,
      "cL": 2063,
      "raW": 2064,
      "164": 2065,
      "lqTe": 2066,
      "WbQ": 2067,
      "snft": 2068,
      "QBL": 2069,
      "tC": 2070,
      "yR": 2071,
      "Bh": 2072,
      "DIw": 2073,
      "Fp": 2074,
      "aX": 2075,
      "IqW": 2076,
      "NQW": 2077,
      "AtZ": 2078,
      "To": 2079,
      "zr": 2080,
      "esQ": 2081,
      "!f": 2082,
      "JJZ": 2083,
      "Tq": 2084,
      "YP": 2085,
      "vo": 2086,
      "zz": 2087,
      "Tr": 2088,
      "nJs": 2089,
      "wwd": 2090,
      "bcc": 2091,
      "Ap": 2092,
      "DF": 2093,
      "JQ": 2094,
      "rzV": 2095,
      "lJZNe": 2096,
      "!g": 2097,
      "KQ": 2098,
      "Tru": 2099,
      "iC": 2100,
      "NqtS": 2101,
      "fch": 2102,
      "htw": 2103,
      "oqg": 2104,
      "ssJ": 2105,
      "63": 2106,
      "WWs": 2107,
      "EqD": 2108,
      "Lw": 2109,
      "Xq": 2110,
      "rNZ": 2111,
      "NdtWSWrehJs": 2112,
      "Ug": 2113,
      "Wx": 2114,
      "yC": 2115,
      "elJ": 2116,
      "WNw": 2117,
      "271": 2118,
      "zvnq": 2119,
      "atZ": 2120,
      "jV": 2121,
      "qv": 2122,
      "aAn": 2123,
      "aE": 2124,
      "Weq": 2125,
      "htZ": 2126,
      "pw": 2127,
      "qF": 2128,
      "qWt": 2129,
      "yP": 2130,
      "bcB": 2131,
      "Sc": 2132,
      "Iqy": 2133,
      "sar": 2134,
      "IEE": 2135,
      "Jo": 2136,
      "OQ": 2137,
      "Sf": 2138,
      "aWZ": 2139,
      "rx": 2140,
      "sP": 2141,
      "226": 2142,
      "sWIw": 2143,
      "RNn": 2144,
      "cv": 2145,
      "iw": 2146,
      "nsr": 2147,
      "J@": 2148,
      "SU": 2149,
      "XW": 2150,
      "ih": 2151,
      "mNN": 2152,
      "rNe": 2153,
      "WWd": 2154,
      "Iwl": 2155,
      "eTAh": 2156,
      "OK": 2157,
      "wll": 2158,
      "wIN": 2159,
      "NwZ": 2160,
      "Igi": 2161,
      "ngh": 2162,
      "mOv": 2163,
      "Rf": 2164,
      "eC": 2165,
      "nny": 2166,
      "FnN": 2167,
      "ch": 2168,
      "od": 2169,
      "Isy": 2170,
      "Eny": 2171,
      "Gt": 2172,
      "ex": 2173,
      "!U": 2174,
      "BT": 2175,
      "NdQ": 2176,
      "nIOi": 2177,
      "ngL": 2178,
      "!K": 2179,
      "!W": 2180,
      "65": 2181,
      "Gww": 2182,
      "ehNerz": 2183,
      "BX": 2184,
      "TR": 2185,
      "tnZ": 2186,
      "nIOB": 2187,
      "bBi": 2188,
      "GILbn": 2189,
      "GD": 2190,
      "LZ": 2191,
      "PW": 2192,
      "Xo": 2193,
      "cD": 2194,
      "vu": 2195,
      "NwWt": 2196,
      "bIz": 2197,
      "iA": 2198,
      "qm": 2199,
      "sm": 2200,
      "wnJ": 2201,
      "!n": 2202,
      "VNr": 2203,
      "TK": 2204,
      "hWZ": 2205,
      "!S": 2206,
      "LN": 2207,
      "VFn": 2208,
      "di": 2209,
      "om": 2210,
      "pn": 2211,
      "WhAs": 2212,
      "!V": 2213,
      "Wlh": 2214,
      "Nnw": 2215,
      "NstS": 2216,
      "bnN": 2217,
      "121": 2218,
      "yn": 2219,
      "641": 2220,
      "nIB": 2221,
      "Uw": 2222,
      "rON": 2223,
      "xcu": 2224,
      "aanZ": 2225,
      "rnf": 2226,
      "La": 2227,
      "ry": 2228,
      "xF": 2229,
      "lZWe": 2230,
      "Nfl": 2231,
      "QE": 2232,
      "hp": 2233,
      "Jes": 2234,
      "JsTep": 2235,
      "RF": 2236,
      "zl": 2237,
      "lJa": 2238,
      "ANQ": 2239,
      "KG": 2240,
      "LFn": 2241,
      "Mz": 2242,
      "OX": 2243,
      "lssS": 2244,
      "WdrN": 2245,
      "aAa": 2246,
      "if": 2247,
      "zNN": 2248,
      "IwI": 2249,
      "QWW": 2250,
      "lAA": 2251,
      "KE": 2252,
      "Qm": 2253,
      "bds": 2254,
      "ya": 2255,
      "JsZ": 2256,
      "reqf": 2257,
      "Um": 2258,
      "bIe": 2259,
      "lK": 2260,
      "on": 2261,
      "122": 2262,
      "Mv": 2263,
      "Ocw": 2264,
      "UT": 2265,
      "YB": 2266,
      "Df": 2267,
      "hll": 2268,
      "sSNdhll": 2269,
      "85": 2270,
      "hr": 2271,
      "NZp": 2272,
      "lsTep": 2273,
      "!x": 2274,
      "JC": 2275,
      "NNQ": 2276,
      "bBb": 2277,
      "Bp": 2278,
      "KD": 2279,
      "Kg": 2280,
      "Rm": 2281,
      "KY": 2282,
      "eA": 2283,
      "sz": 2284,
      "gb": 2285,
      "bWh": 2286,
      "eQ": 2287,
      "hd": 2288,
      "tP": 2289,
      "JN@": 2290,
      "UL": 2291,
      "Ub": 2292,
      "mDgI": 2293,
      "NQQ": 2294,
      "ML": 2295,
      "NGh": 2296,
      "VNN": 2297,
      "XC": 2298,
      "eNe": 2299,
      "NV": 2300,
      "ia": 2301,
      "yIw": 2302,
      "pqq": 2303,
      "NNss": 2304,
      "JZWs": 2305,
      "Fs": 2306,
      "Wy": 2307,
      "bBN": 2308,
      "DS": 2309,
      "Jts": 2310,
      "aWW": 2311,
      "NsZd": 2312,
      "bOc": 2313,
      "lhN": 2314,
      "JqTe": 2315,
      "dhlJ": 2316,
      "QBh": 2317,
      "rnQNsQ": 2318,
      "Fr": 2319,
      "lWZ": 2320,
      "to": 2321,
      "DOw": 2322,
      "GwZ": 2323,
      "tWW": 2324,
      "vm": 2325,
      "DDw": 2326,
      "Ff": 2327,
      "Lx": 2328,
      "Nx": 2329,
      "wd!": 2330,
      "nif": 2331,
      "AU": 2332,
      "Ij": 2333,
      "Qp": 2334,
      "XoL": 2335,
      "eUe": 2336,
      "Yr": 2337,
      "ZO": 2338,
      "iV": 2339,
      "Ea": 2340,
      "sfN": 2341,
      "Nnl": 2342,
      "WOw": 2343,
      "36": 2344,
      "Jx": 2345,
      "me": 2346,
      "mnN": 2347,
      "yg": 2348,
      "yu": 2349,
      "bnb": 2350,
      "!l": 2351,
      "IsW": 2352,
      "dw": 2353,
      "sJt": 2354,
      "sNt": 2355,
      "tf": 2356,
      "CM": 2357,
      "FZQ": 2358,
      "pe": 2359,
      "Am": 2360,
      "SlW": 2361,
      "bqi": 2362,
      "cW": 2363,
      "www": 2364,
      "48211": 2365,
      "SB": 2366,
      "UeN": 2367,
      "WIw": 2368,
      "hh": 2369,
      "tR": 2370,
      "tWt": 2371,
      "sslW": 2372,
      "nOu": 2373,
      "ntw": 2374,
      "ANf": 2375,
      "bRNw": 2376,
      "!o": 2377,
      "56": 2378,
      "EF": 2379,
      "YZ": 2380,
      "dK": 2381,
      "nrp": 2382,
      "Cqn": 2383,
      "PJ": 2384,
      "zn": 2385,
      "NfJ": 2386,
      "Sw": 2387,
      "zG": 2388,
      "Wts": 2389,
      "OJs": 2390,
      "qK": 2391,
      "xV": 2392,
      "Nzrz": 2393,
      "WDw": 2394,
      "471": 2395,
      "je": 2396,
      "168": 2397,
      "qWIw": 2398,
      "PK": 2399,
      "sWr": 2400,
      "rzv": 2401,
      "DcM": 2402,
      "Wc!": 2403,
      "GIhbn": 2404,
      "Vp": 2405,
      "anZ": 2406,
      "sad": 2407,
      "LIz": 2408,
      "MN": 2409,
      "P!": 2410,
      "cS": 2411,
      "fF": 2412,
      "sR": 2413,
      "VsZ": 2414,
      "Dlh": 2415,
      "lx": 2416,
      "tx": 2417,
      "WZn": 2418,
      "oBu": 2419,
      "tAtZ": 2420,
      "CWb": 2421,
      "Ju": 2422,
      "Us": 2423,
      "WwI": 2424,
      "bz": 2425,
      "qwI": 2426,
      "qNs": 2427,
      "ssd": 2428,
      "wNS": 2429,
      "dWhrtN": 2430,
      "yd": 2431,
      "altt": 2432,
      "OT": 2433,
      "izq": 2434,
      "SWrehls": 2435,
      "ao": 2436,
      "fm": 2437,
      "nft": 2438,
      "ve": 2439,
      "qOg": 2440,
      "DNN": 2441,
      "ZdA": 2442,
      "ocu": 2443,
      "2122": 2444,
      "ehls": 2445,
      "IsI": 2446,
      "GdIf": 2447,
      "IDD": 2448,
      "bWZ": 2449,
      "i!": 2450,
      "Fw": 2451,
      "JG": 2452,
      "iZ": 2453,
      "ug": 2454,
      "Jld": 2455,
      "edr": 2456,
      "oX": 2457,
      "dhllN": 2458,
      "421": 2459,
      "uW": 2460,
      "wID": 2461,
      "bOV": 2462,
      "stS": 2463,
      "utUn": 2464,
      "31": 2465,
      "En": 2466,
      "YY": 2467,
      "BD": 2468,
      "Gc": 2469,
      "WNe": 2470,
      "jz": 2471,
      "mDV": 2472,
      "!T": 2473,
      "Lb": 2474,
      "XT": 2475,
      "Zg": 2476,
      "lts": 2477,
      "oNu": 2478,
      "qX": 2479,
      "tm": 2480,
      "evnq": 2481,
      "ZWO": 2482,
      "iJ": 2483,
      "NNb": 2484,
      "snJ": 2485,
      "!J": 2486,
      "Nls": 2487,
      "Uv": 2488,
      "xd": 2489,
      "Ed": 2490,
      "bv": 2491,
      "mqi": 2492,
      "qlt": 2493,
      "uU": 2494,
      "xL": 2495,
      "nIO": 2496,
      "JK": 2497,
      "ZS": 2498,
      "vIz": 2499,
      "sqh": 2500,
      "Qrr": 2501,
      "NZJ": 2502,
      "IDi": 2503,
      "baL": 2504,
      "NWt": 2505,
      "OY": 2506,
      "SC": 2507,
      "Tw": 2508,
      "WlVS": 2509,
      "QI": 2510,
      "vIe": 2511,
      "sqlJ": 2512,
      "AX": 2513,
      "xqg": 2514,
      "zS": 2515,
      "saU": 2516,
      "418": 2517,
      "711": 2518,
      "AZ": 2519,
      "Fi": 2520,
      "NdaWSWrehJs": 2521,
      "WJs": 2522,
      "XZ": 2523,
      "yj": 2524,
      "DT": 2525,
      "hV": 2526,
      "hts": 2527,
      "qlJ": 2528,
      "wIg": 2529,
      "!p": 2530,
      "611": 2531,
      "EV": 2532,
      "S!": 2533,
      "Sa": 2534,
      "Swe": 2535,
      "Znr": 2536,
      "Znl": 2537,
      "fV": 2538,
      "hb": 2539,
      "Wtr": 2540,
      "tWSWrehJs": 2541,
      "bRq": 2542,
      "416": 2543,
      "Pb": 2544,
      "TU": 2545,
      "ahaaW": 2546,
      "aanw": 2547,
      "IsD": 2548,
      "N@": 2549,
      "Nsl": 2550,
      "aVS": 2551,
      "REx": 2552,
      "FV": 2553,
      "wgg": 2554,
      "Nsaa": 2555,
      "lwsS": 2556,
      "BV": 2557,
      "FDh": 2558,
      "Pe": 2559,
      "tT": 2560,
      "xA": 2561,
      "Bv": 2562,
      "Ka": 2563,
      "VaW": 2564,
      "atW": 2565,
      "oi": 2566,
      "bcb": 2567,
      "bci": 2568,
      "FWZ": 2569,
      "Kh": 2570,
      "NlJ": 2571,
      "nlw": 2572,
      "sE": 2573,
      "yt": 2574,
      "wdA": 2575,
      "nnNn": 2576,
      "124": 2577,
      "MC": 2578,
      "Re": 2579,
      "WgI": 2580,
      "qp": 2581,
      "ngv": 2582,
      "6682": 2583,
      "tJtt": 2584,
      "FwQ": 2585,
      "vi": 2586,
      "byDb": 2587,
      "Ml": 2588,
      "uz": 2589,
      "wwY": 2590,
      "PC": 2591,
      "bOB": 2592,
      "IqE": 2593,
      "rzL": 2594,
      "wZd": 2595,
      "bmT": 2596,
      "us": 2597,
      "NnZJs": 2598,
      "KR": 2599,
      "les": 2600,
      "nBw": 2601,
      "reL": 2602,
      "03": 2603,
      "GU": 2604,
      "mZQ": 2605,
      "wlJ": 2606,
      "sae": 2607,
      "YILmn": 2608,
      "Dj": 2609,
      "F!": 2610,
      "Gu": 2611,
      "Jg": 2612,
      "fz": 2613,
      "hst": 2614,
      "il": 2615,
      "esf": 2616,
      "rGl": 2617,
      "boB": 2618,
      "nWb": 2619,
      "vR": 2620,
      "yr": 2621,
      "NZW": 2622,
      "aWSWrehJs": 2623,
      "suNl": 2624,
      "lqNn": 2625,
      "rzB": 2626,
      "zhJs": 2627,
      "mOL": 2628,
      "BnO": 2629,
      "DWZ": 2630,
      "GC": 2631,
      "Gss": 2632,
      "JWN": 2633,
      "Zx": 2634,
      "it": 2635,
      "qY": 2636,
      "114": 2637,
      "JJd": 2638,
      "Fx": 2639,
      "Pn": 2640,
      "am": 2641,
      "jh": 2642,
      "pB": 2643,
      "NeUe": 2644,
      "112": 2645,
      "NlWN": 2646,
      "RK": 2647,
      "eWW": 2648,
      "fv": 2649,
      "nWZ": 2650,
      "zQ": 2651,
      "Net": 2652,
      "WNJW": 2653,
      "dVS": 2654,
      "cH": 2655,
      "lNw": 2656,
      "qww": 2657,
      "yp": 2658,
      "aaD": 2659,
      "fBV": 2660,
      "83": 2661,
      "OIw": 2662,
      "Xr": 2663,
      "sK": 2664,
      "llh": 2665,
      "wIc": 2666,
      "mBi": 2667,
      "Trute": 2668,
      "BL": 2669,
      "EU": 2670,
      "XNn": 2671,
      "daJ": 2672,
      "rVZ": 2673,
      "slW": 2674,
      "Js!": 2675,
      "WWu": 2676,
      "242": 2677,
      "bDgI": 2678,
      "bNc": 2679,
      "Pl": 2680,
      "Yn": 2681,
      "anI": 2682,
      "iy": 2683,
      "tNN": 2684,
      "JsWN": 2685,
      "BW": 2686,
      "NlW": 2687,
      "Waa": 2688,
      "Xsu": 2689,
      "dm": 2690,
      "lWs": 2691,
      "oJ": 2692,
      "WtrNb": 2693,
      "bOZ": 2694,
      "Xs": 2695,
      "ol": 2696,
      "zA": 2697,
      "zcR": 2698,
      "YD": 2699,
      "gbB": 2700,
      "mG": 2701,
      "reqQ": 2702,
      "aaw": 2703,
      "ZNt": 2704,
      "Wub": 2705,
      "422": 2706,
      "ME": 2707,
      "Py": 2708,
      "is": 2709,
      "DIz": 2710,
      "NE": 2711,
      "NWa": 2712,
      "OqD": 2713,
      "VJ": 2714,
      "be": 2715,
      "fe": 2716,
      "pA": 2717,
      "qtr": 2718,
      "rC": 2719,
      "yWb": 2720,
      "NnU": 2721,
      "lwWs": 2722,
      "htWl": 2723,
      "WWZNG": 2724,
      "644": 2725,
      "hNZ": 2726,
      "hNn": 2727,
      "mnm": 2728,
      "MA": 2729,
      "PU": 2730,
      "oC": 2731,
      "trsW": 2732,
      "tttW": 2733,
      "LIe": 2734,
      "NJe": 2735,
      "RC": 2736,
      "Rl": 2737,
      "dc": 2738,
      "bRcw": 2739,
      "GRIf": 2740,
      "TdJ": 2741,
      "RJ": 2742,
      "YC": 2743,
      "esZ": 2744,
      "zy": 2745,
      "rev": 2746,
      "WZV": 2747,
      "118": 2748,
      "bBc": 2749,
      "6242": 2750,
      "DtZ": 2751,
      "Eh": 2752,
      "Lu": 2753,
      "rj": 2754,
      "IID": 2755,
      "nawN": 2756,
      "WqTn": 2757,
      "IDO": 2758,
      "Sq": 2759,
      "St": 2760,
      "Zbn": 2761,
      "xC": 2762,
      "xv": 2763,
      "yDb": 2764,
      "228": 2765,
      "sur": 2766,
      "ANe": 2767,
      "Fwf": 2768,
      "Tg": 2769,
      "UlN": 2770,
      "df": 2771,
      "fqD": 2772,
      "pO": 2773,
      "pq": 2774,
      "qtS": 2775,
      "FF": 2776,
      "IOO": 2777,
      "JWZ": 2778,
      "Nll": 2779,
      "NWs": 2780,
      "dI": 2781,
      "ahZ": 2782,
      "tNA": 2783,
      "WzJ": 2784,
      "MJ": 2785,
      "QsW": 2786,
      "V!": 2787,
      "JqW": 2788,
      "sur!": 2789,
      "bRh": 2790,
      "ocufc": 2791,
      "rGq": 2792,
      "BP": 2793,
      "QY": 2794,
      "TC": 2795,
      "iq": 2796,
      "oqO": 2797,
      "xa": 2798,
      "nIgr": 2799,
      "IqP": 2800,
      "248211": 2801,
      "KZ": 2802,
      "nCw": 2803,
      "llR": 2804,
      "aaZ": 2805,
      "Ms": 2806,
      "RH": 2807,
      "dy": 2808,
      "h!": 2809,
      "cco": 2810,
      "sDIw": 2811,
      "59": 2812,
      "Nj": 2813,
      "RP": 2814,
      "ZDt": 2815,
      "iv": 2816,
      "lqD": 2817,
      "tZW": 2818,
      "QNlld": 2819,
      "nUf": 2820,
      "aJsA": 2821,
      "GG": 2822,
      "fW": 2823,
      "xK": 2824,
      "zVS": 2825,
      "sat": 2826,
      "Nzre": 2827,
      "baV": 2828,
      "waOw": 2829,
      "162": 2830,
      "bev": 2831,
      "fL": 2832,
      "lP": 2833,
      "pns": 2834,
      "JsZe": 2835,
      "rNz": 2836,
      "std": 2837,
      "NQJ": 2838,
      "qrnah": 2839,
      "622": 2840,
      "OF": 2841,
      "RI": 2842,
      "fCw": 2843,
      "hsW": 2844,
      "yh": 2845,
      "Nsr": 2846,
      "842": 2847,
      "nbu": 2848,
      "lUWu": 2849,
      "Lo": 2850,
      "NM": 2851,
      "NNs": 2852,
      "lls": 2853,
      "bnDb": 2854,
      "sut": 2855,
      "ANc": 2856,
      "mzt": 2857,
      "Kt": 2858,
      "NY": 2859,
      "Sv": 2860,
      "nDb": 2861,
      "tht": 2862,
      "Nsa": 2863,
      "bnbbc": 2864,
      "arn": 2865,
      "QZTJS": 2866,
      "!QJ": 2867,
      "QcV": 2868,
      "sSNdhlJ": 2869,
      "Kb": 2870,
      "Uq": 2871,
      "ZY": 2872,
      "eY": 2873,
      "ltZ": 2874,
      "AG": 2875,
      "Vn": 2876,
      "ZDO": 2877,
      "QZWa": 2878,
      "SWrehJq": 2879,
      "Fm": 2880,
      "Fds": 2881,
      "JR": 2882,
      "KI": 2883,
      "Lr": 2884,
      "fr": 2885,
      "nlq": 2886,
      "llVS": 2887,
      "sshet": 2888,
      "FWd": 2889,
      "lj": 2890,
      "sllZNe": 2891,
      "IIB": 2892,
      "IIP": 2893,
      "atw": 2894,
      "QVsld": 2895,
      "QVsWd": 2896,
      "814": 2897,
      "RNr": 2898,
      "TNu": 2899,
      "boc": 2900,
      "pC": 2901,
      "yS": 2902,
      "WZnNZ": 2903,
      "aJtt": 2904,
      "fNV": 2905,
      "niQ": 2906,
      "zvEq": 2907,
      "DIq": 2908,
      "LU": 2909,
      "bIN": 2910,
      "IwC": 2911,
      "strNd": 2912,
      "UnQNsQ": 2913,
      "LF": 2914,
      "dn": 2915,
      "fY": 2916,
      "fVs": 2917,
      "tJs": 2918,
      "zY": 2919,
      "NNeN": 2920,
      "wwE": 2921,
      "262": 2922,
      "eT!N": 2923,
      "WVw": 2924,
      "CsTe": 2925,
      "fNv": 2926,
      "TllH": 2927,
      "!I": 2928,
      "CG": 2929,
      "Mh": 2930,
      "TNr": 2931,
      "UWW": 2932,
      "hu": 2933,
      "pF": 2934,
      "lVra": 2935,
      "161": 2936,
      "WNnNZ": 2937,
      "lsTeG": 2938,
      "WsN!t": 2939,
      "411": 2940,
      "Vl": 2941,
      "tAa": 2942,
      "sua": 2943,
      "naZ": 2944,
      "ANU": 2945,
      "Wnnc": 2946,
      "82222": 2947,
      "Aw": 2948,
      "RY": 2949,
      "ZDa": 2950,
      "WZh": 2951,
      "dhS": 2952,
      "DQ": 2953,
      "TQ": 2954,
      "NsU": 2955,
      "Ndf": 2956,
      "nZJ": 2957,
      "NrZ": 2958,
      "sSNdhllN": 2959,
      "WsNAt": 2960,
      "strNdaJ": 2961,
      "GF": 2962,
      "Nlq": 2963,
      "Wds": 2964,
      "dB": 2965,
      "mY": 2966,
      "oqD": 2967,
      "qQN": 2968,
      "trZ": 2969,
      "828": 2970,
      "aJat": 2971,
      "tnnw": 2972,
      "!sW": 2973,
      "4241": 2974,
      "Cn": 2975,
      "EY": 2976,
      "GO": 2977,
      "JWb": 2978,
      "Kj": 2979,
      "Mw": 2980,
      "blh": 2981,
      "oD": 2982,
      "pqs": 2983,
      "xZ": 2984,
      "wIw": 2985,
      "Wh!s": 2986,
      "wZG": 2987,
      "JWNn": 2988,
      "ggmB": 2989,
      "sUnth": 2990,
      "!u": 2991,
      "KYqq": 2992,
      "ez": 2993,
      "psq": 2994,
      "qla": 2995,
      "tv": 2996,
      "Jso": 2997,
      "ssl": 2998,
      "RyI": 2999,
      "gu": 3000,
      "vz": 3001,
      "wDa": 3002,
      "xP": 3003,
      "yIY": 3004,
      "GJ": 3005,
      "IWO": 3006,
      "NP": 3007,
      "dC": 3008,
      "ef": 3009,
      "eqf": 3010,
      "mS": 3011,
      "pQ": 3012,
      "tVt": 3013,
      "lldG": 3014,
      "ahS": 3015,
      "NsJ": 3016,
      "TNZt": 3017,
      "744": 3018,
      "Rn": 3019,
      "TM": 3020,
      "iF": 3021,
      "ij": 3022,
      "mIc": 3023,
      "nls": 3024,
      "pD": 3025,
      "uwI": 3026,
      "nrNd": 3027,
      "naJ": 3028,
      "Zla": 3029,
      "Ats": 3030,
      "Ols": 3031,
      "UX": 3032,
      "XX": 3033,
      "gG": 3034,
      "IqI": 3035,
      "zBb": 3036,
      "bav": 3037,
      "bgh": 3038,
      "zLCq": 3039,
      "ieqf": 3040,
      "mIz": 3041,
      "rE": 3042,
      "swI": 3043,
      "xY": 3044,
      "xh": 3045,
      "BwQ": 3046,
      "!sWt": 3047,
      "REo": 3048,
      "Jft": 3049,
      "aj": 3050,
      "bNe": 3051,
      "cK": 3052,
      "lE": 3053,
      "rNs": 3054,
      "wOg": 3055,
      "NqQ": 3056,
      "YIvmn": 3057,
      "Ihbn": 3058,
      "RQ": 3059,
      "Sn": 3060,
      "VU": 3061,
      "aDb": 3062,
      "jN": 3063,
      "qT": 3064,
      "wDt": 3065,
      "x!": 3066,
      "WaZ": 3067,
      "nqEny": 3068,
      "NQl": 3069,
      "eVSere": 3070,
      "mza": 3071,
      "KA": 3072,
      "rX": 3073,
      "zDN": 3074,
      "bDZ": 3075,
      "WDZ": 3076,
      "ldsWNZ": 3077,
      "VtWly": 3078,
      "07": 3079,
      "WNs": 3080,
      "tG": 3081,
      "tVZ": 3082,
      "yv": 3083,
      "841": 3084,
      "nZl": 3085,
      "lhrt": 3086,
      "atnw": 3087,
      "IDr": 3088,
      "688": 3089,
      "Flh": 3090,
      "IWN": 3091,
      "JJt": 3092,
      "ell": 3093,
      "slJZNe": 3094,
      "bnm": 3095,
      "aVt": 3096,
      "Ma": 3097,
      "Oj": 3098,
      "mV": 3099,
      "JsJ": 3100,
      "NnJ": 3101,
      "GdIQ": 3102,
      "EEw": 3103,
      "!NNeNN": 3104,
      "50": 3105,
      "BH": 3106,
      "INb": 3107,
      "KT": 3108,
      "qe": 3109,
      "rJN": 3110,
      "sT": 3111,
      "llO": 3112,
      "nBZ": 3113,
      "IhFn": 3114,
      "24821": 3115,
      "AL": 3116,
      "MZ": 3117,
      "QO": 3118,
      "YU": 3119,
      "bnZ": 3120,
      "gm": 3121,
      "urA": 3122,
      "vJ": 3123,
      "xt": 3124,
      "IwJ": 3125,
      "FtZ": 3126,
      "Mq": 3127,
      "Si": 3128,
      "ZWW": 3129,
      "bqq": 3130,
      "saht": 3131,
      "IIE": 3132,
      "IZC": 3133,
      "hsgh": 3134,
      "ggbB": 3135,
      "Dub": 3136,
      "Go": 3137,
      "Sd": 3138,
      "qfN": 3139,
      "Nqaa": 3140,
      "zhCq": 3141,
      "zhnq": 3142,
      "4821": 3143,
      "zLEq": 3144,
      "oxd": 3145,
      "Jp": 3146,
      "Op": 3147,
      "ONw": 3148,
      "UK": 3149,
      "jE": 3150,
      "nnc": 3151,
      "bDB": 3152,
      "tWw": 3153,
      "eTd": 3154,
      "NsW": 3155,
      "QK": 3156,
      "anw": 3157,
      "hC": 3158,
      "mmX": 3159,
      "Iwg": 3160,
      "nIOc": 3161,
      "bDD": 3162,
      "dsr": 3163,
      "WwnNw": 3164,
      "sZd": 3165,
      "WVZ": 3166,
      "rehJs": 3167,
      "Av": 3168,
      "LR": 3169,
      "Mo": 3170,
      "nNn": 3171,
      "116": 3172,
      "bRqr": 3173,
      "zvCq": 3174,
      "BdL": 3175,
      "73": 3176,
      "922": 3177,
      "LA": 3178,
      "Tp": 3179,
      "bOw": 3180,
      "aWd": 3181,
      "stU": 3182,
      "bgv": 3183,
      "bCv": 3184,
      "!h": 3185,
      "Ind": 3186,
      "Ky": 3187,
      "aQ": 3188,
      "bG": 3189,
      "erz": 3190,
      "flw": 3191,
      "fEw": 3192,
      "oNN": 3193,
      "WWQ": 3194,
      "Nstt": 3195,
      "JqD": 3196,
      "OwI": 3197,
      "XnG": 3198,
      "eo": 3199,
      "hD": 3200,
      "iP": 3201,
      "uc": 3202,
      "NNd": 3203,
      "ANu": 3204,
      "aNtr": 3205,
      "las": 3206,
      "IOx": 3207,
      "snW": 3208,
      "294": 3209,
      "FNZ": 3210,
      "LK": 3211,
      "VNZ": 3212,
      "cM": 3213,
      "hn": 3214,
      "lk": 3215,
      "mnw": 3216,
      "uR": 3217,
      "Nnt": 3218,
      "Neu": 3219,
      "WNz": 3220,
      "ssV": 3221,
      "NzN": 3222,
      "srnth": 3223,
      "GILmn": 3224,
      "drNnl": 3225,
      "haWl": 3226,
      "SE": 3227,
      "fy": 3228,
      "vFn": 3229,
      "NNssW": 3230,
      "ssZ": 3231,
      "nOw": 3232,
      "cwZ": 3233,
      "Nqt": 3234,
      "ehJq": 3235,
      "WWtrN": 3236,
      "VI": 3237,
      "Wtt": 3238,
      "Bwf": 3239,
      "bRs": 3240,
      "dlNZ": 3241,
      "gOmB": 3242,
      "CU": 3243,
      "PIw": 3244,
      "RR": 3245,
      "Xg": 3246,
      "Xll": 3247,
      "nX": 3248,
      "wDg": 3249,
      "lqW": 3250,
      "bgL": 3251,
      "rZe": 3252,
      "SWrzhJs": 3253,
      "Ax": 3254,
      "Qf": 3255,
      "ST": 3256,
      "Vy": 3257,
      "wNe": 3258,
      "244": 3259,
      "tt!s": 3260,
      "628": 3261,
      "mDB": 3262,
      "qOs": 3263,
      "qOt": 3264,
      "CDb": 3265,
      "JwZ": 3266,
      "WDD": 3267,
      "cwI": 3268,
      "dVs": 3269,
      "qbn": 3270,
      "ah!s": 3271,
      "NslJ": 3272,
      "lrp": 3273,
      "srnOh": 3274,
      "rdWh": 3275,
      "ubeT": 3276,
      "Et": 3277,
      "FK": 3278,
      "IWr": 3279,
      "MNq": 3280,
      "hT": 3281,
      "izB": 3282,
      "rD": 3283,
      "ssS": 3284,
      "EN": 3285,
      "Kqg": 3286,
      "VD": 3287,
      "fG": 3288,
      "mbX": 3289,
      "vC": 3290,
      "WWWa": 3291,
      "sual": 3292,
      "OOw": 3293,
      "rNF": 3294,
      "arS": 3295,
      "ONOr": 3296,
      "ImIc": 3297,
      "GRIQ": 3298,
      "GII": 3299,
      "N!ANN": 3300,
      "UON": 3301,
      "oR": 3302,
      "lJq": 3303,
      "DDZ": 3304,
      "Tdl": 3305,
      "Ym": 3306,
      "fqW": 3307,
      "qUnah": 3308,
      "sNa": 3309,
      "trar": 3310,
      "nZC": 3311,
      "Jqn": 3312,
      "naw": 3313,
      "lVM": 3314,
      "ldsWNw": 3315,
      "Kz": 3316,
      "LC": 3317,
      "Yc": 3318,
      "Ys": 3319,
      "dR": 3320,
      "NNt": 3321,
      "214": 3322,
      "lW!!": 3323,
      "thZ": 3324,
      "FWh": 3325,
      "NWN": 3326,
      "SNu": 3327,
      "dY": 3328,
      "rte": 3329,
      "uZWt": 3330,
      "yng": 3331,
      "bON": 3332,
      "tsZ": 3333,
      "ANfQ": 3334,
      "sUnOh": 3335,
      "WsNAa": 3336,
      "ANdQ": 3337,
      "Daa": 3338,
      "LD": 3339,
      "ZnJ": 3340,
      "dO": 3341,
      "jr": 3342,
      "oP": 3343,
      "rWs": 3344,
      "sTe": 3345,
      "tM": 3346,
      "bOwI": 3347,
      "166": 3348,
      "JW!!": 3349,
      "!Nc": 3350,
      "QM": 3351,
      "SP": 3352,
      "gQ": 3353,
      "qWa": 3354,
      "vY": 3355,
      "llA": 3356,
      "1824": 3357,
      "NzNN": 3358,
      "Sx": 3359,
      "jl": 3360,
      "sla": 3361,
      "WZI": 3362,
      "mDwI": 3363,
      "stal": 3364,
      "sdA": 3365,
      "K!": 3366,
      "Kn": 3367,
      "cww": 3368,
      "eE": 3369,
      "pI": 3370,
      "vl": 3371,
      "Nnds": 3372,
      "BBx": 3373,
      "ZQF": 3374,
      "sSNR": 3375,
      "zhJq": 3376,
      "lJZWh": 3377,
      "dZr": 3378,
      "BJs": 3379,
      "VeN": 3380,
      "fU": 3381,
      "NNWWZ": 3382,
      "bDN": 3383,
      "aWr": 3384,
      "yIG": 3385,
      "!!NN": 3386,
      "Ihmn": 3387,
      "JdsW": 3388,
      "MO": 3389,
      "QG": 3390,
      "RqD": 3391,
      "TWL": 3392,
      "Uj": 3393,
      "ax": 3394,
      "bNZ": 3395,
      "blV": 3396,
      "hI": 3397,
      "WsJ": 3398,
      "resf": 3399,
      "NdA": 3400,
      "nOvE": 3401,
      "OOD": 3402,
      "!Ne": 3403,
      "FE": 3404,
      "Km": 3405,
      "PF": 3406,
      "Qi": 3407,
      "WzB": 3408,
      "Ztt": 3409,
      "bcw": 3410,
      "WWt": 3411,
      "aWnZ": 3412,
      "GIh": 3413,
      "ray": 3414,
      "!sa": 3415,
      "Az": 3416,
      "Bww": 3417,
      "Bnq": 3418,
      "DH": 3419,
      "Rd": 3420,
      "Ulr": 3421,
      "ZWN": 3422,
      "bFX": 3423,
      "eP": 3424,
      "uUU": 3425,
      "NZw": 3426,
      "aau": 3427,
      "IIN": 3428,
      "Whlh": 3429,
      "lrWu": 3430,
      "srnaV": 3431,
      "rdWhrtN": 3432,
      "DsTn": 3433,
      "SeUe": 3434,
      "126": 3435,
      "EJ": 3436,
      "IZl": 3437,
      "Mf": 3438,
      "RIq": 3439,
      "ei": 3440,
      "gT": 3441,
      "nT": 3442,
      "rWW": 3443,
      "vD": 3444,
      "IwP": 3445,
      "Atq": 3446,
      "bmc": 3447,
      "AANN": 3448,
      "t!n": 3449,
      "VsWh": 3450,
      "412": 3451,
      "FNN": 3452,
      "XD": 3453,
      "tL": 3454,
      "xn": 3455,
      "bRz": 3456,
      "nUp": 3457,
      "ZNa": 3458,
      "AAdh": 3459,
      "Gbc": 3460,
      "Gf!": 3461,
      "YII": 3462,
      "ZlJ": 3463,
      "nDZ": 3464,
      "so": 3465,
      "nwl": 3466,
      "mnb": 3467,
      "oBufc": 3468,
      "mci": 3469,
      "EIw": 3470,
      "Ga": 3471,
      "Zo": 3472,
      "cP": 3473,
      "rqq": 3474,
      "uT": 3475,
      "zj": 3476,
      "qDO": 3477,
      "WarN": 3478,
      "sqV": 3479,
      "141": 3480,
      "KL": 3481,
      "MBz": 3482,
      "UD": 3483,
      "Vf": 3484,
      "mNm": 3485,
      "qNn": 3486,
      "xD": 3487,
      "yIg": 3488,
      "sWB": 3489,
      "NeW": 3490,
      "Wess": 3491,
      "WelI": 3492,
      "bNB": 3493,
      "fcV": 3494,
      "zqQ": 3495,
      "htWly": 3496,
      "Gi": 3497,
      "Nv": 3498,
      "YF": 3499,
      "cWW": 3500,
      "nCq": 3501,
      "227": 3502,
      "Nwl": 3503,
      "cwB": 3504,
      "NqW": 3505,
      "Jrs": 3506,
      "JsWNZ": 3507,
      "AD": 3508,
      "KGqq": 3509,
      "L!": 3510,
      "TO": 3511,
      "UI": 3512,
      "bWO": 3513,
      "bqr": 3514,
      "iL": 3515,
      "lIr": 3516,
      "pT": 3517,
      "vF": 3518,
      "zK": 3519,
      "Wat": 3520,
      "nrGZ": 3521,
      "nBRE": 3522,
      "WrN": 3523,
      "qOa": 3524,
      "AaZ": 3525,
      "hsah": 3526,
      "WUh": 3527,
      "wgO": 3528,
      "Bj": 3529,
      "Gv": 3530,
      "Jy": 3531,
      "MDi": 3532,
      "NJq": 3533,
      "OWd": 3534,
      "TJN": 3535,
      "VZZ": 3536,
      "cnO": 3537,
      "gf": 3538,
      "sx": 3539,
      "848": 3540,
      "surA": 3541,
      "EqP": 3542,
      "bRBw": 3543,
      "VtG": 3544,
      "aJsAN": 3545,
      "!eh": 3546,
      "962": 3547,
      "GL": 3548,
      "Vqa": 3549,
      "Yww": 3550,
      "dqN": 3551,
      "gH": 3552,
      "sWw": 3553,
      "trN": 3554,
      "qDR": 3555,
      "qDc": 3556,
      "GIvbn": 3557,
      "bWwI": 3558,
      "Wf": 3559,
      "gF": 3560,
      "wwwI": 3561,
      "ImIB": 3562,
      "YRi": 3563,
      "LYILmn": 3564,
      "El": 3565,
      "Gn": 3566,
      "SX": 3567,
      "Zi": 3568,
      "aCq": 3569,
      "bM": 3570,
      "ean": 3571,
      "qj": 3572,
      "rlN": 3573,
      "rNnZJs": 3574,
      "ui": 3575,
      "Wtu": 3576,
      "lsn": 3577,
      "bDwI": 3578,
      "suU": 3579,
      "sSB": 3580,
      "bAQ": 3581,
      "NJZ": 3582,
      "OBw": 3583,
      "Qn": 3584,
      "VWZ": 3585,
      "bIq": 3586,
      "fdJ": 3587,
      "gIq": 3588,
      "mBB": 3589,
      "tNd": 3590,
      "uP": 3591,
      "wla": 3592,
      "Nnh": 3593,
      "Way": 3594,
      "sshe": 3595,
      "nwJ": 3596,
      "tWr": 3597,
      "lWb": 3598,
      "QBv": 3599,
      "JWs": 3600,
      "Qz": 3601,
      "UVZ": 3602,
      "Vo": 3603,
      "WnI": 3604,
      "etN": 3605,
      "pm": 3606,
      "pWt": 3607,
      "uq": 3608,
      "Neh": 3609,
      "sZZ": 3610,
      "qsll": 3611,
      "WWZa": 3612,
      "AC": 3613,
      "DOO": 3614,
      "QCw": 3615,
      "heN": 3616,
      "sJJ": 3617,
      "yU": 3618,
      "4182": 3619,
      "arZ": 3620,
      "IDP": 3621,
      "bEL": 3622,
      "IbO": 3623,
      "ObB": 3624,
      "SI": 3625,
      "bNr": 3626,
      "mIN": 3627,
      "utr": 3628,
      "bDW": 3629,
      "lhWs": 3630,
      "ImI": 3631,
      "myW": 3632,
      "uaUn": 3633,
      "ANr": 3634,
      "YK": 3635,
      "bdh": 3636,
      "fX": 3637,
      "WNc": 3638,
      "ssC": 3639,
      "lqn": 3640,
      "16241": 3641,
      "ZZZ": 3642,
      "wQm": 3643,
      "eVNerz": 3644,
      "GhG": 3645,
      "sWtlds": 3646,
      "612": 3647,
      "CwI": 3648,
      "Dtw": 3649,
      "JT": 3650,
      "OqB": 3651,
      "Rp": 3652,
      "nts": 3653,
      "qan": 3654,
      "vV": 3655,
      "xr": 3656,
      "sst": 3657,
      "ntwN": 3658,
      "zBR": 3659,
      "qgg": 3660,
      "qtO": 3661,
      "bsU": 3662,
      "wgOE": 3663,
      "eJH": 3664,
      "Cp": 3665,
      "JeN": 3666,
      "Vx": 3667,
      "dE": 3668,
      "fT": 3669,
      "gnO": 3670,
      "hi": 3671,
      "mah": 3672,
      "tsW": 3673,
      "ynO": 3674,
      "WWa": 3675,
      "aWb": 3676,
      "IqII": 3677,
      "1821": 3678,
      "Bwc": 3679,
      "58": 3680,
      "CX": 3681,
      "KS": 3682,
      "TE": 3683,
      "WH": 3684,
      "beL": 3685,
      "cp": 3686,
      "jt": 3687,
      "meT": 3688,
      "wV": 3689,
      "sqll": 3690,
      "Nle": 3691,
      "qaO": 3692,
      "eVNs": 3693,
      "zXR": 3694,
      "626": 3695,
      "Dly": 3696,
      "Rj": 3697,
      "WzN": 3698,
      "cj": 3699,
      "hNN": 3700,
      "lJ@": 3701,
      "WrV": 3702,
      "1624": 3703,
      "DhlV": 3704,
      "!saa": 3705,
      "Unf": 3706,
      "CNZ": 3707,
      "IfN": 3708,
      "RU": 3709,
      "aNn": 3710,
      "cJs": 3711,
      "meg": 3712,
      "oF": 3713,
      "vQ": 3714,
      "vr": 3715,
      "cwc": 3716,
      "JrWu": 3717,
      "UJNX": 3718,
      "Bng": 3719,
      "IWB": 3720,
      "UWs": 3721,
      "iYz": 3722,
      "mM": 3723,
      "mp": 3724,
      "mNb": 3725,
      "sX": 3726,
      "xbx": 3727,
      "Nna": 3728,
      "bOvg": 3729,
      "nBwB": 3730,
      "IOi": 3731,
      "GdNr": 3732,
      "Qcv": 3733,
      "53": 3734,
      "AK": 3735,
      "Olq": 3736,
      "cbn": 3737,
      "gS": 3738,
      "mcN": 3739,
      "nDh": 3740,
      "xJ": 3741,
      "yL": 3742,
      "zqD": 3743,
      "sWa": 3744,
      "nZj": 3745,
      "WZnNw": 3746,
      "IDx": 3747,
      "DN!": 3748,
      "zhlq": 3749,
      "tue": 3750,
      "IVbn": 3751,
      "!C": 3752,
      "172": 3753,
      "aNd": 3754,
      "bWw": 3755,
      "daW": 3756,
      "mWh": 3757,
      "zp": 3758,
      "zNb": 3759,
      "bnWb": 3760,
      "suaAn": 3761,
      "lWw": 3762,
      "WOZ": 3763,
      "hsQ": 3764,
      "rnd": 3765,
      "snWes": 3766,
      "NWesTN": 3767,
      "GLG": 3768,
      "Kv": 3769,
      "UNb": 3770,
      "ZV": 3771,
      "bH": 3772,
      "occ": 3773,
      "slt": 3774,
      "zM": 3775,
      "nIN": 3776,
      "bDw": 3777,
      "ZlN": 3778,
      "DgmB": 3779,
      "rnDv": 3780,
      "bCV": 3781,
      "QcL": 3782,
      "qSNdh": 3783,
      "Atw": 3784,
      "Fnw": 3785,
      "NWWZ": 3786,
      "Vae": 3787,
      "ZK": 3788,
      "anr": 3789,
      "cY": 3790,
      "dT": 3791,
      "dre": 3792,
      "vv": 3793,
      "Jss": 3794,
      "WWb": 3795,
      "wwl": 3796,
      "117": 3797,
      "Whw": 3798,
      "mDw": 3799,
      "bbZ": 3800,
      "qag": 3801,
      "tltt": 3802,
      "!Nd": 3803,
      "38": 3804,
      "661": 3805,
      "NWJ": 3806,
      "WM": 3807,
      "Xov": 3808,
      "hx": 3809,
      "lNr": 3810,
      "nbbX": 3811,
      "NNa": 3812,
      "sWs": 3813,
      "Nsw": 3814,
      "trS": 3815,
      "wwP": 3816,
      "aWQ": 3817,
      "ntL": 3818,
      "bmcw": 3819,
      "621": 3820,
      "Dcw": 3821,
      "DWb": 3822,
      "Gws": 3823,
      "INn": 3824,
      "TD": 3825,
      "YDP": 3826,
      "bL": 3827,
      "ip": 3828,
      "met": 3829,
      "oW": 3830,
      "uD": 3831,
      "wlr": 3832,
      "qDt": 3833,
      "264": 3834,
      "lVN": 3835,
      "eNVs": 3836,
      "bRV": 3837,
      "DVw": 3838,
      "wfA": 3839,
      "NJWN": 3840,
      "GQA": 3841,
      "Jk": 3842,
      "fJw": 3843,
      "hM": 3844,
      "iGI": 3845,
      "sOO": 3846,
      "t@": 3847,
      "wIwI": 3848,
      "WNo": 3849,
      "bnW": 3850,
      "bqU": 3851,
      "ehNereNQWNn": 3852,
      "sMNdh": 3853,
      "aJqA": 3854,
      "UCN": 3855,
      "Yg": 3856,
      "fI": 3857,
      "sZl": 3858,
      "NNW": 3859,
      "WaW": 3860,
      "alqA": 3861,
      "tWb": 3862,
      "aJaa": 3863,
      "qZII": 3864,
      "yfv": 3865,
      "!st": 3866,
      "811": 3867,
      "EIi": 3868,
      "Gg": 3869,
      "XM": 3870,
      "jJ": 3871,
      "mb": 3872,
      "rL": 3873,
      "rzc": 3874,
      "bdv": 3875,
      "YRIE": 3876,
      "plp": 3877,
      "lsWe": 3878,
      "284": 3879,
      "Blq": 3880,
      "CT": 3881,
      "IWW": 3882,
      "Iww": 3883,
      "JZl": 3884,
      "NtN": 3885,
      "NJW": 3886,
      "VtZ": 3887,
      "VeW": 3888,
      "hWw": 3889,
      "mDO": 3890,
      "qNq": 3891,
      "rv": 3892,
      "bDO": 3893,
      "bDEq": 3894,
      "Wbf": 3895,
      "fNL": 3896,
      "VsWV": 3897,
      "Ao": 3898,
      "Cu": 3899,
      "QeT": 3900,
      "UaW": 3901,
      "rqs": 3902,
      "tlh": 3903,
      "uv": 3904,
      "WsZ": 3905,
      "nZlssS": 3906,
      "lhT": 3907,
      "DOZ": 3908,
      "qqE": 3909,
      "GIL": 3910,
      "NcA": 3911,
      "ntuNl": 3912,
      "E!": 3913,
      "Fo": 3914,
      "IWt": 3915,
      "Ll": 3916,
      "VQ": 3917,
      "W@": 3918,
      "aY": 3919,
      "dj": 3920,
      "gX": 3921,
      "nal": 3922,
      "oG": 3923,
      "pWs": 3924,
      "sL": 3925,
      "sWO": 3926,
      "nwC": 3927,
      "IqO": 3928,
      "BBo": 3929,
      "ONar": 3930,
      "8742": 3931,
      "GQG": 3932,
      "NAN": 3933,
      "RqO": 3934,
      "gM": 3935,
      "izc": 3936,
      "lCw": 3937,
      "nIw": 3938,
      "qWO": 3939,
      "uF": 3940,
      "vf": 3941,
      "WtW": 3942,
      "ttW": 3943,
      "WZes": 3944,
      "NqWN": 3945,
      "tetrtr": 3946,
      "bbbw": 3947,
      "Wzl": 3948,
      "IfoL": 3949,
      "EbIe": 3950,
      "msi": 3951,
      "eNNZtt": 3952,
      "AWa": 3953,
      "FG": 3954,
      "WX": 3955,
      "WcN": 3956,
      "Yv": 3957,
      "Yy": 3958,
      "bEE": 3959,
      "oqE": 3960,
      "pal": 3961,
      "rNN": 3962,
      "zU": 3963,
      "JsTz": 3964,
      "WWrN": 3965,
      "wIZ": 3966,
      "IwY": 3967,
      "IDc": 3968,
      "wdet": 3969,
      "Ifov": 3970,
      "bCL": 3971,
      "zT!": 3972,
      "05": 3973,
      "95": 3974,
      "BGd": 3975,
      "SM": 3976,
      "UNF": 3977,
      "qTe": 3978,
      "vb": 3979,
      "nObbc": 3980,
      "ANQQ": 3981,
      "!sb!Q": 3982,
      "TdlA": 3983,
      "tlat": 3984,
      "TlS": 3985,
      "DCv": 3986,
      "LP": 3987,
      "US": 3988,
      "hX": 3989,
      "wEz": 3990,
      "ABu": 3991,
      "ehNereNlWN": 3992,
      "sur!n": 3993,
      "asW": 3994,
      "fWW": 3995,
      "jZ": 3996,
      "p!": 3997,
      "teN": 3998,
      "xl": 3999,
      "WWr": 4000,
      "lJe": 4001,
      "NdZ": 4002,
      "ttw": 4003,
      "wwD": 4004,
      "nNba": 4005,
      "ANNeN": 4006,
      "MBu": 4007,
      "Serz": 4008,
      "ybIB": 4009,
      "dhtrr": 4010,
      "nwJssS": 4011,
      "NZpdr": 4012,
      "402": 4013,
      "FDV": 4014,
      "Ry": 4015,
      "ZeW": 4016,
      "aVs": 4017,
      "bzv": 4018,
      "jA": 4019,
      "nJZ": 4020,
      "nDw": 4021,
      "or": 4022,
      "tE": 4023,
      "NNF": 4024,
      "Ndl": 4025,
      "ttu": 4026,
      "bnbm": 4027,
      "War": 4028,
      "rzqQ": 4029,
      "IDB": 4030,
      "JsTeG": 4031,
      "sshetNds": 4032,
      "!QZ": 4033,
      "287": 4034,
      "OH": 4035,
      "OlVS": 4036,
      "PA": 4037,
      "Sg": 4038,
      "Yqs": 4039,
      "pc": 4040,
      "xR": 4041,
      "WWsN": 4042,
      "wwWW": 4043,
      "aWw": 4044,
      "NrN": 4045,
      "sutAn": 4046,
      "lqN": 4047,
      "CqP": 4048,
      "ncZ": 4049,
      "mDEq": 4050,
      "bmBw": 4051,
      "mRq": 4052,
      "mRs": 4053,
      "nnG": 4054,
      "mzT": 4055,
      "htWJ": 4056,
      "818": 4057,
      "EwI": 4058,
      "M!": 4059,
      "Qst": 4060,
      "WY": 4061,
      "lu": 4062,
      "oM": 4063,
      "zDB": 4064,
      "JsA": 4065,
      "nwE": 4066,
      "ANB": 4067,
      "Dhw": 4068,
      "mzX": 4069,
      "sdWhrtN": 4070,
      "nZGIs": 4071,
      "NqtSWtrN": 4072,
      "462": 4073,
      "DWD": 4074,
      "FlV": 4075,
      "IKB": 4076,
      "KP": 4077,
      "OAa": 4078,
      "QL": 4079,
      "Wls": 4080,
      "bbN": 4081,
      "dal": 4082,
      "py": 4083,
      "uarn": 4084,
      "JslA": 4085,
      "Nnn": 4086,
      "Wsh": 4087,
      "bDc": 4088,
      "272": 4089,
      "IDo": 4090,
      "baB": 4091,
      "ZdWh": 4092,
      "YILbn": 4093,
      "vOy": 4094,
      "xBu": 4095,
      "tBtr": 4096,
      "inDv": 4097,
      "Jv": 4098,
      "OIq": 4099,
      "TX": 4100,
      "XO": 4101,
      "mNr": 4102,
      "sww": 4103,
      "tre": 4104,
      "uh": 4105,
      "wWg": 4106,
      "ze": 4107,
      "tZp": 4108,
      "ssu": 4109,
      "bOCq": 4110,
      "lW!A": 4111,
      "ncf": 4112,
      "Igx": 4113,
      "ngV": 4114,
      "rdWV": 4115,
      "llZWrh": 4116,
      "wueNe": 4117,
      "IlR": 4118,
      "668211": 4119,
      "eT!NU": 4120,
      "DII": 4121,
      "Ddr": 4122,
      "EA": 4123,
      "JtZ": 4124,
      "KNQ": 4125,
      "Lj": 4126,
      "Mcf": 4127,
      "NaN": 4128,
      "XdJ": 4129,
      "iS": 4130,
      "nbmX": 4131,
      "pb": 4132,
      "qJt": 4133,
      "trWu": 4134,
      "naZN": 4135,
      "zhNere": 4136,
      "NfQ": 4137,
      "Rcx": 4138,
      "srnahlr": 4139,
      "ANdf": 4140,
      "EEq": 4141,
      "NBb": 4142,
      "jB": 4143,
      "js": 4144,
      "mv": 4145,
      "mcB": 4146,
      "nDL": 4147,
      "qmn": 4148,
      "tDb": 4149,
      "tha": 4150,
      "wbn": 4151,
      "WtZW": 4152,
      "Nnq": 4153,
      "ahaa": 4154,
      "nIy": 4155,
      "Isn": 4156,
      "mDc": 4157,
      "Eqn": 4158,
      "NlA": 4159,
      "mOV": 4160,
      "nlb": 4161,
      "dVa": 4162,
      "IPo": 4163,
      "Fnc": 4164,
      "FaV": 4165,
      "FaZ": 4166,
      "LbO": 4167,
      "ONZ": 4168,
      "QX": 4169,
      "Qg": 4170,
      "dg": 4171,
      "fhq": 4172,
      "rY": 4173,
      "yT": 4174,
      "NNeNN": 4175,
      "wIi": 4176,
      "NssW": 4177,
      "wwR": 4178,
      "bBr": 4179,
      "ntv": 4180,
      "BwB": 4181,
      "sqCJ": 4182,
      "148": 4183,
      "488": 4184,
      "GIhmn": 4185,
      "byf": 4186,
      "BZf": 4187,
      "!X": 4188,
      "Fz": 4189,
      "GQ!": 4190,
      "ODw": 4191,
      "psu": 4192,
      "pdr": 4193,
      "rsZ": 4194,
      "nZJZ": 4195,
      "bnbb": 4196,
      "JqJ": 4197,
      "qta": 4198,
      "rGA": 4199,
      "bbcVG": 4200,
      "NNsst": 4201,
      "Ik": 4202,
      "Ln": 4203,
      "MR": 4204,
      "Ueh": 4205,
      "llV": 4206,
      "NnV": 4207,
      "sWNw": 4208,
      "WZWr": 4209,
      "IzG": 4210,
      "WbN": 4211,
      "lZW": 4212,
      "nUG": 4213,
      "IOo": 4214,
      "WBnI": 4215,
      "hslh": 4216,
      "Bcx": 4217,
      "bTo": 4218,
      "dhtrS": 4219,
      "AtN": 4220,
      "Jds": 4221,
      "aqD": 4222,
      "cCq": 4223,
      "cNb": 4224,
      "fK": 4225,
      "gmB": 4226,
      "oT": 4227,
      "pss": 4228,
      "ty": 4229,
      "vj": 4230,
      "wh": 4231,
      "ssa": 4232,
      "lqB": 4233,
      "Ied": 4234,
      "JZb": 4235,
      "nGsZ": 4236,
      "ebWZ": 4237,
      "57": 4238,
      "CNw": 4239,
      "FWa": 4240,
      "PDD": 4241,
      "UdW": 4242,
      "YO": 4243,
      "ZWZ": 4244,
      "bdV": 4245,
      "bnw": 4246,
      "447": 4247,
      "stO": 4248,
      "mOh": 4249,
      "Asaa": 4250,
      "byB": 4251,
      "WsTtTrute": 4252,
      "FnB": 4253,
      "GfA": 4254,
      "KF": 4255,
      "Kcf": 4256,
      "Oht": 4257,
      "QsZ": 4258,
      "VOG": 4259,
      "WJZ": 4260,
      "ZJZ": 4261,
      "bWb": 4262,
      "bzL": 4263,
      "eNZ": 4264,
      "pz": 4265,
      "NeB": 4266,
      "ehNe": 4267,
      "sap": 4268,
      "baZ": 4269,
      "Ifx": 4270,
      "TNVs": 4271,
      "IGW": 4272,
      "NGd": 4273,
      "UE": 4274,
      "etZ": 4275,
      "iW": 4276,
      "rWt": 4277,
      "NNz": 4278,
      "WWW": 4279,
      "qDN": 4280,
      "IwZ": 4281,
      "nIDr": 4282,
      "tNllt": 4283,
      "bcNb": 4284,
      "ncnv": 4285,
      "OgbB": 4286,
      "IPi": 4287,
      "csQ": 4288,
      "vOG": 4289,
      "VtWl": 4290,
      "!y": 4291,
      "VR": 4292,
      "cZZ": 4293,
      "fD": 4294,
      "hsa": 4295,
      "Nd!": 4296,
      "nZsW": 4297,
      "lsl": 4298,
      "bBe": 4299,
      "dha": 4300,
      "ccx": 4301,
      "ngbbc": 4302,
      "eNNZta": 4303,
      "Vaetrtr": 4304,
      "!D": 4305,
      "!R": 4306,
      "722": 4307,
      "AWt": 4308,
      "BS": 4309,
      "FZf": 4310,
      "JP": 4311,
      "NWe": 4312,
      "bWV": 4313,
      "dP": 4314,
      "jw": 4315,
      "mqr": 4316,
      "NNu": 4317,
      "WWDa": 4318,
      "NdtWt": 4319,
      "suaJ": 4320,
      "WdW": 4321,
      "WrZ": 4322,
      "IBnq": 4323,
      "bRL": 4324,
      "cBz": 4325,
      "DcZ": 4326,
      "IbIc": 4327,
      "Acu": 4328,
      "QhsW": 4329,
      "eTAVrnQNsQ": 4330,
      "QhsWdT": 4331,
      "hsghNZ": 4332,
      "JNr": 4333,
      "NWD": 4334,
      "QD": 4335,
      "So": 4336,
      "aIw": 4337,
      "blJ": 4338,
      "jW": 4339,
      "mcc": 4340,
      "pg": 4341,
      "pan": 4342,
      "sNn": 4343,
      "Wss": 4344,
      "cwb": 4345,
      "DDb": 4346,
      "ncgd": 4347,
      "Dccw": 4348,
      "heNdtWSWrehJs": 4349,
      "Coy": 4350,
      "!P": 4351,
      "LOD": 4352,
      "dtW": 4353,
      "fOw": 4354,
      "ltw": 4355,
      "mL": 4356,
      "rP": 4357,
      "wtt": 4358,
      "wal": 4359,
      "247": 4360,
      "wIz": 4361,
      "nID": 4362,
      "IqwI": 4363,
      "Nrs": 4364,
      "Wdra": 4365,
      "JL": 4366,
      "Mn": 4367,
      "YQ": 4368,
      "ies": 4369,
      "moB": 4370,
      "nlZ": 4371,
      "nWWu": 4372,
      "tds": 4373,
      "waa": 4374,
      "NdtJ": 4375,
      "nIDi": 4376,
      "Wer": 4377,
      "nwp": 4378,
      "aWnw": 4379,
      "ehns": 4380,
      "mDZ": 4381,
      "419": 4382,
      "lrZ": 4383,
      "IDg": 4384,
      "Igm": 4385,
      "mRh": 4386,
      "mcb": 4387,
      "Nph": 4388,
      "oqOO": 4389,
      "iGl": 4390,
      "XeG": 4391,
      "TlJ@": 4392,
      "!i": 4393,
      "MX": 4394,
      "QeW": 4395,
      "Vj": 4396,
      "eNb": 4397,
      "mUl": 4398,
      "meO": 4399,
      "xT": 4400,
      "NNw": 4401,
      "qDd": 4402,
      "wwy": 4403,
      "alta": 4404,
      "IIg": 4405,
      "QNv": 4406,
      "ngwN": 4407,
      "qsC": 4408,
      "bsi": 4409,
      "bwfb": 4410,
      "VOj": 4411,
      "ANdQNh": 4412,
      "nZJssSNdh": 4413,
      "NstSWtrN": 4414,
      "178": 4415,
      "924": 4416,
      "Fv": 4417,
      "Ki": 4418,
      "KNf": 4419,
      "NWl": 4420,
      "Qv": 4421,
      "UNe": 4422,
      "UzB": 4423,
      "Xdl": 4424,
      "gbc": 4425,
      "mnZ": 4426,
      "mWO": 4427,
      "ptW": 4428,
      "qlW": 4429,
      "tNw": 4430,
      "wWW": 4431,
      "NnN": 4432,
      "res": 4433,
      "mnW": 4434,
      "ehCq": 4435,
      "lNT": 4436,
      "qae": 4437,
      "IOr": 4438,
      "OgmB": 4439,
      "874": 4440,
      "QBV": 4441,
      "fwqi": 4442,
      "NWWZN": 4443,
      "ufcV": 4444,
      "872": 4445,
      "DNs": 4446,
      "Fu": 4447,
      "Gsa": 4448,
      "NWZ": 4449,
      "NCq": 4450,
      "QZN": 4451,
      "Ral": 4452,
      "Uu": 4453,
      "Uls": 4454,
      "Wzc": 4455,
      "bbw": 4456,
      "fsW": 4457,
      "nJq": 4458,
      "WtrB": 4459,
      "sWe": 4460,
      "sWal": 4461,
      "Waw": 4462,
      "tWd": 4463,
      "NlAy": 4464,
      "rdWN": 4465,
      "wR!": 4466,
      "ANNe": 4467,
      "TWnnNn": 4468,
      "nZGIq": 4469,
      "66821": 4470,
      "WbQNlJd": 4471,
      "BJq": 4472,
      "FL": 4473,
      "Fj": 4474,
      "Kcu": 4475,
      "dWN": 4476,
      "fhs": 4477,
      "hR": 4478,
      "jQ": 4479,
      "NNl": 4480,
      "217": 4481,
      "WZZ": 4482,
      "lVrt": 4483,
      "ccB": 4484,
      "ccc": 4485,
      "sta": 4486,
      "cNA": 4487,
      "IZG": 4488,
      "IZJ": 4489,
      "ocf": 4490,
      "evNere": 4491,
      "eX!": 4492,
      "Ssy": 4493,
      "461": 4494,
      "DY": 4495,
      "Dte": 4496,
      "FlW": 4497,
      "Fdh": 4498,
      "Gqu": 4499,
      "LJ": 4500,
      "Qsu": 4501,
      "anrQ": 4502,
      "gqD": 4503,
      "lsZ": 4504,
      "nIq": 4505,
      "NwWO": 4506,
      "mnbm": 4507,
      "Nba": 4508,
      "Nbt": 4509,
      "IsII": 4510,
      "lrs": 4511,
      "qqh": 4512,
      "Dc!": 4513,
      "WqTa": 4514,
      "aVa": 4515,
      "JeZ": 4516,
      "Daw": 4517,
      "OcZ": 4518,
      "WNnNw": 4519,
      "zsf": 4520,
      "FJs": 4521,
      "QR": 4522,
      "Qy": 4523,
      "mdh": 4524,
      "mNc": 4525,
      "pf": 4526,
      "qWN": 4527,
      "sv": 4528,
      "uC": 4529,
      "Wtt!": 4530,
      "Nns": 4531,
      "ttF": 4532,
      "nOZ": 4533,
      "wZZ": 4534,
      "qqC": 4535,
      "sZI": 4536,
      "sZw": 4537,
      "lew": 4538,
      "IbI": 4539,
      "Nue": 4540,
      "ZWtelJ": 4541,
      "sJa": 4542,
      "eVNereNQWNn": 4543,
      "nIOBOJ": 4544,
      "BM": 4545,
      "EDb": 4546,
      "Itr": 4547,
      "JNd": 4548,
      "YW": 4549,
      "dD": 4550,
      "ej": 4551,
      "gp": 4552,
      "lNe": 4553,
      "mds": 4554,
      "nre": 4555,
      "pWW": 4556,
      "qfB": 4557,
      "NNn": 4558,
      "Wte": 4559,
      "WNp": 4560,
      "nOm": 4561,
      "tWrN": 4562,
      "nBgd": 4563,
      "bRqi": 4564,
      "teW": 4565,
      "sqC": 4566,
      "!stt": 4567,
      "NleN": 4568,
      "ltq": 4569,
      "myDb": 4570,
      "bTx": 4571,
      "Zue": 4572,
      "Q!rtN": 4573,
      "Dww": 4574,
      "Ezq": 4575,
      "Fe": 4576,
      "JNw": 4577,
      "KqO": 4578,
      "Uf": 4579,
      "WsWd": 4580,
      "Xy": 4581,
      "ey": 4582,
      "eqQ": 4583,
      "oK": 4584,
      "oOw": 4585,
      "rNd": 4586,
      "tAt": 4587,
      "uwd": 4588,
      "zNe": 4589,
      "ztrtr": 4590,
      "NNS": 4591,
      "IwO": 4592,
      "WaI": 4593,
      "JqN": 4594,
      "CqW": 4595,
      "sqJ": 4596,
      "Jrp": 4597,
      "IWi": 4598,
      "NWA": 4599,
      "nDG": 4600,
      "nxIgr": 4601,
      "dharr": 4602,
      "Dp": 4603,
      "Mt": 4604,
      "Pf": 4605,
      "QdJ": 4606,
      "Tqu": 4607,
      "Ux": 4608,
      "VY": 4609,
      "aIB": 4610,
      "bp": 4611,
      "bZd": 4612,
      "edU": 4613,
      "srN": 4614,
      "sJW": 4615,
      "reha": 4616,
      "wIE": 4617,
      "qDB": 4618,
      "8422": 4619,
      "ehNeUe": 4620,
      "nqG": 4621,
      "414": 4622,
      "NzB": 4623,
      "bRv": 4624,
      "ldt": 4625,
      "OgD": 4626,
      "WWZW": 4627,
      "aAtZ": 4628,
      "DWW": 4629,
      "Id!": 4630,
      "izv": 4631,
      "jq": 4632,
      "lQ": 4633,
      "l!A": 4634,
      "mFX": 4635,
      "IwG": 4636,
      "bDzB": 4637,
      "tWrs": 4638,
      "Nrr": 4639,
      "Nqa": 4640,
      "wZl": 4641,
      "Zdet": 4642,
      "nseu": 4643,
      "Jtq": 4644,
      "qtg": 4645,
      "!NB": 4646,
      "qNS": 4647,
      "qNa": 4648,
      "wfb": 4649,
      "YRY": 4650,
      "AI": 4651,
      "Eu": 4652,
      "JNs": 4653,
      "Oha": 4654,
      "VNs": 4655,
      "Wj": 4656,
      "fVq": 4657,
      "leN": 4658,
      "mmT": 4659,
      "nwI": 4660,
      "xG": 4661,
      "yX": 4662,
      "WWwN": 4663,
      "Nne": 4664,
      "nION": 4665,
      "aNA": 4666,
      "laZ": 4667,
      "mgv": 4668,
      "mdv": 4669,
      "Fls": 4670,
      "IS": 4671,
      "PY": 4672,
      "XWL": 4673,
      "bJs": 4674,
      "dIq": 4675,
      "hj": 4676,
      "mlh": 4677,
      "tDw": 4678,
      "xU": 4679,
      "yH": 4680,
      "NZWO": 4681,
      "Nnrp": 4682,
      "sWaZ": 4683,
      "NdN": 4684,
      "Nda": 4685,
      "Ndt": 4686,
      "wwW": 4687,
      "WZW": 4688,
      "Iwx": 4689,
      "nNFa": 4690,
      "bBz": 4691,
      "bBNb": 4692,
      "cc!": 4693,
      "ZZuZ": 4694,
      "qgs": 4695,
      "nlG": 4696,
      "bth": 4697,
      "TJQZ": 4698,
      "Iyg": 4699,
      "NTu": 4700,
      "dWNZ": 4701,
      "ulNZ": 4702,
      "ulNs": 4703,
      "LYIvmn": 4704,
      "Dcc": 4705,
      "FJZ": 4706,
      "Kd": 4707,
      "MDb": 4708,
      "OJq": 4709,
      "SL": 4710,
      "UNZ": 4711,
      "Wlq": 4712,
      "YL": 4713,
      "ZNN": 4714,
      "ZWs": 4715,
      "cdh": 4716,
      "eWN": 4717,
      "hrnQ": 4718,
      "iIF": 4719,
      "lNs": 4720,
      "sOt": 4721,
      "tqD": 4722,
      "NN!": 4723,
      "NNJ": 4724,
      "sWNZ": 4725,
      "Nsu": 4726,
      "trZW": 4727,
      "wwg": 4728,
      "8287": 4729,
      "ehts": 4730,
      "bbcw": 4731,
      "WcA": 4732,
      "iYe": 4733,
      "726": 4734,
      "AP": 4735,
      "AWW": 4736,
      "Asa": 4737,
      "Nlr": 4738,
      "TbZ": 4739,
      "Ute": 4740,
      "aIs": 4741,
      "mNF": 4742,
      "paW": 4743,
      "tX": 4744,
      "tY": 4745,
      "tWs": 4746,
      "WW!!": 4747,
      "Nnd": 4748,
      "aaWr": 4749,
      "nIP": 4750,
      "WeW": 4751,
      "nOwc": 4752,
      "OOZ": 4753,
      "wZI": 4754,
      "WdUa": 4755,
      "WOy": 4756,
      "atnZ": 4757,
      "lNau": 4758,
      "Igo": 4759,
      "Wzs": 4760,
      "NuQ": 4761,
      "AAd": 4762,
      "bdL": 4763,
      "WJVS": 4764,
      "AcNeNN": 4765,
      "AyZ": 4766,
      "QVsJd": 4767,
      "xenc": 4768,
      "bbTbZ": 4769,
      "ANNeNNWsTn": 4770,
      "CK": 4771,
      "IM": 4772,
      "Ld": 4773,
      "Obc": 4774,
      "Pu": 4775,
      "Qhq": 4776,
      "RwI": 4777,
      "Uo": 4778,
      "blI": 4779,
      "cGd": 4780,
      "dIs": 4781,
      "pi": 4782,
      "qWw": 4783,
      "xX": 4784,
      "xbDv": 4785,
      "zre": 4786,
      "NNWWZN": 4787,
      "aaF": 4788,
      "nrfE": 4789,
      "qWIZ": 4790,
      "qga": 4791,
      "ZNS": 4792,
      "esfN": 4793,
      "Bbx": 4794,
      "GIV": 4795,
      "cyIw": 4796,
      "!v": 4797,
      "IWe": 4798,
      "Jf": 4799,
      "KV": 4800,
      "LW": 4801,
      "Rqg": 4802,
      "Sp": 4803,
      "UzN": 4804,
      "XQ": 4805,
      "aNw": 4806,
      "deN": 4807,
      "jU": 4808,
      "sY": 4809,
      "vtW": 4810,
      "Jsr": 4811,
      "Jqh": 4812,
      "sand": 4813,
      "tel": 4814,
      "esd": 4815,
      "lAANN": 4816,
      "hecd": 4817,
      "ZuZ": 4818,
      "foL": 4819,
      "EiG": 4820,
      "lZWeZd!": 4821,
      "IWD": 4822,
      "Kr": 4823,
      "PgI": 4824,
      "RtW": 4825,
      "SnW": 4826,
      "Znd": 4827,
      "bsr": 4828,
      "eBb": 4829,
      "iD": 4830,
      "jD": 4831,
      "mWZ": 4832,
      "qat": 4833,
      "saW": 4834,
      "tJq": 4835,
      "tQl": 4836,
      "wnw": 4837,
      "2422": 4838,
      "lsTz": 4839,
      "ssN": 4840,
      "bOvM": 4841,
      "wlI": 4842,
      "Dgw": 4843,
      "DqTn": 4844,
      "boQ": 4845,
      "EiY": 4846,
      "IVmn": 4847,
      "ehNereNQW": 4848,
      "qDIwbRNw": 4849,
      "!cu": 4850,
      "142": 4851,
      "682": 4852,
      "942": 4853,
      "ANZ": 4854,
      "EyI": 4855,
      "FNr": 4856,
      "PIz": 4857,
      "SV": 4858,
      "Ulq": 4859,
      "eH": 4860,
      "meX": 4861,
      "nnB": 4862,
      "vW": 4863,
      "WtU": 4864,
      "Wtq": 4865,
      "Nnp": 4866,
      "WNK": 4867,
      "429": 4868,
      "Iqg": 4869,
      "Zlt": 4870,
      "Vsr": 4871,
      "IgO": 4872,
      "WqN": 4873,
      "Fnh": 4874,
      "YIhmn": 4875,
      "sUnaV": 4876,
      "bNNb": 4877,
      "IEEm": 4878,
      "426": 4879,
      "FlZ": 4880,
      "FNZWt": 4881,
      "KW": 4882,
      "PII": 4883,
      "aWs": 4884,
      "eWr": 4885,
      "gDD": 4886,
      "hal": 4887,
      "hsr": 4888,
      "oIi": 4889,
      "rts": 4890,
      "un": 4891,
      "NNq": 4892,
      "tt!": 4893,
      "127": 4894,
      "wZy": 4895,
      "nBwN": 4896,
      "Bwal": 4897,
      "gIX": 4898,
      "mBc": 4899,
      "qWB": 4900,
      "sSNdV": 4901,
      "Aaw": 4902,
      "lde": 4903,
      "zhls": 4904,
      "wYi": 4905,
      "!AN": 4906,
      "55": 4907,
      "JE": 4908,
      "Kl": 4909,
      "NlN": 4910,
      "OnI": 4911,
      "RaW": 4912,
      "Vi": 4913,
      "WVs": 4914,
      "ZslJ": 4915,
      "gIz": 4916,
      "jF": 4917,
      "rOB": 4918,
      "rb!": 4919,
      "WNr": 4920,
      "nIi": 4921,
      "CqTe": 4922,
      "bwR": 4923,
      "dru": 4924,
      "bbW": 4925,
      "ngm": 4926,
      "zqE": 4927,
      "zqy": 4928,
      "ocR": 4929,
      "GIVbn": 4930,
      "nnp": 4931,
      "zTA": 4932,
      "edrNnlG": 4933,
      "haWly": 4934,
      "6211": 4935,
      "BCq": 4936,
      "FIB": 4937,
      "SJW": 4938,
      "VC": 4939,
      "jC": 4940,
      "lZl": 4941,
      "tnr": 4942,
      "xIi": 4943,
      "sWn": 4944,
      "trr": 4945,
      "WNF": 4946,
      "WdFh": 4947,
      "aNp": 4948,
      "Vscd": 4949,
      "DbIz": 4950,
      "srd": 4951,
      "ste": 4952,
      "147": 4953,
      "YIvbn": 4954,
      "nnbl": 4955,
      "leq": 4956,
      "rdW": 4957,
      "SWrehlq": 4958,
      "lldp": 4959,
      "WtZWZ": 4960,
      "drNnr": 4961,
      "EbIz": 4962,
      "rbANd": 4963,
      "J!Z": 4964,
      "Nww": 4965,
      "OCq": 4966,
      "UY": 4967,
      "af": 4968,
      "dvS": 4969,
      "oBB": 4970,
      "ocB": 4971,
      "qnn": 4972,
      "sj": 4973,
      "sII": 4974,
      "WWwB": 4975,
      "WsXn": 4976,
      "WZp": 4977,
      "nwNT": 4978,
      "629": 4979,
      "OOE": 4980,
      "WOv": 4981,
      "Owb": 4982,
      "Dhlr": 4983,
      "Dco": 4984,
      "ONO": 4985,
      "lt@": 4986,
      "lta": 4987,
      "IbIB": 4988,
      "nahlh": 4989,
      "LYILbn": 4990,
      "!Y": 4991,
      "ILbn": 4992,
      "KNN": 4993,
      "LI": 4994,
      "Mg": 4995,
      "Mwz": 4996,
      "Nbn": 4997,
      "QrU": 4998,
      "QQNh": 4999,
      "RsN": 5000,
      "fqO": 5001,
      "gwI": 5002,
      "qII": 5003,
      "Jsh": 5004,
      "Jsl": 5005,
      "Nnau": 5006,
      "ttA": 5007,
      "aWF": 5008,
      "nNgd": 5009,
      "CqB": 5010,
      "ehlq": 5011,
      "qWc": 5012,
      "WVra": 5013,
      "ggD": 5014,
      "leZ": 5015,
      "Ibf": 5016,
      "evcs": 5017,
      "wRA": 5018,
      "FTF": 5019,
      "ocufBL": 5020,
      "!G": 5021,
      "618": 5022,
      "Ilr": 5023,
      "JX": 5024,
      "JJs": 5025,
      "PIq": 5026,
      "Qlw": 5027,
      "QWD": 5028,
      "SK": 5029,
      "SO": 5030,
      "UNs": 5031,
      "Wnr": 5032,
      "Yl": 5033,
      "aDw": 5034,
      "dM": 5035,
      "eJN": 5036,
      "eO!": 5037,
      "gqB": 5038,
      "izN": 5039,
      "xNu": 5040,
      "NNr": 5041,
      "ttnZJssS": 5042,
      "tZsW": 5043,
      "tNS": 5044,
      "bDb": 5045,
      "IzD": 5046,
      "ncQ": 5047,
      "atF": 5048,
      "baCq": 5049,
      "ONt": 5050,
      "zqR": 5051,
      "wQb": 5052,
      "etNd": 5053,
      "Gdd": 5054,
      "mOwI": 5055,
      "hsl": 5056,
      "zLJq": 5057,
      "bdq": 5058,
      "zVNere": 5059,
      "WesT": 5060,
      "BmK": 5061,
      "Eww": 5062,
      "FDv": 5063,
      "FOV": 5064,
      "IWz": 5065,
      "WlV": 5066,
      "bIs": 5067,
      "dH": 5068,
      "wNd": 5069,
      "wbO": 5070,
      "Wtrc": 5071,
      "reB": 5072,
      "wIR": 5073,
      "8412": 5074,
      "wwG": 5075,
      "Iwm": 5076,
      "Why": 5077,
      "lWAA": 5078,
      "Nql": 5079,
      "mnbbc": 5080,
      "nBy": 5081,
      "WbfN": 5082,
      "bwq": 5083,
      "eTANU": 5084,
      "mBb": 5085,
      "wlt": 5086,
      "JrZ": 5087,
      "ocQ": 5088,
      "nee": 5089,
      "bWv": 5090,
      "lbIe": 5091,
      "UJNT": 5092,
      "ehJsZnr": 5093,
      "SNuts": 5094,
      "012": 5095,
      "FdV": 5096,
      "JIr": 5097,
      "OVs": 5098,
      "QZZ": 5099,
      "UQ": 5100,
      "Wzq": 5101,
      "beh": 5102,
      "fwq": 5103,
      "jm": 5104,
      "Neb": 5105,
      "Nssa": 5106,
      "nIc": 5107,
      "bnNb": 5108,
      "WaU": 5109,
      "WdA": 5110,
      "nqeu": 5111,
      "IeI": 5112,
      "Vsah": 5113,
      "Vslh": 5114,
      "ZQm": 5115,
      "rrs": 5116,
      "tanw": 5117,
      "IPD": 5118,
      "WsTnTsu": 5119,
      "UJNTJ": 5120,
      "sttlds": 5121,
      "WbQNlld": 5122,
      "887": 5123,
      "BWW": 5124,
      "Bls": 5125,
      "PH": 5126,
      "RIf": 5127,
      "TG": 5128,
      "Uzc": 5129,
      "Www": 5130,
      "WJq": 5131,
      "XG": 5132,
      "aAt": 5133,
      "ewI": 5134,
      "hNr": 5135,
      "oEz": 5136,
      "uI": 5137,
      "220": 5138,
      "llZW": 5139,
      "trtt": 5140,
      "qDy": 5141,
      "nZls": 5142,
      "tZn": 5143,
      "ZlZ": 5144,
      "IDU": 5145,
      "WuF": 5146,
      "rehJq": 5147,
      "Ifo": 5148,
      "GRY": 5149,
      "IWn": 5150,
      "Zus": 5151,
      "eXAV": 5152,
      "!NNeN": 5153,
      "rlNZl": 5154,
      "Ivmn": 5155,
      "816": 5156,
      "994": 5157,
      "FOh": 5158,
      "IWc": 5159,
      "OWw": 5160,
      "Yh": 5161,
      "aM": 5162,
      "cNZ": 5163,
      "cNn": 5164,
      "iM": 5165,
      "j!": 5166,
      "mNB": 5167,
      "pG": 5168,
      "rII": 5169,
      "rsq": 5170,
      "vNQ": 5171,
      "nIz": 5172,
      "WeNb": 5173,
      "NwWa": 5174,
      "tNar": 5175,
      "JqTz": 5176,
      "Nqr": 5177,
      "ntQ": 5178,
      "ID!": 5179,
      "zNc": 5180,
      "DaZ": 5181,
      "!NW": 5182,
      "QZsr": 5183,
      "mRV": 5184,
      "BdIq": 5185,
      "!eWW": 5186,
      "QSVsa": 5187,
      "wue": 5188,
      "pdp": 5189,
      "UJNXJN": 5190,
      "lZWssd!": 5191,
      "Qhsld": 5192,
      "AR": 5193,
      "BEq": 5194,
      "BGR": 5195,
      "FWV": 5196,
      "GZZ": 5197,
      "Jlt": 5198,
      "YN": 5199,
      "aNN": 5200,
      "bNz": 5201,
      "iu": 5202,
      "nbO": 5203,
      "qnW": 5204,
      "tNs": 5205,
      "WsNA": 5206,
      "NdOl": 5207,
      "NrW": 5208,
      "lWk": 5209,
      "Nqh": 5210,
      "wZw": 5211,
      "rNm": 5212,
      "NQf": 5213,
      "sSNd": 5214,
      "IgU": 5215,
      "nUQ": 5216,
      "mOZ": 5217,
      "mRv": 5218,
      "has": 5219,
      "Nff": 5220,
      "AstttW": 5221,
      "WUV": 5222,
      "QsAe": 5223,
      "lltbN": 5224,
      "iYww": 5225,
      "XxL": 5226,
      "WsTtTsu": 5227,
      "DqD": 5228,
      "DIe": 5229,
      "Fhs": 5230,
      "Goxd": 5231,
      "V@": 5232,
      "VzN": 5233,
      "Wnn": 5234,
      "Yx": 5235,
      "ZDg": 5236,
      "btw": 5237,
      "bqs": 5238,
      "cbo": 5239,
      "hP": 5240,
      "net": 5241,
      "zlJ": 5242,
      "sWIZ": 5243,
      "NeJ": 5244,
      "NdJ": 5245,
      "qDg": 5246,
      "tNsW": 5247,
      "Nza": 5248,
      "tes": 5249,
      "wQF": 5250,
      "qsl": 5251,
      "Ncb": 5252,
      "snD": 5253,
      "byP": 5254,
      "NWesT": 5255,
      "VaWl": 5256,
      "NdtWtW": 5257,
      "!@": 5258,
      "171": 5259,
      "FlJ": 5260,
      "KqDM": 5261,
      "SWW": 5262,
      "atN": 5263,
      "rtW": 5264,
      "wat": 5265,
      "NNp": 5266,
      "246": 5267,
      "llb": 5268,
      "ret": 5269,
      "ahraW": 5270,
      "nwCq": 5271,
      "bDOI": 5272,
      "lhy": 5273,
      "bgwI": 5274,
      "Csn": 5275,
      "qtal": 5276,
      "mRL": 5277,
      "GIvmn": 5278,
      "OqE": 5279,
      "NRh": 5280,
      "wag": 5281,
      "AE": 5282,
      "Au": 5283,
      "CCw": 5284,
      "F!Q": 5285,
      "KqD": 5286,
      "Nal": 5287,
      "WwZ": 5288,
      "Xi": 5289,
      "bWs": 5290,
      "dIf": 5291,
      "fn": 5292,
      "hWd": 5293,
      "ibC": 5294,
      "mH": 5295,
      "mbT": 5296,
      "nsZ": 5297,
      "oqC": 5298,
      "qfc": 5299,
      "rsW": 5300,
      "uO": 5301,
      "ute": 5302,
      "ywI": 5303,
      "Jsw": 5304,
      "WWF": 5305,
      "WWbn": 5306,
      "lJdp": 5307,
      "ahAs": 5308,
      "119": 5309,
      "nIx": 5310,
      "NwJ": 5311,
      "tNt": 5312,
      "bDvg": 5313,
      "aWrN": 5314,
      "nrj": 5315,
      "nNtd": 5316,
      "lWNn": 5317,
      "Nqg": 5318,
      "rzsf": 5319,
      "169": 5320,
      "ZlI": 5321,
      "srsQ": 5322,
      "Dhlh": 5323,
      "Jew": 5324,
      "zhNerz": 5325,
      "wfm": 5326,
      "Oow": 5327,
      "eLCq": 5328,
      "myx": 5329,
      "bof": 5330,
      "blL": 5331,
      "egbc": 5332,
      "rue": 5333,
      "iYq": 5334,
      "strNdal": 5335,
      "nYII": 5336,
      "ROcw": 5337,
      "Acd": 5338,
      "BNb": 5339,
      "Clw": 5340,
      "Cld": 5341,
      "Kp": 5342,
      "Lbc": 5343,
      "Vtw": 5344,
      "beS": 5345,
      "fP": 5346,
      "fp": 5347,
      "izh": 5348,
      "mqq": 5349,
      "nfa": 5350,
      "stW": 5351,
      "sts": 5352,
      "xW": 5353,
      "zWN": 5354,
      "zgI": 5355,
      "JsB": 5356,
      "WNCW": 5357,
      "IwD": 5358,
      "NqN": 5359,
      "NbWh": 5360,
      "saO": 5361,
      "bwn": 5362,
      "eT!!": 5363,
      "qqv": 5364,
      "WVlV": 5365,
      "eWS": 5366,
      "DofY": 5367,
      "eLnqi": 5368,
      "QTNn": 5369,
      "dWVra": 5370,
      "194": 5371,
      "BbO": 5372,
      "DNb": 5373,
      "EX": 5374,
      "EIq": 5375,
      "EIz": 5376,
      "Gqw": 5377,
      "Jas": 5378,
      "Ke": 5379,
      "ONd": 5380,
      "Oww": 5381,
      "QJw": 5382,
      "VX": 5383,
      "aNs": 5384,
      "aZZ": 5385,
      "aCs": 5386,
      "cls": 5387,
      "lwZ": 5388,
      "oS": 5389,
      "oOZ": 5390,
      "sDO": 5391,
      "JsWe": 5392,
      "NnG": 5393,
      "ssnth": 5394,
      "alb": 5395,
      "nrDu": 5396,
      "sutA": 5397,
      "181": 5398,
      "artr": 5399,
      "AsWt": 5400,
      "mPL": 5401,
      "mPv": 5402,
      "oOR": 5403,
      "rlNZ": 5404,
      "WsNWt": 5405,
      "JlZWh": 5406,
      "WtrNbah": 5407,
      "gbBKM": 5408,
      "AS": 5409,
      "FNe": 5410,
      "NWq": 5411,
      "UP": 5412,
      "YIw": 5413,
      "Zsll": 5414,
      "aH": 5415,
      "ecB": 5416,
      "iOB": 5417,
      "jqq": 5418,
      "nWs": 5419,
      "ylN": 5420,
      "sWh": 5421,
      "WsJe": 5422,
      "ahO": 5423,
      "WNB": 5424,
      "ttWr": 5425,
      "IwK": 5426,
      "ssnOh": 5427,
      "nOwN": 5428,
      "saN": 5429,
      "nBIN": 5430,
      "law": 5431,
      "qsh": 5432,
      "rnDh": 5433,
      "GqqE": 5434,
      "lsNWa": 5435,
      "!NZ": 5436,
      "Ck": 5437,
      "JQt": 5438,
      "Me": 5439,
      "Su": 5440,
      "TCS": 5441,
      "XWv": 5442,
      "bll": 5443,
      "ji": 5444,
      "mdV": 5445,
      "nWw": 5446,
      "rWe": 5447,
      "llc": 5448,
      "lle": 5449,
      "NZtt": 5450,
      "sWwI": 5451,
      "nwR": 5452,
      "bDa": 5453,
      "bDg": 5454,
      "nOwB": 5455,
      "nrQl": 5456,
      "IIn": 5457,
      "Nrt": 5458,
      "Wht": 5459,
      "Nqtt": 5460,
      "DDD": 5461,
      "nBRyI": 5462,
      "bwd": 5463,
      "lNH": 5464,
      "srt": 5465,
      "IgD": 5466,
      "WqNd": 5467,
      "Jta": 5468,
      "cdi": 5469,
      "!Nu": 5470,
      "DqB": 5471,
      "ggbN": 5472,
      "Q!lld": 5473,
      "YRIf": 5474,
      "mdL": 5475,
      "WmQ": 5476,
      "WsWrss": 5477,
      "nrGww": 5478,
      "QhsWdTNZ": 5479,
      "721": 5480,
      "867": 5481,
      "Cny": 5482,
      "FIN": 5483,
      "FFX": 5484,
      "NL": 5485,
      "NaJ": 5486,
      "OVt": 5487,
      "TJr": 5488,
      "UWJ": 5489,
      "VK": 5490,
      "aOw": 5491,
      "det": 5492,
      "ho": 5493,
      "hv": 5494,
      "htr": 5495,
      "hOw": 5496,
      "iGZ": 5497,
      "lCZ": 5498,
      "mre": 5499,
      "nNN": 5500,
      "nCs": 5501,
      "nJw": 5502,
      "rAN": 5503,
      "rnrf": 5504,
      "wJt": 5505,
      "wNds": 5506,
      "yIB": 5507,
      "lJb": 5508,
      "WNW": 5509,
      "qDny": 5510,
      "JqB": 5511,
      "lqTz": 5512,
      "dht": 5513,
      "eNa": 5514,
      "Dbg": 5515,
      "srsQN": 5516,
      "bRi": 5517,
      "DNJW": 5518,
      "qaU": 5519,
      "bgCq": 5520,
      "aVZF": 5521,
      "oBc": 5522,
      "zcb": 5523,
      "YIL": 5524,
      "DVZ": 5525,
      "byWb": 5526,
      "DEIq": 5527,
      "ndZ": 5528,
      "tAts": 5529,
      "wga": 5530,
      "bNNWW": 5531,
      "Ai": 5532,
      "ANs": 5533,
      "Bns": 5534,
      "CwZ": 5535,
      "EG": 5536,
      "Ecw": 5537,
      "FWt": 5538,
      "FDL": 5539,
      "GT": 5540,
      "MBR": 5541,
      "Obx": 5542,
      "VT": 5543,
      "cAa": 5544,
      "gbN": 5545,
      "hE": 5546,
      "nha": 5547,
      "pZp": 5548,
      "vP": 5549,
      "wqE": 5550,
      "zH": 5551,
      "zrz": 5552,
      "wIr": 5553,
      "WeB": 5554,
      "nwY": 5555,
      "sud": 5556,
      "lqh": 5557,
      "dsU": 5558,
      "sag": 5559,
      "IDz": 5560,
      "ldn": 5561,
      "qsV": 5562,
      "QsTWnnNn": 5563,
      "IER": 5564,
      "nJb": 5565,
      "fArt": 5566,
      "EIDD": 5567,
      "ood": 5568,
      "Dlv": 5569,
      "sllw": 5570,
      "LgG": 5571,
      "iGww": 5572,
      "ufch": 5573,
      "WsTWTsu": 5574,
      "lZWesd!": 5575,
      "778": 5576,
      "OtZ": 5577,
      "UNz": 5578,
      "WII": 5579,
      "beV": 5580,
      "eqW": 5581,
      "fNn": 5582,
      "ibR": 5583,
      "mWw": 5584,
      "mWV": 5585,
      "qar": 5586,
      "rVt": 5587,
      "uri": 5588,
      "xqO": 5589,
      "yIZ": 5590,
      "zqW": 5591,
      "nBad": 5592,
      "Wbg": 5593,
      "DOy": 5594,
      "ccn": 5595,
      "mDN": 5596,
      "ANA": 5597,
      "srnOL": 5598,
      "lZe": 5599,
      "wlb": 5600,
      "qas": 5601,
      "WBn": 5602,
      "rrq": 5603,
      "BRIq": 5604,
      "TntZ": 5605,
      "cff": 5606,
      "sln": 5607,
      "shnrNd": 5608,
      "lZWsZd!": 5609,
      "eTAVUnQNsQ": 5610,
      "nIOrDgmB": 5611,
      "35": 5612,
      "Af": 5613,
      "AsW": 5614,
      "AOw": 5615,
      "Fre": 5616,
      "NFn": 5617,
      "QVq": 5618,
      "YJ": 5619,
      "bzh": 5620,
      "clq": 5621,
      "gIs": 5622,
      "hNs": 5623,
      "hOD": 5624,
      "jf": 5625,
      "pP": 5626,
      "qaW": 5627,
      "swJ": 5628,
      "WWD": 5629,
      "trzV": 5630,
      "tts": 5631,
      "wwr": 5632,
      "Wau": 5633,
      "267": 5634,
      "ssnaV": 5635,
      "tNOr": 5636,
      "aWU": 5637,
      "bBF": 5638,
      "rzsQ": 5639,
      "nat": 5640,
      "Wrre": 5641,
      "Zlr": 5642,
      "gIZ": 5643,
      "lZes": 5644,
      "qWg": 5645,
      "ngw": 5646,
      "aVraW": 5647,
      "cdV": 5648,
      "yIqD": 5649,
      "hap": 5650,
      "199": 5651,
      "byW": 5652,
      "sdWh": 5653,
      "qCJ": 5654,
      "dGTd": 5655,
      "Fhu": 5656,
      "!NNe": 5657,
      "nxIgi": 5658,
      "8242": 5659,
      "!L": 5660,
      "982": 5661,
      "All": 5662,
      "CIi": 5663,
      "DnI": 5664,
      "Dzq": 5665,
      "GIw": 5666,
      "KcR": 5667,
      "Md": 5668,
      "OmB": 5669,
      "OEE": 5670,
      "Qdl": 5671,
      "Wah": 5672,
      "Wcc": 5673,
      "Wny": 5674,
      "cnq": 5675,
      "cqE": 5676,
      "eWb": 5677,
      "rmA": 5678,
      "zwa": 5679,
      "NNds": 5680,
      "NZN": 5681,
      "NetN": 5682,
      "WNQ": 5683,
      "qDv": 5684,
      "lsB": 5685,
      "aal": 5686,
      "Iwo": 5687,
      "Nwb": 5688,
      "Nqi": 5689,
      "tsF": 5690,
      "DbbX": 5691,
      "gIg": 5692,
      "OwbO": 5693,
      "DNc": 5694,
      "ngwc": 5695,
      "aVN": 5696,
      "zqfo": 5697,
      "Und": 5698,
      "rrn": 5699,
      "dVt": 5700,
      "tanZ": 5701,
      "haZ": 5702,
      "bCh": 5703,
      "BZw": 5704,
      "f!lld": 5705,
      "OtD": 5706,
      "lCd": 5707,
      "bEv": 5708,
      "vMo": 5709,
      "ehNereNlW": 5710,
      "elH": 5711,
      "zJH": 5712,
      "812": 5713,
      "808": 5714,
      "C@": 5715,
      "Gst": 5716,
      "Ibn": 5717,
      "KDE": 5718,
      "MNf": 5719,
      "OIz": 5720,
      "Rqr": 5721,
      "ToL": 5722,
      "bsq": 5723,
      "glq": 5724,
      "ja": 5725,
      "mIq": 5726,
      "rMB": 5727,
      "wH": 5728,
      "wlW": 5729,
      "NZta": 5730,
      "WsB": 5731,
      "846": 5732,
      "wwJ": 5733,
      "alr": 5734,
      "nwj": 5735,
      "nrY": 5736,
      "mnh": 5737,
      "mnDb": 5738,
      "NbtN": 5739,
      "WdU": 5740,
      "dhl": 5741,
      "Dhy": 5742,
      "cBo": 5743,
      "bgB": 5744,
      "cdv": 5745,
      "OognO": 5746,
      "bwQm": 5747,
      "CDbo": 5748,
      "!tZ": 5749,
      "!ZZ": 5750,
      "AWZ": 5751,
      "Fla": 5752,
      "GsZ": 5753,
      "KJ": 5754,
      "NJN": 5755,
      "N!A": 5756,
      "PqB": 5757,
      "VwZ": 5758,
      "WlW": 5759,
      "cJq": 5760,
      "fEz": 5761,
      "iev": 5762,
      "lnb": 5763,
      "xbD": 5764,
      "yIN": 5765,
      "zcw": 5766,
      "wId": 5767,
      "Nsh": 5768,
      "bnD": 5769,
      "ssCl": 5770,
      "lhp": 5771,
      "NrWs": 5772,
      "DOI": 5773,
      "ccA": 5774,
      "274": 5775,
      "rNpd": 5776,
      "arr": 5777,
      "sZy": 5778,
      "and": 5779,
      "DNo": 5780,
      "!sh": 5781,
      "WVAs": 5782,
      "bbWb": 5783,
      "NQQNh": 5784,
      "WcZ": 5785,
      "qNR": 5786,
      "QhsWdTN": 5787,
      "ehnqU": 5788,
      "!zh": 5789,
      "!rr": 5790,
      "FWs": 5791,
      "IEz": 5792,
      "IdA": 5793,
      "NWsTn": 5794,
      "Qdt": 5795,
      "Tld": 5796,
      "VaD": 5797,
      "XU": 5798,
      "anrf": 5799,
      "ewg": 5800,
      "tIb": 5801,
      "xf": 5802,
      "znz": 5803,
      "Jsne": 5804,
      "llI": 5805,
      "Nsi": 5806,
      "lsXe": 5807,
      "bOEq": 5808,
      "cwm": 5809,
      "mngDb": 5810,
      "DDP": 5811,
      "WOI": 5812,
      "IeR": 5813,
      "Bwb": 5814,
      "ZZn": 5815,
      "qgn": 5816,
      "JwsS": 5817,
      "EEm": 5818,
      "byDm": 5819,
      "bTbq": 5820,
      "mgL": 5821,
      "fov": 5822,
      "DlL": 5823,
      "pdU": 5824,
      "ssnahna": 5825,
      "dVtrr": 5826,
      "CsTeG": 5827,
      "AWJ": 5828,
      "CsW": 5829,
      "DCw": 5830,
      "DoB": 5831,
      "Gy": 5832,
      "GbB": 5833,
      "LqC": 5834,
      "NDN": 5835,
      "N!N": 5836,
      "OIs": 5837,
      "QOw": 5838,
      "VP": 5839,
      "XIm": 5840,
      "bNZWt": 5841,
      "izL": 5842,
      "oY": 5843,
      "pX": 5844,
      "qJW": 5845,
      "uJZ": 5846,
      "xQ": 5847,
      "NNm": 5848,
      "Wta": 5849,
      "Nnal": 5850,
      "qDa": 5851,
      "wwC": 5852,
      "WZN": 5853,
      "Wec": 5854,
      "bOQs": 5855,
      "bDww": 5856,
      "tWD": 5857,
      "cwW": 5858,
      "lhS": 5859,
      "ncy": 5860,
      "Bwm": 5861,
      "srnOV": 5862,
      "6482": 5863,
      "bxi": 5864,
      "WnnB": 5865,
      "eXA": 5866,
      "WtZWw": 5867,
      "bwfm": 5868,
      "rps": 5869,
      "UJNXJ": 5870,
      "a!n": 5871,
      "QNVNr": 5872,
      "!zv": 5873,
      "CEw": 5874,
      "FlA": 5875,
      "McQ": 5876,
      "MPi": 5877,
      "Otw": 5878,
      "RDB": 5879,
      "TWnnc": 5880,
      "UesQ": 5881,
      "XV": 5882,
      "Xqu": 5883,
      "daC": 5884,
      "fdl": 5885,
      "hY": 5886,
      "iIz": 5887,
      "ieL": 5888,
      "jO": 5889,
      "jn": 5890,
      "mqU": 5891,
      "uRNn": 5892,
      "NNfS": 5893,
      "llwW": 5894,
      "ren": 5895,
      "NeuA": 5896,
      "NdW": 5897,
      "nIgc": 5898,
      "tZNS": 5899
    },
    "merges": [
      "N N",
      "2 2",
      "J s",
      "W W",
      "2 4",
      "l l",
      "W t",
      "N Z",
      "N n",
      "s W",
      "W s",
      "r e",
      "w I",
      "N e",
      "l J",
      "a h",
      "N s",
      "N d",
      "2 1",
      "t r",
      "W N",
      "q D",
      "8 4",
      "n Z",
      "t t",
      "l s",
      "a a",
      "w w",
      "W Z",
      "I w",
      "1 1",
      "n I",
      "t Z",
      "b n",
      "W e",
      "W a",
      "2 6",
      "8 2",
      "N w",
      "s s",
      "4 4",
      "a l",
      "b O",
      "t N",
      "n w",
      "b D",
      "n O",
      "t W",
      "a W",
      "4 2",
      "n r",
      "I q",
      "c w",
      "I I",
      "l h",
      "J q",
      "N r",
      "W h",
      "b c",
      "s u",
      "n N",
      "l q",
      "6 2",
      "l W",
      "C q",
      "b B",
      "d s",
      "1 2",
      "N q",
      "m n",
      "D D",
      "r z",
      "N b",
      "O O",
      "e h",
      "I s",
      "w Z",
      "I z",
      "n a",
      "l V",
      "s a",
      "7 8",
      "n B",
      "W d",
      "W O",
      "W b",
      "d h",
      "D O",
      "c c",
      "t s",
      "n q",
      "W r",
      "n c",
      "e N",
      "m D",
      "a t",
      "E q",
      "1 6",
      "2 7",
      "n t",
      "J N",
      "Z l",
      "b w",
      "1 8",
      "A N",
      "r N",
      "I e",
      "B w",
      "e T",
      "a N",
      "l N",
      "q O",
      "V s",
      "T e",
      "D b",
      "4 1",
      "W w",
      "a r",
      "J Z",
      "N z",
      "l r",
      "s r",
      "q q",
      "l w",
      "I B",
      "s Z",
      "a n",
      "6 4",
      "g I",
      "s t",
      "O w",
      "B B",
      "l Z",
      "a J",
      "b R",
      "I D",
      "c N",
      "J W",
      "d r",
      "t e",
      "m B",
      "l a",
      "Z Z",
      "W D",
      "6 8",
      "z B",
      "D N",
      "Q N",
      "b N",
      "I Z",
      "b a",
      "D h",
      "q W",
      "Z Q",
      "c B",
      "6 24",
      "q g",
      "Z d",
      "w l",
      "s q",
      "! s",
      "N l",
      "D c",
      "W V",
      "b b",
      "t w",
      "q a",
      "N Q",
      "f c",
      "s S",
      "C w",
      "f B",
      "I g",
      "n g",
      "n s",
      "J r",
      "6 1",
      "b g",
      "D w",
      "O N",
      "W q",
      "D B",
      "I N",
      "C s",
      "a V",
      "J e",
      "J t",
      "n U",
      "A a",
      "l t",
      "c d",
      "z q",
      "1 4",
      "l d",
      "z h",
      "q t",
      "z N",
      "w Q",
      "D g",
      "I c",
      "J w",
      "I O",
      "U n",
      "W c",
      "e t",
      "q s",
      "Z N",
      "D a",
      "o B",
      "! N",
      "4 8",
      "D q",
      "A t",
      "G d",
      "z c",
      "w N",
      "E E",
      "e s",
      "f N",
      "W u",
      "m O",
      "8 1",
      "F n",
      "7 2",
      "W B",
      "r r",
      "h s",
      "b m",
      "l A",
      "O c",
      "n l",
      "Q Z",
      "q B",
      "O B",
      "S W",
      "d V",
      "e W",
      "O D",
      "g g",
      "o c",
      "t a",
      "e V",
      "m R",
      "Y I",
      "b Z",
      "y I",
      "D v",
      "O g",
      "B b",
      "h a",
      "B N",
      "G I",
      "I r",
      "w d",
      "q N",
      "n n",
      "7 1",
      "w J",
      "m z",
      "l e",
      "q r",
      "E w",
      "Z J",
      "D V",
      "w f",
      "I i",
      "O q",
      "n i",
      "N c",
      "O r",
      "re h",
      "W z",
      "N f",
      "! Q",
      "I f",
      "I b",
      "N t",
      "E z",
      "D t",
      "q i",
      "a Z",
      "N F",
      "N u",
      "W g",
      "9 4",
      "h t",
      "c R",
      "O Z",
      "N a",
      "g D",
      "w B",
      "m c",
      "6 6",
      "r t",
      "I P",
      "a D",
      "z v",
      "O o",
      "z L",
      "r n",
      "B d",
      "1 9",
      "r a",
      "c Z",
      "q E",
      "V Z",
      "s n",
      "b C",
      "7 6",
      "B R",
      "A s",
      "b y",
      "t n",
      "O W",
      "T n",
      "9 2",
      "U l",
      "q w",
      "B c",
      "r G",
      "l y",
      "a w",
      "8 7",
      "A A",
      "D Z",
      "J J",
      "U N",
      "U e",
      "q f",
      "B Z",
      "n ah",
      "V t",
      "b s",
      "c s",
      "a e",
      "b t",
      "n e",
      "f t",
      "V S",
      "e L",
      "I m",
      "b d",
      "w z",
      "! A",
      "Ne re",
      "q Z",
      "s d",
      "w e",
      "c f",
      "m y",
      "C Z",
      "G R",
      "r d",
      "D L",
      "W U",
      "2 8",
      "W J",
      "e v",
      "9 9",
      "N R",
      "D E",
      "m P",
      "b T",
      "Q B",
      "r s",
      "D s",
      "O E",
      "q C",
      "n W",
      "4 6",
      "b A",
      "a U",
      "O s",
      "w E",
      "D W",
      "Q s",
      "B z",
      "f !",
      "h e",
      "n b",
      "6 7",
      "O t",
      "m i",
      "w s",
      "n z",
      "b x",
      "g i",
      "c q",
      "r Z",
      "I Q",
      "O !",
      "n d",
      "w C",
      "2 9",
      "b q",
      "A B",
      "U a",
      "W l",
      "w c",
      "T N",
      "4 7",
      "I E",
      "Z Wt",
      "624 1",
      "t A",
      "T d",
      "n J",
      "c y",
      "w a",
      "O x",
      "n y",
      "N J",
      "Z p",
      "i B",
      "N B",
      "w g",
      "l U",
      "WW Z",
      "R E",
      "l C",
      "h q",
      "N !",
      "m g",
      "s U",
      "v g",
      "l I",
      "e a",
      "c Q",
      "v O",
      "Z C",
      "z g",
      "E s",
      "N m",
      "q u",
      "U t",
      "s Q",
      "V q",
      "F a",
      "I W",
      "D r",
      "F l",
      "O C",
      "2 0",
      "b X",
      "b W",
      "t !",
      "N A",
      "f A",
      "b o",
      "i c",
      "f E",
      "a s",
      "! q",
      "! e",
      "Z u",
      "b E",
      "w q",
      "W Nn",
      "Q c",
      "b l",
      "n h",
      "Q !",
      "m I",
      "x B",
      "O h",
      "7 4",
      "t U",
      "ls Te",
      "C N",
      "r U",
      "E D",
      "s J",
      "q c",
      "Z e",
      "Nd h",
      "O y",
      "m X",
      "C v",
      "s l",
      "t J",
      "SW reh",
      "A c",
      "V e",
      "F X",
      "b I",
      "Q A",
      "f o",
      "w y",
      "T J",
      "! !",
      "c o",
      "D d",
      "g r",
      "v B",
      "q P",
      "D o",
      "w R",
      "T a",
      "n G",
      "E i",
      "Z W",
      "z a",
      "Z I",
      "Q l",
      "C B",
      "O I",
      "f x",
      "O l",
      "O i",
      "D i",
      "r B",
      "N W",
      "t h",
      "g w",
      "z V",
      "t u",
      "Z y",
      "eT A",
      "m T",
      "e g",
      "O J",
      "t S",
      "g W",
      "z t",
      "q Q",
      "d A",
      "N U",
      "22 2",
      "N S",
      "F T",
      "I h",
      "a C",
      "d G",
      "m K",
      "s D",
      "a A",
      "d l",
      "R B",
      "W n",
      "m Z",
      "ll Z",
      "t q",
      "g E",
      "I F",
      "d !",
      "NN Z",
      "a B",
      "m w",
      "I y",
      "i e",
      "lJ Z",
      "D P",
      "6 9",
      "O V",
      "l c",
      "D C",
      "D R",
      "n K",
      "w F",
      "r c",
      "z O",
      "o x",
      "0 2",
      "U B",
      "s w",
      "a c",
      "o L",
      "C C",
      "I x",
      "K B",
      "N p",
      "e c",
      "24 1",
      "R c",
      "l B",
      "A NN",
      "b P",
      "I V",
      "W v",
      "8 6",
      "U h",
      "Y R",
      "g O",
      "d Z",
      "U J",
      "O G",
      "s N",
      "l n",
      "r A",
      "g B",
      "G h",
      "G Z",
      "n D",
      "v M",
      "eh Nere",
      "a Js",
      "m N",
      "F J",
      "r tN",
      "E I",
      "d J",
      "1 7",
      "O A",
      "C J",
      "w P",
      "T t",
      "F R",
      "o o",
      "w Y",
      "D l",
      "e B",
      "D z",
      "a I",
      "m d",
      "e X",
      "9 1",
      "Q S",
      "! t",
      "e S",
      "e u",
      "ll d",
      "z W",
      "e b",
      "C L",
      "U c",
      "m E",
      "C E",
      "Js Te",
      "g P",
      "q d",
      "O a",
      "We s",
      "C o",
      "i z",
      "M B",
      "D x",
      "y B",
      "Wt Z",
      "0 1",
      "F B",
      "w u",
      "W L",
      "f J",
      "f Z",
      "q J",
      "h N",
      "w n",
      "D m",
      "z T",
      "v S",
      "q l",
      "w b",
      "21 1",
      "D y",
      "q R",
      "p l",
      "a L",
      "9 6",
      "ll t",
      "C W",
      "n m",
      "O v",
      "q U",
      "r u",
      "! B",
      "C c",
      "h B",
      "i i",
      "q x",
      "Y z",
      "n V",
      "Q J",
      "a d",
      "0 0",
      "F y",
      "z X",
      "q y",
      "D J",
      "dr Nn",
      "c u",
      "b !",
      "b J",
      "O P",
      "a u",
      "t l",
      "c E",
      "a v",
      "V N",
      "We J",
      "w W",
      "I l",
      "g d",
      "r S",
      "b bc",
      "I J",
      "I n",
      "t B",
      "f l",
      "nO h",
      "o s",
      "N T",
      "F h",
      "nt u",
      "z s",
      "b i",
      "f s",
      "U U",
      "o g",
      "a q",
      "q S",
      "o O",
      "! Z",
      "8 8",
      "v c",
      "64 8",
      "a O",
      "WN !",
      "C V",
      "C x",
      "w m",
      "4 0",
      "h Z",
      "d t",
      "I R",
      "w r",
      "W m",
      "c A",
      "F N",
      "I A",
      "C h",
      "bw f",
      "sS Ndh",
      "P P",
      "! NN",
      "I t",
      "g h",
      "g c",
      "o q",
      "p d",
      "e NN",
      "F W",
      "S e",
      "n R",
      "F t",
      "I !",
      "L G",
      "F c",
      "g Z",
      "44 8",
      "y b",
      "r !",
      "n x",
      "e J",
      "g q",
      "D !",
      "r O",
      "r l",
      "0 8",
      "C m",
      "n A",
      "d W",
      "E b",
      "Z G",
      "B l",
      "L bn",
      "F O",
      "w t",
      "w G",
      "U V",
      "n NZ",
      "Un ah",
      "B e",
      "q h",
      "r p",
      "s ll",
      "T W",
      "C b",
      "I X",
      "n P",
      "Q h",
      "B y",
      "A T",
      "a p",
      "SWreh Js",
      "f w",
      "i Y",
      "l v",
      "R h",
      "Z R",
      "l b",
      "L g",
      "r R",
      "f S",
      "n Nw",
      "9 0",
      "z b",
      "J a",
      "9 7",
      "eT !",
      "lV S",
      "G Q",
      "g n",
      "u Z",
      "t D",
      "C !",
      "z E",
      "I a",
      "Q w",
      "A e",
      "C i",
      "L M",
      "o y",
      "Z f",
      "u w",
      "J d",
      "g N",
      "l D",
      "n !",
      "R s",
      "Q t",
      "4 9",
      "Z c",
      "m q",
      "A y",
      "Z F",
      "1 82",
      "C r",
      "I o",
      "W !",
      "z D",
      "z w",
      "c !",
      "0 6",
      "m s",
      "nO L",
      "q !",
      "m r",
      "m W",
      "o v",
      "t d",
      "B n",
      "a g",
      "z R",
      "h l",
      "K q",
      "t c",
      "f a",
      "J U",
      "v E",
      "J b",
      "A q",
      "o E",
      "V G",
      "L B",
      "I G",
      "y N",
      "e O",
      "u l",
      "i G",
      "m x",
      "C l",
      "d N",
      "J !",
      "w i",
      "y c",
      "W F",
      "V a",
      "W A",
      "E B",
      "Wt rN",
      "q o",
      "r b",
      "1 3",
      "sW d",
      "Z w",
      "W i",
      "x x",
      "g U",
      "bw Q",
      "NZ Wt",
      "E c",
      "I H",
      "nZ G",
      "r q",
      "bD v",
      "T l",
      "Z B",
      "Ws N",
      "! a",
      "c b",
      "y f",
      "T z",
      "m U",
      "L mn",
      "l L",
      "s lJ",
      "p N",
      "W NN",
      "y y",
      "c O",
      "l G",
      "P g",
      "1 0",
      "r Q",
      "J A",
      "b f",
      "l O",
      "o N",
      "I C",
      "O L",
      "n v",
      "F g",
      "l !",
      "p h",
      "N WW",
      "i n",
      "rz h",
      "22 1",
      "V O",
      "W P",
      "w D",
      "d e",
      "8 0",
      "ll N",
      "K c",
      "Ws Tn",
      "f C",
      "P B",
      "g R",
      "V w",
      "G s",
      "X N",
      "z x",
      "g a",
      "l p",
      "Z n",
      "s f",
      "9 8",
      "i R",
      "M c",
      "v bn",
      "O b",
      "F D",
      "N y",
      "q n",
      "F P",
      "g t",
      "O R",
      "s tr",
      "e l",
      "m A",
      "J z",
      "r w",
      "I U",
      "sr nah",
      "d U",
      "b h",
      "lJ t",
      "m a",
      "d Wh",
      "t V",
      "g z",
      "J l",
      "J B",
      "g e",
      "y E",
      "d p",
      "m f",
      "7 7",
      "9 3",
      "J F",
      "q A",
      "v s",
      "Js W",
      "T S",
      "I L",
      "X B",
      "Q x",
      "r f",
      "s Wt",
      "u fc",
      "Z P",
      "h bn",
      "QN h",
      "E P",
      "N G",
      "I K",
      "Z t",
      "a G",
      "q G",
      "y w",
      "O n",
      "A V",
      "c i",
      "g K",
      "b NN",
      "y Y",
      "B s",
      "W I",
      "d d",
      "g x",
      "A h",
      "O e",
      "W R",
      "r F",
      "E e",
      "E R",
      "A l",
      "S s",
      "V B",
      "u a",
      "w Wt",
      "r h",
      "w p",
      "Y e",
      "Z T",
      "s Unah",
      "I d",
      "c J",
      "c l",
      "w K",
      "tr tr",
      "al at",
      "R N",
      "c x",
      "s M",
      "na V",
      "5 4",
      "w !",
      "Q Vs",
      "Ns Q",
      "nt h",
      "c e",
      "re N",
      "m wf",
      "bb X",
      "fB L",
      "U z",
      "s F",
      "c C",
      "A n",
      "R x",
      "ah t",
      "q I",
      "U r",
      "l T",
      "Q r",
      "c g",
      "s h",
      "WW w",
      "O z",
      "x e",
      "nr f",
      "t z",
      "D U",
      "i N",
      "s e",
      "B m",
      "y z",
      "F d",
      "U JN",
      "! b",
      "B i",
      "R a",
      "0 9",
      "h Fn",
      "t i",
      "A Nd",
      "nZ Js",
      "I qD",
      "D u",
      "T su",
      "u e",
      "y l",
      "g l",
      "s p",
      "8 9",
      "B E",
      "c z",
      "A O",
      "I v",
      "V W",
      "X e",
      "nO v",
      "L E",
      "C t",
      "Q q",
      "X x",
      "a i",
      "L Y",
      "l R",
      "T F",
      "c n",
      "22 4",
      "bD h",
      "Z Wa",
      "d a",
      "r m",
      "B K",
      "A J",
      "y Z",
      "g o",
      "W C",
      "L YI",
      "b F",
      "D G",
      "Y E",
      "U G",
      "C R",
      "X J",
      "s !",
      "a !",
      "O d",
      "X d",
      "g y",
      "n p",
      "Q o",
      "Nd s",
      "Q e",
      "b K",
      "G qq",
      "1 84",
      "s i",
      "r i",
      "D A",
      "s tt",
      "t I",
      "0 4",
      "P i",
      "g s",
      "r J",
      "v N",
      "a z",
      "g A",
      "l sW",
      "C O",
      "v G",
      "n S",
      "Ne rz",
      "g !",
      "p J",
      "Nn Z",
      "a y",
      "r W",
      "M D",
      "6 0",
      "I Y",
      "eh Js",
      "! z",
      "F C",
      "ll w",
      "h tW",
      "R D",
      "qD Iw",
      "3 4",
      "y J",
      "E x",
      "Q Q",
      "l z",
      "p a",
      "n o",
      "N X",
      "O S",
      "WW ZN",
      "V u",
      "w x",
      "b r",
      "h G",
      "n F",
      "v t",
      "c r",
      "y m",
      "y e",
      "n tZ",
      "G E",
      "R q",
      "Z a",
      "rn Q",
      "P z",
      "i x",
      "g C",
      "m t",
      "y Q",
      "3 2",
      "O U",
      "4 82",
      "V M",
      "l F",
      "v q",
      "C e",
      "y W",
      "K X",
      "U d",
      "B A",
      "D e",
      "B J",
      "o !",
      "C z",
      "p Z",
      "v mn",
      "b Q",
      "f O",
      "3 9",
      "B r",
      "C D",
      "T NZ",
      "z f",
      "2 5",
      "R w",
      "b S",
      "P O",
      "n Y",
      "K x",
      "R O",
      "tr n",
      "G N",
      "y F",
      "24 8",
      "b U",
      "l i",
      "nU Wu",
      "L e",
      "T A",
      "i E",
      "u f",
      "m h",
      "n L",
      "wI B",
      "b bB",
      "tN tr",
      "d q",
      "S l",
      "m m",
      "n cw",
      "s C",
      "c t",
      "d Q",
      "h mn",
      "o V",
      "w O",
      "24 82",
      "Nd tW",
      "bm X",
      "p W",
      "NZ Z",
      "bb T",
      "m l",
      "u t",
      "B F",
      "N O",
      "N D",
      "y x",
      "nO V",
      "C A",
      "T !",
      "Z z",
      "nr Q",
      "R t",
      "E m",
      "y !",
      "L z",
      "w U",
      "L S",
      "a P",
      "s O",
      "C I",
      "g Y",
      "S J",
      "q M",
      "F A",
      "l ds",
      "s B",
      "84 4",
      "bn c",
      "Z E",
      "ss h",
      "c a",
      "V sW",
      "p t",
      "T u",
      "W K",
      "ld sW",
      "G b",
      "a ls",
      "X n",
      "Z b",
      "Z X",
      "x q",
      "P q",
      "U O",
      "o A",
      "4 3",
      "m J",
      "dh tr",
      "v w",
      "x c",
      "s I",
      "h A",
      "Ws Ta",
      "G f",
      "z J",
      "w X",
      "r V",
      "B I",
      "Y qq",
      "d b",
      "h g",
      "! c",
      "L O",
      "a S",
      "y D",
      "B C",
      "R o",
      "e F",
      "bZ f",
      "e Z",
      "w A",
      "7 5",
      "R z",
      "s y",
      "Ws Tt",
      "W S",
      "g J",
      "a Jq",
      "t O",
      "U A",
      "Z D",
      "Nd aJ",
      "We l",
      "l NZ",
      "21 2",
      "R V",
      "T ll",
      "Y d",
      "E y",
      "h J",
      "K N",
      "u rU",
      "Nn tu",
      "a T",
      "ll a",
      "na L",
      "r I",
      "v Z",
      "L i",
      "f Q",
      "W o",
      "R b",
      "W sW",
      "ss lJ",
      "V A",
      "X a",
      "u Q",
      "B q",
      "n ds",
      "y G",
      "I T",
      "c G",
      "v x",
      "s sW",
      "C S",
      "P D",
      "f q",
      "Zd !",
      "rG s",
      "e drNn",
      "o w",
      "e m",
      "! r",
      "b ah",
      "o t",
      "u b",
      "2 3",
      "h O",
      "lW @",
      "s g",
      "Q F",
      "e q",
      "WN A",
      "N I",
      "Q a",
      "p U",
      "z P",
      "B !",
      "fB h",
      "V g",
      "w T",
      "J S",
      "J NZ",
      "o e",
      "eV Nere",
      "P h",
      "e p",
      "c T",
      "F U",
      "b u",
      "x y",
      "C d",
      "C y",
      "X c",
      "aa W",
      "Y V",
      "e re",
      "lJ d",
      "J I",
      "m Q",
      "r Nb",
      "wI P",
      "B G",
      "o h",
      "J h",
      "i m",
      "c X",
      "P t",
      "an nw",
      "N K",
      "r M",
      "bO v",
      "E K",
      "Z m",
      "C F",
      "z i",
      "P c",
      "V m",
      "z m",
      "lJ w",
      "M W",
      "f i",
      "! d",
      "C g",
      "W NZ",
      "e w",
      "G x",
      "h aW",
      "Y q",
      "NQ WNn",
      "G su",
      "g v",
      "q aa",
      "u r",
      "x N",
      "Z q",
      "Z s",
      "Nd aW",
      "D I",
      "J m",
      "T T",
      "1 44",
      "E o",
      "l m",
      "p r",
      "w nl",
      "ah a",
      "! F",
      "7 0",
      "d Nr",
      "ss ll",
      "A g",
      "6 68",
      "l g",
      "bD L",
      "U tN",
      "R g",
      "re V",
      "eL nq",
      "p s",
      "L s",
      "h S",
      "G e",
      "B u",
      "s aa",
      "sW N",
      "al aa",
      "D K",
      "u A",
      "NZ l",
      "na u",
      "J V",
      "E L",
      "F Z",
      "U W",
      "e d",
      "E O",
      "G l",
      "T I",
      "X z",
      "nr Wu",
      "G qs",
      "w wI",
      "C f",
      "T Z",
      "h W",
      "fc L",
      "V tW",
      "n j",
      "QN V",
      "B a",
      "S r",
      "e D",
      "v a",
      "B x",
      "lZ Ws",
      "Q b",
      "!A NN",
      "fB v",
      "R !",
      "JW @",
      "TJ S",
      "A Q",
      "I u",
      "J O",
      "R r",
      "i r",
      "n C",
      "V r",
      "z Z",
      "J c",
      "K M",
      "u N",
      "a K",
      "Q C",
      "w OO",
      "dh ll",
      "B O",
      "R Z",
      "u d",
      "T b",
      "b IB",
      "z d",
      "Wd r",
      "A b",
      "E g",
      "G q",
      "A d",
      "F nZ",
      "t Q",
      "Ns Z",
      "l S",
      "na v",
      "J n",
      "Q V",
      "f R",
      "m o",
      "y i",
      "C H",
      "V bn",
      "e e",
      "h c",
      "y o",
      "11 1",
      "E Z",
      "X !",
      "Y i",
      "A !",
      "D Nn",
      "t g",
      "ss nah",
      "P Z",
      "V d",
      "C a",
      "K s",
      "b ZQ",
      "e !",
      "tt Z",
      "x z",
      "x m",
      "NN N",
      "s G",
      "lJ N",
      "nI gi",
      "K O",
      "bO L",
      "ds N",
      "Wb QN",
      "x g",
      "h w",
      "Wt w",
      "m wQ",
      "C P",
      "R G",
      "q z",
      "w o",
      "i o",
      "P r",
      "NN WW",
      "qD M",
      "bO h",
      "A r",
      "f f",
      "j d",
      "B o",
      "g L",
      "U i",
      "S N",
      "T s",
      "x O",
      "W G",
      "nr G",
      "mn c",
      "QZ Wt",
      "zL nq",
      "T x",
      "B g",
      "K f",
      "mz O",
      "E v",
      "f M",
      "y A",
      "Ns t",
      "Wr h",
      "nI g",
      "L q",
      "V z",
      "V c",
      "r aN",
      "d v",
      "NZ Wa",
      "P N",
      "U R",
      "bD V",
      "B U",
      "P s",
      "d o",
      "l o",
      "r K",
      "g Db",
      "v A",
      "rz N",
      "S A",
      "l Js",
      "mz g",
      "! O",
      "d x",
      "e G",
      "S Z",
      "i K",
      "! m",
      "X R",
      "i b",
      "s A",
      "eT! Nr",
      "R v",
      "X t",
      "x s",
      "f b",
      "fN h",
      "P w",
      "8 24",
      "p V",
      "z u",
      "NN e",
      "bn B",
      "i Q",
      "n Q",
      "tZ Z",
      "Ne N",
      "P x",
      "L m",
      "t WZ",
      "mD v",
      "fc v",
      "eTA V",
      "S h",
      "d F",
      "mn B",
      "l H",
      "t F",
      "C qD",
      "3 0",
      "K o",
      "U p",
      "l X",
      "r T",
      "y s",
      "D Ww",
      "N Js",
      "26 1",
      "Ie G",
      "e U",
      "i O",
      "j R",
      "A F",
      "F q",
      "f g",
      "h m",
      "b Nb",
      "z !",
      "a F",
      "t NZ",
      "L c",
      "f h",
      "Q W",
      "n Dv",
      "G w",
      "N Wd",
      "X I",
      "a R",
      "bc N",
      "We N",
      "ls N",
      "Wh rtN",
      "K w",
      "Z h",
      "b !Q",
      "g Iw",
      "i I",
      "e NNZ",
      "X E",
      "X m",
      "i U",
      "c m",
      "3 3",
      "R L",
      "D M",
      "G B",
      "P I",
      "A W",
      "Q T",
      "S S",
      "d z",
      "G W",
      "a NZ",
      "d L",
      "D NZ",
      "e I",
      "Un Q",
      "h y",
      "7 18",
      "N C",
      "P V",
      "x E",
      "G z",
      "P v",
      "nN YV",
      "P E",
      "e n",
      "o b",
      "3 7",
      "B t",
      "T m",
      "g V",
      "Ws N!",
      "l WN",
      "u y",
      "nZJs sS",
      "8 22",
      "B Y",
      "D n",
      "P m",
      "X A",
      "Js N",
      "Nd al",
      "O M",
      "o Z",
      "s b",
      "z F",
      "84 222",
      "U y",
      "s c",
      "l NN",
      "J NN",
      "al VS",
      "P a",
      "o a",
      "x i",
      "Gd G",
      "! w",
      "Z U",
      "Qh sWd",
      "Ne NN",
      "q V",
      "u B",
      "nI Or",
      "W p",
      "i d",
      "t nI",
      "Iw E",
      "G V",
      "r bA",
      "N h",
      "s Ns",
      "F ah",
      "Z !",
      "c V",
      "E W",
      "t b",
      "mZ f",
      "n f",
      "x b",
      "an nZ",
      "B Q",
      "Q U",
      "L y",
      "O Wb",
      "P o",
      "mD h",
      "Z r",
      "u J",
      "J H",
      "m IB",
      "1 5",
      "8 21",
      "Y w",
      "G sq",
      "M x",
      "h U",
      "t K",
      "Nn r",
      "al q",
      "D wI",
      "J lZ",
      "c F",
      "h F",
      "s V",
      "v !",
      "z o",
      "eTA Nr",
      "c I",
      "G r",
      "D X",
      "Q d",
      "r o",
      "y K",
      "eh nq",
      "dV tr",
      "sd !",
      "R i",
      "T B",
      "WW tr",
      "N Wes",
      "c U",
      "y V",
      "f d",
      "w WO",
      "nZ p",
      "D gI",
      "b V",
      "n M",
      "e K",
      "m C",
      "v d",
      "X l",
      "q L",
      "q tt",
      "zq f",
      "Qc h",
      "O m",
      "NN f",
      "mD L",
      "S z",
      "u rr",
      "i g",
      "44 4",
      "SW rzh",
      "X w",
      "b tZ",
      "o I",
      "Se re",
      "t p",
      "z I",
      "F Q",
      "Y DD",
      "NN A",
      "Nd V",
      "b su",
      "w j",
      "N g",
      "r g",
      "U F",
      "e R",
      "y O",
      "llZ Ne",
      "h z",
      "m F",
      "w DO",
      "L t",
      "P d",
      "V sa",
      "J D",
      "R W",
      "X b",
      "nt V",
      "7 9",
      "nw G",
      "S D",
      "Z j",
      "ll Ir",
      "dh ar",
      "I p",
      "R A",
      "Z A",
      "a b",
      "21 8",
      "Wh lV",
      "Ig r",
      "ON tr",
      "M P",
      "U C",
      "d sW",
      "o Q",
      "s nl",
      "X JN",
      "m !",
      "u trn",
      "5 2",
      "d WV",
      "g Wb",
      "n E",
      "X F",
      "r ss",
      "sW Z",
      "4 24",
      "Ws TW",
      "B f",
      "T c",
      "o z",
      "t nw",
      "aV Z",
      "o f",
      "s QN",
      "t lVS",
      "Js Nn",
      "lh Te",
      "J i",
      "O u",
      "S Q",
      "T lJ",
      "Y f",
      "w S",
      "y q",
      "D Nw",
      "O f",
      "P R",
      "x w",
      "z C",
      "edrNn l",
      "b mB",
      "rz qf",
      "C Q",
      "W Q",
      "W T",
      "j I",
      "5 1",
      "m u",
      "re sQ",
      "E r",
      "G m",
      "x I",
      "ANN eNN",
      "E C",
      "G !",
      "w Wa",
      "E H",
      "N i",
      "U aN",
      "X u",
      "G A",
      "O Db",
      "P L",
      "Q hs",
      "c Eq",
      "p R",
      "q b",
      "v y",
      "llZ Wh",
      "4 5",
      "N o",
      "e M",
      "U !",
      "X S",
      "q OO",
      "s WW",
      "ww Z",
      "F I",
      "tA n",
      "V b",
      "V mn",
      "e r",
      "p p",
      "Ns ll",
      "lN @",
      "W E",
      "b Ic",
      "bB B",
      "V F",
      "d S",
      "x o",
      "Js n",
      "ls Nn",
      "q ll",
      "nw Js",
      "U Z",
      "c L",
      "r aW",
      "16 4",
      "lq Te",
      "Wb Q",
      "sn ft",
      "QB L",
      "t C",
      "y R",
      "B h",
      "D Iw",
      "F p",
      "a X",
      "Iq W",
      "NQ W",
      "A tZ",
      "T o",
      "z r",
      "es Q",
      "! f",
      "J JZ",
      "T q",
      "Y P",
      "v o",
      "z z",
      "T r",
      "n Js",
      "ww d",
      "bc c",
      "A p",
      "D F",
      "J Q",
      "rz V",
      "lJZ Ne",
      "! g",
      "K Q",
      "T ru",
      "i C",
      "Nq tS",
      "fc h",
      "h tw",
      "o qg",
      "ss J",
      "6 3",
      "WW s",
      "E qD",
      "L w",
      "X q",
      "r NZ",
      "NdtW SWrehJs",
      "U g",
      "W x",
      "y C",
      "e lJ",
      "WN w",
      "27 1",
      "zv nq",
      "a tZ",
      "j V",
      "q v",
      "aA n",
      "a E",
      "We q",
      "h tZ",
      "p w",
      "q F",
      "q Wt",
      "y P",
      "bc B",
      "S c",
      "Iq y",
      "sa r",
      "I EE",
      "J o",
      "O Q",
      "S f",
      "a WZ",
      "r x",
      "s P",
      "22 6",
      "sW Iw",
      "R Nn",
      "c v",
      "i w",
      "n sr",
      "J @",
      "S U",
      "X W",
      "i h",
      "m NN",
      "r Ne",
      "WW d",
      "Iw l",
      "eTA h",
      "O K",
      "w ll",
      "wI N",
      "Nw Z",
      "Ig i",
      "ng h",
      "mO v",
      "R f",
      "e C",
      "nn y",
      "F nN",
      "c h",
      "o d",
      "Is y",
      "E ny",
      "G t",
      "e x",
      "! U",
      "B T",
      "Nd Q",
      "nI Oi",
      "ng L",
      "! K",
      "! W",
      "6 5",
      "G ww",
      "eh Nerz",
      "B X",
      "T R",
      "t nZ",
      "nI OB",
      "bB i",
      "GI Lbn",
      "G D",
      "L Z",
      "P W",
      "X o",
      "c D",
      "v u",
      "Nw Wt",
      "b Iz",
      "i A",
      "q m",
      "s m",
      "w nJ",
      "! n",
      "V Nr",
      "T K",
      "h WZ",
      "! S",
      "L N",
      "V Fn",
      "d i",
      "o m",
      "p n",
      "Wh As",
      "! V",
      "W lh",
      "Nn w",
      "Ns tS",
      "bn N",
      "1 21",
      "y n",
      "6 41",
      "nI B",
      "U w",
      "r ON",
      "x cu",
      "aa nZ",
      "rn f",
      "L a",
      "r y",
      "x F",
      "lZ We",
      "Nf l",
      "Q E",
      "h p",
      "Je s",
      "JsTe p",
      "R F",
      "z l",
      "lJ a",
      "AN Q",
      "K G",
      "L Fn",
      "M z",
      "O X",
      "ls sS",
      "Wd rN",
      "a Aa",
      "i f",
      "z NN",
      "I wI",
      "Q WW",
      "lA A",
      "K E",
      "Q m",
      "b ds",
      "y a",
      "Js Z",
      "re qf",
      "U m",
      "b Ie",
      "l K",
      "o n",
      "1 22",
      "M v",
      "O cw",
      "U T",
      "Y B",
      "D f",
      "h ll",
      "sSNdh ll",
      "8 5",
      "h r",
      "NZ p",
      "lsTe p",
      "! x",
      "J C",
      "NN Q",
      "bB b",
      "B p",
      "K D",
      "K g",
      "R m",
      "K Y",
      "e A",
      "s z",
      "g b",
      "b Wh",
      "e Q",
      "h d",
      "t P",
      "JN @",
      "U L",
      "U b",
      "mD gI",
      "NQ Q",
      "M L",
      "N Gh",
      "V NN",
      "X C",
      "e Ne",
      "N V",
      "i a",
      "y Iw",
      "p qq",
      "NN ss",
      "JZ Ws",
      "F s",
      "W y",
      "bB N",
      "D S",
      "J ts",
      "a WW",
      "Ns Zd",
      "bO c",
      "lh N",
      "Jq Te",
      "dh lJ",
      "QB h",
      "rnQ NsQ",
      "F r",
      "l WZ",
      "t o",
      "DO w",
      "G wZ",
      "t WW",
      "v m",
      "DD w",
      "F f",
      "L x",
      "N x",
      "wd !",
      "ni f",
      "A U",
      "I j",
      "Q p",
      "X oL",
      "e Ue",
      "Y r",
      "Z O",
      "i V",
      "E a",
      "s fN",
      "Nn l",
      "WO w",
      "3 6",
      "J x",
      "m e",
      "m nN",
      "y g",
      "y u",
      "bn b",
      "! l",
      "I sW",
      "d w",
      "s Jt",
      "s Nt",
      "t f",
      "C M",
      "F ZQ",
      "p e",
      "A m",
      "S lW",
      "b qi",
      "c W",
      "ww w",
      "48 211",
      "S B",
      "U eN",
      "W Iw",
      "h h",
      "t R",
      "t Wt",
      "ss lW",
      "nO u",
      "nt w",
      "AN f",
      "bR Nw",
      "! o",
      "5 6",
      "E F",
      "Y Z",
      "d K",
      "nr p",
      "Cq n",
      "P J",
      "z n",
      "Nf J",
      "S w",
      "z G",
      "Wt s",
      "O Js",
      "q K",
      "x V",
      "Nz rz",
      "WD w",
      "4 71",
      "j e",
      "16 8",
      "qW Iw",
      "P K",
      "sW r",
      "rz v",
      "Dc M",
      "Wc !",
      "GI hbn",
      "V p",
      "a nZ",
      "sa d",
      "L Iz",
      "M N",
      "P !",
      "c S",
      "f F",
      "s R",
      "Vs Z",
      "D lh",
      "l x",
      "t x",
      "WZ n",
      "oB u",
      "tA tZ",
      "C Wb",
      "J u",
      "U s",
      "W wI",
      "b z",
      "q wI",
      "q Ns",
      "ss d",
      "wN S",
      "dWh rtN",
      "y d",
      "al tt",
      "O T",
      "i zq",
      "SWreh ls",
      "a o",
      "f m",
      "n ft",
      "v e",
      "qO g",
      "D NN",
      "Zd A",
      "oc u",
      "21 22",
      "eh ls",
      "Is I",
      "Gd If",
      "I DD",
      "b WZ",
      "i !",
      "F w",
      "J G",
      "i Z",
      "u g",
      "J ld",
      "e dr",
      "o X",
      "dh llN",
      "4 21",
      "u W",
      "wI D",
      "bO V",
      "st S",
      "ut Un",
      "3 1",
      "E n",
      "Y Y",
      "B D",
      "G c",
      "W Ne",
      "j z",
      "mD V",
      "! T",
      "L b",
      "X T",
      "Z g",
      "l ts",
      "o Nu",
      "q X",
      "t m",
      "ev nq",
      "Z WO",
      "i J",
      "NN b",
      "sn J",
      "! J",
      "N ls",
      "U v",
      "x d",
      "E d",
      "b v",
      "m qi",
      "q lt",
      "u U",
      "x L",
      "nI O",
      "J K",
      "Z S",
      "v Iz",
      "sq h",
      "Q rr",
      "NZ J",
      "ID i",
      "ba L",
      "N Wt",
      "O Y",
      "S C",
      "T w",
      "W lVS",
      "Q I",
      "v Ie",
      "sq lJ",
      "A X",
      "x qg",
      "z S",
      "sa U",
      "4 18",
      "7 11",
      "A Z",
      "F i",
      "NdaW SWrehJs",
      "W Js",
      "X Z",
      "y j",
      "D T",
      "h V",
      "h ts",
      "q lJ",
      "wI g",
      "! p",
      "6 11",
      "E V",
      "S !",
      "S a",
      "S we",
      "Z nr",
      "Z nl",
      "f V",
      "h b",
      "Wt r",
      "tW SWrehJs",
      "bR q",
      "4 16",
      "P b",
      "T U",
      "ah aaW",
      "aa nw",
      "Is D",
      "N @",
      "Ns l",
      "aV S",
      "RE x",
      "F V",
      "w gg",
      "Ns aa",
      "lw sS",
      "B V",
      "F Dh",
      "P e",
      "t T",
      "x A",
      "B v",
      "K a",
      "V aW",
      "a tW",
      "o i",
      "bc b",
      "bc i",
      "F WZ",
      "K h",
      "N lJ",
      "n lw",
      "s E",
      "y t",
      "wd A",
      "nn Nn",
      "1 24",
      "M C",
      "R e",
      "W gI",
      "q p",
      "ng v",
      "66 82",
      "tJ tt",
      "F wQ",
      "v i",
      "by Db",
      "M l",
      "u z",
      "ww Y",
      "P C",
      "bO B",
      "Iq E",
      "rz L",
      "wZ d",
      "bm T",
      "u s",
      "NnZ Js",
      "K R",
      "l es",
      "nB w",
      "re L",
      "0 3",
      "G U",
      "m ZQ",
      "w lJ",
      "sa e",
      "YI Lmn",
      "D j",
      "F !",
      "G u",
      "J g",
      "f z",
      "h st",
      "i l",
      "es f",
      "rG l",
      "b oB",
      "n Wb",
      "v R",
      "y r",
      "NZ W",
      "aW SWrehJs",
      "su Nl",
      "lq Nn",
      "rz B",
      "zh Js",
      "mO L",
      "B nO",
      "D WZ",
      "G C",
      "G ss",
      "J WN",
      "Z x",
      "i t",
      "q Y",
      "11 4",
      "JJ d",
      "F x",
      "P n",
      "a m",
      "j h",
      "p B",
      "Ne Ue",
      "11 2",
      "Nl WN",
      "R K",
      "e WW",
      "f v",
      "n WZ",
      "z Q",
      "Ne t",
      "WN JW",
      "dV S",
      "c H",
      "l Nw",
      "q ww",
      "y p",
      "aa D",
      "fB V",
      "8 3",
      "O Iw",
      "X r",
      "s K",
      "ll h",
      "wI c",
      "mB i",
      "Tru te",
      "B L",
      "E U",
      "X Nn",
      "d aJ",
      "r VZ",
      "s lW",
      "Js !",
      "WW u",
      "24 2",
      "bD gI",
      "bN c",
      "P l",
      "Y n",
      "a nI",
      "i y",
      "t NN",
      "Js WN",
      "B W",
      "N lW",
      "W aa",
      "X su",
      "d m",
      "l Ws",
      "o J",
      "Wt rNb",
      "bO Z",
      "X s",
      "o l",
      "z A",
      "zc R",
      "Y D",
      "g bB",
      "m G",
      "re qQ",
      "aa w",
      "ZN t",
      "Wu b",
      "4 22",
      "M E",
      "P y",
      "i s",
      "D Iz",
      "N E",
      "N Wa",
      "O qD",
      "V J",
      "b e",
      "f e",
      "p A",
      "q tr",
      "r C",
      "y Wb",
      "Nn U",
      "lw Ws",
      "htW l",
      "WWZN G",
      "6 44",
      "h NZ",
      "h Nn",
      "mn m",
      "M A",
      "P U",
      "o C",
      "tr sW",
      "tt tW",
      "L Ie",
      "N Je",
      "R C",
      "R l",
      "d c",
      "bR cw",
      "GR If",
      "Td J",
      "R J",
      "Y C",
      "e sZ",
      "z y",
      "re v",
      "WZ V",
      "11 8",
      "bB c",
      "624 2",
      "D tZ",
      "E h",
      "L u",
      "r j",
      "II D",
      "na wN",
      "Wq Tn",
      "I DO",
      "S q",
      "S t",
      "Z bn",
      "x C",
      "x v",
      "y Db",
      "22 8",
      "su r",
      "A Ne",
      "F wf",
      "T g",
      "U lN",
      "d f",
      "f qD",
      "p O",
      "p q",
      "qt S",
      "F F",
      "I OO",
      "J WZ",
      "N ll",
      "N Ws",
      "d I",
      "ah Z",
      "tN A",
      "Wz J",
      "M J",
      "Q sW",
      "V !",
      "Jq W",
      "su r!",
      "bR h",
      "oc ufc",
      "rG q",
      "B P",
      "Q Y",
      "T C",
      "i q",
      "o qO",
      "x a",
      "nI gr",
      "Iq P",
      "248 211",
      "K Z",
      "n Cw",
      "ll R",
      "aa Z",
      "M s",
      "R H",
      "d y",
      "h !",
      "cc o",
      "sD Iw",
      "5 9",
      "N j",
      "R P",
      "Z Dt",
      "i v",
      "l qD",
      "tZ W",
      "QN lld",
      "nU f",
      "aJs A",
      "G G",
      "f W",
      "x K",
      "z VS",
      "sa t",
      "Nz re",
      "ba V",
      "wa Ow",
      "1 62",
      "b ev",
      "f L",
      "l P",
      "p ns",
      "Js Ze",
      "rN z",
      "st d",
      "NQ J",
      "qr nah",
      "6 22",
      "O F",
      "R I",
      "f Cw",
      "h sW",
      "y h",
      "Ns r",
      "84 2",
      "nb u",
      "lU Wu",
      "L o",
      "N M",
      "NN s",
      "ll s",
      "bn Db",
      "su t",
      "AN c",
      "mz t",
      "K t",
      "N Y",
      "S v",
      "n Db",
      "t ht",
      "Ns a",
      "bn bbc",
      "ar n",
      "QZ TJS",
      "!Q J",
      "Qc V",
      "sSNdh lJ",
      "K b",
      "U q",
      "Z Y",
      "e Y",
      "l tZ",
      "A G",
      "V n",
      "Z DO",
      "QZ Wa",
      "SWreh Jq",
      "F m",
      "F ds",
      "J R",
      "K I",
      "L r",
      "f r",
      "n lq",
      "ll VS",
      "ssh et",
      "F Wd",
      "l j",
      "s llZNe",
      "II B",
      "II P",
      "at w",
      "QVs ld",
      "QV sWd",
      "8 14",
      "R Nr",
      "T Nu",
      "b oc",
      "p C",
      "y S",
      "WZ nNZ",
      "aJ tt",
      "fN V",
      "ni Q",
      "zv Eq",
      "D Iq",
      "L U",
      "b IN",
      "Iw C",
      "str Nd",
      "UnQ NsQ",
      "L F",
      "d n",
      "f Y",
      "f Vs",
      "t Js",
      "z Y",
      "NN eN",
      "ww E",
      "26 2",
      "eT !N",
      "WV w",
      "Cs Te",
      "fN v",
      "Tll H",
      "! I",
      "C G",
      "M h",
      "T Nr",
      "U WW",
      "h u",
      "p F",
      "lV ra",
      "16 1",
      "WNn NZ",
      "lsTe G",
      "WsN! t",
      "4 11",
      "V l",
      "t Aa",
      "su a",
      "na Z",
      "AN U",
      "Wn nc",
      "822 22",
      "A w",
      "R Y",
      "Z Da",
      "WZ h",
      "dh S",
      "D Q",
      "T Q",
      "Ns U",
      "Nd f",
      "nZ J",
      "Nr Z",
      "sSNdh llN",
      "WsN At",
      "str NdaJ",
      "G F",
      "N lq",
      "W ds",
      "d B",
      "m Y",
      "o qD",
      "q QN",
      "tr Z",
      "82 8",
      "aJ at",
      "tn nw",
      "! sW",
      "4 241",
      "C n",
      "E Y",
      "G O",
      "J Wb",
      "K j",
      "M w",
      "b lh",
      "o D",
      "p qs",
      "x Z",
      "wI w",
      "Wh !s",
      "wZ G",
      "JW Nn",
      "gg mB",
      "sU nth",
      "! u",
      "K Yqq",
      "e z",
      "p sq",
      "q la",
      "t v",
      "Js o",
      "ss l",
      "R yI",
      "g u",
      "v z",
      "w Da",
      "x P",
      "yI Y",
      "G J",
      "I WO",
      "N P",
      "d C",
      "e f",
      "e qf",
      "m S",
      "p Q",
      "t Vt",
      "ll dG",
      "ah S",
      "Ns J",
      "TNZ t",
      "7 44",
      "R n",
      "T M",
      "i F",
      "i j",
      "m Ic",
      "n ls",
      "p D",
      "u wI",
      "nr Nd",
      "na J",
      "Zl a",
      "A ts",
      "O ls",
      "U X",
      "X X",
      "g G",
      "Iq I",
      "zB b",
      "ba v",
      "bg h",
      "zL Cq",
      "ie qf",
      "m Iz",
      "r E",
      "s wI",
      "x Y",
      "x h",
      "Bw Q",
      "!s Wt",
      "RE o",
      "J ft",
      "a j",
      "b Ne",
      "c K",
      "l E",
      "r Ns",
      "w Og",
      "Nq Q",
      "YI vmn",
      "Ih bn",
      "R Q",
      "S n",
      "V U",
      "a Db",
      "j N",
      "q T",
      "w Dt",
      "x !",
      "Wa Z",
      "nq Eny",
      "NQ l",
      "eV Sere",
      "mz a",
      "K A",
      "r X",
      "z DN",
      "bD Z",
      "WD Z",
      "ldsW NZ",
      "VtW ly",
      "0 7",
      "W Ns",
      "t G",
      "t VZ",
      "y v",
      "84 1",
      "nZ l",
      "lh rt",
      "at nw",
      "ID r",
      "68 8",
      "F lh",
      "I WN",
      "J Jt",
      "e ll",
      "s lJZNe",
      "bn m",
      "aV t",
      "M a",
      "O j",
      "m V",
      "Js J",
      "Nn J",
      "Gd IQ",
      "EE w",
      "!NN eNN",
      "5 0",
      "B H",
      "I Nb",
      "K T",
      "q e",
      "r JN",
      "s T",
      "ll O",
      "nB Z",
      "Ih Fn",
      "248 21",
      "A L",
      "M Z",
      "Q O",
      "Y U",
      "b nZ",
      "g m",
      "u rA",
      "v J",
      "x t",
      "Iw J",
      "F tZ",
      "M q",
      "S i",
      "Z WW",
      "b qq",
      "s aht",
      "II E",
      "IZ C",
      "hs gh",
      "gg bB",
      "Du b",
      "G o",
      "S d",
      "q fN",
      "Nq aa",
      "zh Cq",
      "zh nq",
      "48 21",
      "zL Eq",
      "ox d",
      "J p",
      "O p",
      "O Nw",
      "U K",
      "j E",
      "n nc",
      "bD B",
      "tW w",
      "eT d",
      "N sW",
      "Q K",
      "a nw",
      "h C",
      "m mX",
      "Iw g",
      "nI Oc",
      "bD D",
      "ds r",
      "Ww nNw",
      "sZ d",
      "WV Z",
      "reh Js",
      "A v",
      "L R",
      "M o",
      "n Nn",
      "11 6",
      "bR qr",
      "zv Cq",
      "Bd L",
      "7 3",
      "9 22",
      "L A",
      "T p",
      "bO w",
      "aW d",
      "st U",
      "bg v",
      "bC v",
      "! h",
      "I nd",
      "K y",
      "a Q",
      "b G",
      "e rz",
      "f lw",
      "f Ew",
      "o NN",
      "WW Q",
      "Ns tt",
      "J qD",
      "O wI",
      "X nG",
      "e o",
      "h D",
      "i P",
      "u c",
      "NN d",
      "AN u",
      "aN tr",
      "la s",
      "IO x",
      "sn W",
      "2 94",
      "F NZ",
      "L K",
      "V NZ",
      "c M",
      "h n",
      "l k",
      "m nw",
      "u R",
      "Nn t",
      "Ne u",
      "WN z",
      "ss V",
      "Nz N",
      "sr nth",
      "GI Lmn",
      "drNn l",
      "haW l",
      "S E",
      "f y",
      "v Fn",
      "NN ssW",
      "ss Z",
      "nO w",
      "cw Z",
      "Nq t",
      "eh Jq",
      "WWtr N",
      "V I",
      "Wt t",
      "Bw f",
      "bR s",
      "dl NZ",
      "gO mB",
      "C U",
      "P Iw",
      "R R",
      "X g",
      "X ll",
      "n X",
      "w Dg",
      "lq W",
      "bg L",
      "rZ e",
      "SWrzh Js",
      "A x",
      "Q f",
      "S T",
      "V y",
      "w Ne",
      "24 4",
      "tt !s",
      "62 8",
      "mD B",
      "qO s",
      "qO t",
      "C Db",
      "J wZ",
      "W DD",
      "c wI",
      "d Vs",
      "q bn",
      "ah !s",
      "Ns lJ",
      "lr p",
      "sr nOh",
      "rd Wh",
      "ub eT",
      "E t",
      "F K",
      "I Wr",
      "M Nq",
      "h T",
      "i zB",
      "r D",
      "ss S",
      "E N",
      "K qg",
      "V D",
      "f G",
      "m bX",
      "v C",
      "WW Wa",
      "su al",
      "OO w",
      "rN F",
      "ar S",
      "ON Or",
      "Im Ic",
      "GR IQ",
      "G II",
      "N !ANN",
      "U ON",
      "o R",
      "lJ q",
      "DD Z",
      "Td l",
      "Y m",
      "f qW",
      "q Unah",
      "s Na",
      "tr ar",
      "nZ C",
      "Jq n",
      "na w",
      "lV M",
      "ldsW Nw",
      "K z",
      "L C",
      "Y c",
      "Y s",
      "d R",
      "NN t",
      "21 4",
      "lW !!",
      "th Z",
      "F Wh",
      "N WN",
      "S Nu",
      "d Y",
      "r te",
      "u ZWt",
      "y ng",
      "bO N",
      "ts Z",
      "AN fQ",
      "sU nOh",
      "WsN Aa",
      "ANd Q",
      "D aa",
      "L D",
      "Z nJ",
      "d O",
      "j r",
      "o P",
      "r Ws",
      "s Te",
      "t M",
      "bO wI",
      "16 6",
      "JW !!",
      "!N c",
      "Q M",
      "S P",
      "g Q",
      "q Wa",
      "v Y",
      "ll A",
      "18 24",
      "Nz NN",
      "S x",
      "j l",
      "s la",
      "WZ I",
      "mD wI",
      "st al",
      "sd A",
      "K !",
      "K n",
      "c ww",
      "e E",
      "p I",
      "v l",
      "Nn ds",
      "BB x",
      "ZQ F",
      "sS NR",
      "zh Jq",
      "lJZ Wh",
      "dZ r",
      "B Js",
      "V eN",
      "f U",
      "NN WWZ",
      "bD N",
      "aW r",
      "yI G",
      "!! NN",
      "Ih mn",
      "Jd sW",
      "M O",
      "Q G",
      "R qD",
      "T WL",
      "U j",
      "a x",
      "b NZ",
      "b lV",
      "h I",
      "Ws J",
      "re sf",
      "Nd A",
      "nO vE",
      "OO D",
      "! Ne",
      "F E",
      "K m",
      "P F",
      "Q i",
      "W zB",
      "Z tt",
      "b cw",
      "WW t",
      "aW nZ",
      "GI h",
      "ra y",
      "! sa",
      "A z",
      "B ww",
      "B nq",
      "D H",
      "R d",
      "U lr",
      "Z WN",
      "b FX",
      "e P",
      "u UU",
      "NZ w",
      "aa u",
      "II N",
      "Wh lh",
      "lr Wu",
      "sr naV",
      "rd WhrtN",
      "Ds Tn",
      "Se Ue",
      "1 26",
      "E J",
      "I Zl",
      "M f",
      "R Iq",
      "e i",
      "g T",
      "n T",
      "r WW",
      "v D",
      "Iw P",
      "At q",
      "bm c",
      "AA NN",
      "t! n",
      "VsW h",
      "4 12",
      "F NN",
      "X D",
      "t L",
      "x n",
      "bR z",
      "nU p",
      "ZN a",
      "AA dh",
      "G bc",
      "G f!",
      "Y II",
      "Z lJ",
      "n DZ",
      "s o",
      "nw l",
      "mn b",
      "oB ufc",
      "mc i",
      "E Iw",
      "G a",
      "Z o",
      "c P",
      "r qq",
      "u T",
      "z j",
      "qD O",
      "Wa rN",
      "sq V",
      "1 41",
      "K L",
      "M Bz",
      "U D",
      "V f",
      "m Nm",
      "q Nn",
      "x D",
      "y Ig",
      "sW B",
      "Ne W",
      "We ss",
      "We lI",
      "bN B",
      "fc V",
      "zq Q",
      "htW ly",
      "G i",
      "N v",
      "Y F",
      "c WW",
      "n Cq",
      "22 7",
      "Nw l",
      "cw B",
      "Nq W",
      "Jr s",
      "JsW NZ",
      "A D",
      "K Gqq",
      "L !",
      "T O",
      "U I",
      "b WO",
      "b qr",
      "i L",
      "l Ir",
      "p T",
      "v F",
      "z K",
      "Wa t",
      "nr GZ",
      "nB RE",
      "Wr N",
      "qO a",
      "Aa Z",
      "hs ah",
      "WU h",
      "wg O",
      "B j",
      "G v",
      "J y",
      "M Di",
      "N Jq",
      "O Wd",
      "T JN",
      "V ZZ",
      "c nO",
      "g f",
      "s x",
      "84 8",
      "su rA",
      "Eq P",
      "bR Bw",
      "Vt G",
      "aJs AN",
      "! eh",
      "9 62",
      "G L",
      "V qa",
      "Y ww",
      "d qN",
      "g H",
      "sW w",
      "tr N",
      "qD R",
      "qD c",
      "GI vbn",
      "bW wI",
      "W f",
      "g F",
      "ww wI",
      "Im IB",
      "YR i",
      "LYI Lmn",
      "E l",
      "G n",
      "S X",
      "Z i",
      "a Cq",
      "b M",
      "e an",
      "q j",
      "r lN",
      "r NnZJs",
      "u i",
      "Wt u",
      "ls n",
      "bD wI",
      "su U",
      "sS B",
      "bA Q",
      "N JZ",
      "O Bw",
      "Q n",
      "V WZ",
      "b Iq",
      "f dJ",
      "g Iq",
      "m BB",
      "t Nd",
      "u P",
      "w la",
      "Nn h",
      "Wa y",
      "ss he",
      "nw J",
      "tW r",
      "lW b",
      "QB v",
      "J Ws",
      "Q z",
      "U VZ",
      "V o",
      "W nI",
      "e tN",
      "p m",
      "p Wt",
      "u q",
      "Ne h",
      "sZ Z",
      "qs ll",
      "WWZ a",
      "A C",
      "D OO",
      "Q Cw",
      "h eN",
      "s JJ",
      "y U",
      "41 82",
      "ar Z",
      "ID P",
      "bE L",
      "I bO",
      "O bB",
      "S I",
      "b Nr",
      "m IN",
      "u tr",
      "bD W",
      "lh Ws",
      "Im I",
      "my W",
      "ua Un",
      "A Nr",
      "Y K",
      "b dh",
      "f X",
      "WN c",
      "ss C",
      "lq n",
      "16 241",
      "ZZ Z",
      "wQ m",
      "eV Nerz",
      "Gh G",
      "sWt lds",
      "6 12",
      "C wI",
      "D tw",
      "J T",
      "O qB",
      "R p",
      "n ts",
      "q an",
      "v V",
      "x r",
      "ss t",
      "nt wN",
      "zB R",
      "qg g",
      "qt O",
      "bs U",
      "wg OE",
      "eJ H",
      "C p",
      "J eN",
      "V x",
      "d E",
      "f T",
      "g nO",
      "h i",
      "m ah",
      "t sW",
      "y nO",
      "WW a",
      "aW b",
      "Iq II",
      "18 21",
      "Bw c",
      "5 8",
      "C X",
      "K S",
      "T E",
      "W H",
      "b eL",
      "c p",
      "j t",
      "m eT",
      "w V",
      "sq ll",
      "Nl e",
      "qa O",
      "eV Ns",
      "zX R",
      "6 26",
      "D ly",
      "R j",
      "W zN",
      "c j",
      "h NN",
      "lJ @",
      "Wr V",
      "16 24",
      "Dh lV",
      "!s aa",
      "Un f",
      "C NZ",
      "I fN",
      "R U",
      "a Nn",
      "c Js",
      "m eg",
      "o F",
      "v Q",
      "v r",
      "cw c",
      "Jr Wu",
      "UJN X",
      "B ng",
      "I WB",
      "U Ws",
      "i Yz",
      "m M",
      "m p",
      "m Nb",
      "s X",
      "x bx",
      "Nn a",
      "bO vg",
      "nB wB",
      "IO i",
      "Gd Nr",
      "Qc v",
      "5 3",
      "A K",
      "O lq",
      "c bn",
      "g S",
      "m cN",
      "n Dh",
      "x J",
      "y L",
      "z qD",
      "sW a",
      "nZ j",
      "WZ nNw",
      "ID x",
      "DN !",
      "zh lq",
      "tu e",
      "IV bn",
      "! C",
      "1 72",
      "a Nd",
      "b Ww",
      "d aW",
      "m Wh",
      "z p",
      "z Nb",
      "bn Wb",
      "su aAn",
      "lW w",
      "WO Z",
      "hs Q",
      "rn d",
      "sn Wes",
      "NWes TN",
      "G LG",
      "K v",
      "U Nb",
      "Z V",
      "b H",
      "o cc",
      "s lt",
      "z M",
      "nI N",
      "bD w",
      "Zl N",
      "Dg mB",
      "rn Dv",
      "bC V",
      "Qc L",
      "qS Ndh",
      "A tw",
      "F nw",
      "N WWZ",
      "V ae",
      "Z K",
      "a nr",
      "c Y",
      "d T",
      "d re",
      "v v",
      "Js s",
      "WW b",
      "ww l",
      "11 7",
      "Wh w",
      "mD w",
      "bb Z",
      "qa g",
      "tl tt",
      "! Nd",
      "3 8",
      "6 61",
      "N WJ",
      "W M",
      "X ov",
      "h x",
      "l Nr",
      "n bbX",
      "NN a",
      "sW s",
      "Ns w",
      "tr S",
      "ww P",
      "aW Q",
      "nt L",
      "bm cw",
      "6 21",
      "D cw",
      "D Wb",
      "G ws",
      "I Nn",
      "T D",
      "Y DP",
      "b L",
      "i p",
      "m et",
      "o W",
      "u D",
      "w lr",
      "qD t",
      "26 4",
      "lV N",
      "eN Vs",
      "bR V",
      "DV w",
      "wf A",
      "NJ WN",
      "G QA",
      "J k",
      "f Jw",
      "h M",
      "i GI",
      "s OO",
      "t @",
      "wI wI",
      "WN o",
      "bn W",
      "bq U",
      "ehNere NQWNn",
      "sM Ndh",
      "aJq A",
      "U CN",
      "Y g",
      "f I",
      "s Zl",
      "NN W",
      "Wa W",
      "al qA",
      "tW b",
      "aJ aa",
      "qZ II",
      "yf v",
      "! st",
      "8 11",
      "E Ii",
      "G g",
      "X M",
      "j J",
      "m b",
      "r L",
      "rz c",
      "bd v",
      "YR IE",
      "pl p",
      "lsW e",
      "2 84",
      "B lq",
      "C T",
      "I WW",
      "I ww",
      "J Zl",
      "N tN",
      "N JW",
      "V tZ",
      "V eW",
      "h Ww",
      "m DO",
      "q Nq",
      "r v",
      "bD O",
      "bD Eq",
      "Wb f",
      "fN L",
      "VsW V",
      "A o",
      "C u",
      "Q eT",
      "U aW",
      "r qs",
      "t lh",
      "u v",
      "Ws Z",
      "nZ lssS",
      "lh T",
      "DO Z",
      "qq E",
      "GI L",
      "Nc A",
      "ntu Nl",
      "E !",
      "F o",
      "I Wt",
      "L l",
      "V Q",
      "W @",
      "a Y",
      "d j",
      "g X",
      "n al",
      "o G",
      "p Ws",
      "s L",
      "sW O",
      "nw C",
      "Iq O",
      "BB o",
      "ON ar",
      "87 42",
      "GQ G",
      "N AN",
      "R qO",
      "g M",
      "i zc",
      "l Cw",
      "n Iw",
      "q WO",
      "u F",
      "v f",
      "Wt W",
      "tt W",
      "WZ es",
      "Nq WN",
      "te trtr",
      "bb bw",
      "Wz l",
      "If oL",
      "Eb Ie",
      "ms i",
      "eNNZ tt",
      "A Wa",
      "F G",
      "W X",
      "W cN",
      "Y v",
      "Y y",
      "b EE",
      "o qE",
      "p al",
      "r NN",
      "z U",
      "Js Tz",
      "WW rN",
      "wI Z",
      "Iw Y",
      "ID c",
      "wd et",
      "If ov",
      "bC L",
      "zT !",
      "0 5",
      "9 5",
      "B Gd",
      "S M",
      "U NF",
      "q Te",
      "v b",
      "nO bbc",
      "AN QQ",
      "!s b!Q",
      "Td lA",
      "tl at",
      "Tl S",
      "D Cv",
      "L P",
      "U S",
      "h X",
      "w Ez",
      "AB u",
      "ehNere NlWN",
      "sur! n",
      "a sW",
      "f WW",
      "j Z",
      "p !",
      "t eN",
      "x l",
      "WW r",
      "lJ e",
      "Nd Z",
      "tt w",
      "ww D",
      "nN ba",
      "ANN eN",
      "MB u",
      "Se rz",
      "yb IB",
      "dhtr r",
      "nwJs sS",
      "NZp dr",
      "4 02",
      "F DV",
      "R y",
      "Z eW",
      "a Vs",
      "b zv",
      "j A",
      "n JZ",
      "n Dw",
      "o r",
      "t E",
      "NN F",
      "Nd l",
      "tt u",
      "bn bm",
      "Wa r",
      "rz qQ",
      "ID B",
      "JsTe G",
      "sshet Nds",
      "! QZ",
      "2 87",
      "O H",
      "O lVS",
      "P A",
      "S g",
      "Y qs",
      "p c",
      "x R",
      "WW sN",
      "ww WW",
      "aW w",
      "Nr N",
      "su tAn",
      "lq N",
      "Cq P",
      "nc Z",
      "mD Eq",
      "bm Bw",
      "mR q",
      "mR s",
      "nn G",
      "mz T",
      "htW J",
      "8 18",
      "E wI",
      "M !",
      "Q st",
      "W Y",
      "l u",
      "o M",
      "z DB",
      "Js A",
      "nw E",
      "AN B",
      "Dh w",
      "mz X",
      "sd WhrtN",
      "nZG Is",
      "NqtS WtrN",
      "4 62",
      "D WD",
      "F lV",
      "I KB",
      "K P",
      "O Aa",
      "Q L",
      "W ls",
      "b bN",
      "d al",
      "p y",
      "u arn",
      "Js lA",
      "Nn n",
      "Ws h",
      "bD c",
      "27 2",
      "ID o",
      "ba B",
      "Zd Wh",
      "YI Lbn",
      "vO y",
      "xB u",
      "tB tr",
      "in Dv",
      "J v",
      "O Iq",
      "T X",
      "X O",
      "m Nr",
      "s ww",
      "t re",
      "u h",
      "w Wg",
      "z e",
      "tZ p",
      "ss u",
      "bO Cq",
      "lW !A",
      "nc f",
      "Ig x",
      "ng V",
      "rd WV",
      "llZ Wrh",
      "wu eNe",
      "Il R",
      "668 211",
      "eT!N U",
      "D II",
      "D dr",
      "E A",
      "J tZ",
      "K NQ",
      "L j",
      "M cf",
      "N aN",
      "X dJ",
      "i S",
      "n bmX",
      "p b",
      "q Jt",
      "tr Wu",
      "na ZN",
      "zh Nere",
      "Nf Q",
      "Rc x",
      "srnah lr",
      "ANd f",
      "E Eq",
      "N Bb",
      "j B",
      "j s",
      "m v",
      "m cB",
      "n DL",
      "q mn",
      "t Db",
      "t ha",
      "w bn",
      "Wt ZW",
      "Nn q",
      "ah aa",
      "nI y",
      "Is n",
      "mD c",
      "Eq n",
      "Nl A",
      "mO V",
      "nl b",
      "dV a",
      "IP o",
      "F nc",
      "F aV",
      "F aZ",
      "L bO",
      "O NZ",
      "Q X",
      "Q g",
      "d g",
      "f hq",
      "r Y",
      "y T",
      "NN eNN",
      "wI i",
      "Ns sW",
      "ww R",
      "bB r",
      "nt v",
      "Bw B",
      "sq CJ",
      "14 8",
      "48 8",
      "GI hmn",
      "by f",
      "BZ f",
      "! X",
      "F z",
      "G Q!",
      "O Dw",
      "p su",
      "p dr",
      "r sZ",
      "nZ JZ",
      "bn bb",
      "Jq J",
      "qt a",
      "rG A",
      "bbc VG",
      "NNss t",
      "I k",
      "L n",
      "M R",
      "U eh",
      "ll V",
      "Nn V",
      "sW Nw",
      "WZ Wr",
      "Iz G",
      "Wb N",
      "lZ W",
      "nU G",
      "IO o",
      "WB nI",
      "hs lh",
      "Bc x",
      "bT o",
      "dhtr S",
      "A tN",
      "J ds",
      "a qD",
      "c Cq",
      "c Nb",
      "f K",
      "g mB",
      "o T",
      "p ss",
      "t y",
      "v j",
      "w h",
      "ss a",
      "lq B",
      "Ie d",
      "JZ b",
      "nG sZ",
      "eb WZ",
      "5 7",
      "C Nw",
      "F Wa",
      "P DD",
      "U dW",
      "Y O",
      "Z WZ",
      "b dV",
      "bn w",
      "44 7",
      "st O",
      "mO h",
      "As aa",
      "by B",
      "WsTt Trute",
      "F nB",
      "G fA",
      "K F",
      "K cf",
      "O ht",
      "Q sZ",
      "V OG",
      "W JZ",
      "Z JZ",
      "b Wb",
      "b zL",
      "e NZ",
      "p z",
      "Ne B",
      "eh Ne",
      "sa p",
      "ba Z",
      "If x",
      "TN Vs",
      "IG W",
      "N Gd",
      "U E",
      "e tZ",
      "i W",
      "r Wt",
      "NN z",
      "WW W",
      "qD N",
      "Iw Z",
      "nI Dr",
      "tN llt",
      "bc Nb",
      "nc nv",
      "Og bB",
      "IP i",
      "cs Q",
      "vO G",
      "VtW l",
      "! y",
      "V R",
      "c ZZ",
      "f D",
      "h sa",
      "Nd !",
      "nZ sW",
      "ls l",
      "bB e",
      "dh a",
      "cc x",
      "ng bbc",
      "eNNZ ta",
      "Vae trtr",
      "! D",
      "! R",
      "7 22",
      "A Wt",
      "B S",
      "F Zf",
      "J P",
      "N We",
      "b WV",
      "d P",
      "j w",
      "m qr",
      "NN u",
      "WW Da",
      "Nd tWt",
      "su aJ",
      "Wd W",
      "Wr Z",
      "IB nq",
      "bR L",
      "cB z",
      "Dc Z",
      "Ib Ic",
      "Ac u",
      "Qh sW",
      "eTAV rnQNsQ",
      "QhsWd T",
      "hsgh NZ",
      "J Nr",
      "N WD",
      "Q D",
      "S o",
      "a Iw",
      "b lJ",
      "j W",
      "m cc",
      "p g",
      "p an",
      "s Nn",
      "Ws s",
      "cw b",
      "DD b",
      "nc gd",
      "Dc cw",
      "he NdtWSWrehJs",
      "Co y",
      "! P",
      "L OD",
      "d tW",
      "f Ow",
      "l tw",
      "m L",
      "r P",
      "w tt",
      "w al",
      "24 7",
      "wI z",
      "nI D",
      "Iq wI",
      "Nr s",
      "Wd ra",
      "J L",
      "M n",
      "Y Q",
      "i es",
      "m oB",
      "n lZ",
      "n WWu",
      "t ds",
      "w aa",
      "Nd tJ",
      "nI Di",
      "We r",
      "nw p",
      "aW nw",
      "eh ns",
      "mD Z",
      "41 9",
      "lr Z",
      "ID g",
      "Ig m",
      "mR h",
      "mc b",
      "Np h",
      "oq OO",
      "iG l",
      "Xe G",
      "TlJ @",
      "! i",
      "M X",
      "Q eW",
      "V j",
      "e Nb",
      "m Ul",
      "m eO",
      "x T",
      "NN w",
      "qD d",
      "ww y",
      "al ta",
      "II g",
      "QN v",
      "ng wN",
      "qs C",
      "bs i",
      "bwf b",
      "VO j",
      "ANd QNh",
      "nZJs sSNdh",
      "NstS WtrN",
      "1 78",
      "9 24",
      "F v",
      "K i",
      "K Nf",
      "N Wl",
      "Q v",
      "U Ne",
      "U zB",
      "X dl",
      "g bc",
      "m nZ",
      "m WO",
      "p tW",
      "q lW",
      "t Nw",
      "w WW",
      "Nn N",
      "re s",
      "mn W",
      "eh Cq",
      "lN T",
      "qa e",
      "IO r",
      "Og mB",
      "87 4",
      "QB V",
      "fw qi",
      "NWW ZN",
      "ufc V",
      "8 72",
      "D Ns",
      "F u",
      "G sa",
      "N WZ",
      "N Cq",
      "Q ZN",
      "R al",
      "U u",
      "U ls",
      "W zc",
      "b bw",
      "f sW",
      "n Jq",
      "Wt rB",
      "sW e",
      "sW al",
      "Wa w",
      "tW d",
      "Nl Ay",
      "rd WN",
      "wR !",
      "ANN e",
      "TW nnNn",
      "nZG Iq",
      "668 21",
      "WbQN lJd",
      "B Jq",
      "F L",
      "F j",
      "K cu",
      "d WN",
      "f hs",
      "h R",
      "j Q",
      "NN l",
      "21 7",
      "WZ Z",
      "lV rt",
      "cc B",
      "cc c",
      "st a",
      "cN A",
      "IZ G",
      "IZ J",
      "oc f",
      "ev Nere",
      "eX !",
      "Ss y",
      "4 61",
      "D Y",
      "D te",
      "F lW",
      "F dh",
      "G qu",
      "L J",
      "Q su",
      "a nrQ",
      "g qD",
      "ls Z",
      "nI q",
      "Nw WO",
      "mn bm",
      "Nb a",
      "Nb t",
      "Is II",
      "lr s",
      "qq h",
      "Dc !",
      "Wq Ta",
      "aV a",
      "Je Z",
      "Da w",
      "Oc Z",
      "WNn Nw",
      "zs f",
      "F Js",
      "Q R",
      "Q y",
      "m dh",
      "m Nc",
      "p f",
      "q WN",
      "s v",
      "u C",
      "Wt t!",
      "Nn s",
      "tt F",
      "nO Z",
      "wZ Z",
      "qq C",
      "sZ I",
      "sZ w",
      "le w",
      "Ib I",
      "Nu e",
      "ZWt elJ",
      "sJ a",
      "eVNere NQWNn",
      "nIOB OJ",
      "B M",
      "E Db",
      "I tr",
      "J Nd",
      "Y W",
      "d D",
      "e j",
      "g p",
      "l Ne",
      "m ds",
      "n re",
      "p WW",
      "q fB",
      "NN n",
      "Wt e",
      "WN p",
      "nO m",
      "tW rN",
      "nB gd",
      "bR qi",
      "te W",
      "sq C",
      "!s tt",
      "Nl eN",
      "lt q",
      "my Db",
      "bT x",
      "Zu e",
      "Q! rtN",
      "D ww",
      "E zq",
      "F e",
      "J Nw",
      "K qO",
      "U f",
      "W sWd",
      "X y",
      "e y",
      "e qQ",
      "o K",
      "o Ow",
      "r Nd",
      "t At",
      "u wd",
      "z Ne",
      "z trtr",
      "NN S",
      "Iw O",
      "Wa I",
      "Jq N",
      "Cq W",
      "sq J",
      "Jr p",
      "IW i",
      "NW A",
      "nD G",
      "nx Igr",
      "dhar r",
      "D p",
      "M t",
      "P f",
      "Q dJ",
      "T qu",
      "U x",
      "V Y",
      "a IB",
      "b p",
      "b Zd",
      "e dU",
      "s rN",
      "s JW",
      "re ha",
      "wI E",
      "qD B",
      "84 22",
      "eh NeUe",
      "nq G",
      "41 4",
      "Nz B",
      "bR v",
      "ld t",
      "Og D",
      "WWZ W",
      "aA tZ",
      "D WW",
      "I d!",
      "i zv",
      "j q",
      "l Q",
      "l !A",
      "m FX",
      "Iw G",
      "bD zB",
      "tW rs",
      "Nr r",
      "Nq a",
      "wZ l",
      "Zd et",
      "ns eu",
      "Jt q",
      "qt g",
      "!N B",
      "qN S",
      "qN a",
      "wf b",
      "YR Y",
      "A I",
      "E u",
      "J Ns",
      "O ha",
      "V Ns",
      "W j",
      "f Vq",
      "l eN",
      "m mT",
      "n wI",
      "x G",
      "y X",
      "WW wN",
      "Nn e",
      "nI ON",
      "aN A",
      "la Z",
      "mg v",
      "md v",
      "F ls",
      "I S",
      "P Y",
      "X WL",
      "b Js",
      "d Iq",
      "h j",
      "m lh",
      "t Dw",
      "x U",
      "y H",
      "NZ WO",
      "Nn rp",
      "sW aZ",
      "Nd N",
      "Nd a",
      "Nd t",
      "ww W",
      "WZ W",
      "Iw x",
      "nN Fa",
      "bB z",
      "bB Nb",
      "cc !",
      "ZZ uZ",
      "qg s",
      "nl G",
      "bt h",
      "TJ QZ",
      "Iy g",
      "NT u",
      "dW NZ",
      "ul NZ",
      "ul Ns",
      "LYI vmn",
      "D cc",
      "F JZ",
      "K d",
      "M Db",
      "O Jq",
      "S L",
      "U NZ",
      "W lq",
      "Y L",
      "Z NN",
      "Z Ws",
      "c dh",
      "e WN",
      "h rnQ",
      "i IF",
      "l Ns",
      "s Ot",
      "t qD",
      "NN !",
      "NN J",
      "sW NZ",
      "Ns u",
      "tr ZW",
      "ww g",
      "82 87",
      "eh ts",
      "bb cw",
      "Wc A",
      "iY e",
      "7 26",
      "A P",
      "A WW",
      "A sa",
      "N lr",
      "T bZ",
      "U te",
      "a Is",
      "m NF",
      "p aW",
      "t X",
      "t Y",
      "t Ws",
      "WW !!",
      "Nn d",
      "aa Wr",
      "nI P",
      "We W",
      "nO wc",
      "OO Z",
      "wZ I",
      "Wd Ua",
      "WO y",
      "at nZ",
      "lN au",
      "Ig o",
      "Wz s",
      "Nu Q",
      "AA d",
      "bd L",
      "WJ VS",
      "Ac NeNN",
      "Ay Z",
      "QVs Jd",
      "xe nc",
      "bbT bZ",
      "ANNeNN WsTn",
      "C K",
      "I M",
      "L d",
      "O bc",
      "P u",
      "Q hq",
      "R wI",
      "U o",
      "b lI",
      "c Gd",
      "d Is",
      "p i",
      "q Ww",
      "x X",
      "x bDv",
      "z re",
      "NN WWZN",
      "aa F",
      "nr fE",
      "qW IZ",
      "qg a",
      "ZN S",
      "es fN",
      "Bb x",
      "GI V",
      "cy Iw",
      "! v",
      "I We",
      "J f",
      "K V",
      "L W",
      "R qg",
      "S p",
      "U zN",
      "X Q",
      "a Nw",
      "d eN",
      "j U",
      "s Y",
      "v tW",
      "Js r",
      "Jq h",
      "sa nd",
      "te l",
      "es d",
      "lA ANN",
      "he cd",
      "Zu Z",
      "fo L",
      "Ei G",
      "lZWe Zd!",
      "I WD",
      "K r",
      "P gI",
      "R tW",
      "S nW",
      "Z nd",
      "b sr",
      "e Bb",
      "i D",
      "j D",
      "m WZ",
      "q at",
      "s aW",
      "t Jq",
      "t Ql",
      "w nw",
      "24 22",
      "ls Tz",
      "ss N",
      "bO vM",
      "wl I",
      "Dg w",
      "Dq Tn",
      "bo Q",
      "Ei Y",
      "IV mn",
      "ehNere NQW",
      "qDIw bRNw",
      "! cu",
      "1 42",
      "6 82",
      "9 42",
      "A NZ",
      "E yI",
      "F Nr",
      "P Iz",
      "S V",
      "U lq",
      "e H",
      "m eX",
      "n nB",
      "v W",
      "Wt U",
      "Wt q",
      "Nn p",
      "WN K",
      "42 9",
      "Iq g",
      "Zl t",
      "Vs r",
      "Ig O",
      "Wq N",
      "Fn h",
      "YI hmn",
      "sU naV",
      "bNN b",
      "IEE m",
      "4 26",
      "F lZ",
      "F NZWt",
      "K W",
      "P II",
      "a Ws",
      "e Wr",
      "g DD",
      "h al",
      "h sr",
      "o Ii",
      "r ts",
      "u n",
      "NN q",
      "tt !",
      "12 7",
      "wZ y",
      "nB wN",
      "Bw al",
      "gI X",
      "mB c",
      "qW B",
      "sS NdV",
      "Aa w",
      "ld e",
      "zh ls",
      "wY i",
      "! AN",
      "5 5",
      "J E",
      "K l",
      "N lN",
      "O nI",
      "R aW",
      "V i",
      "W Vs",
      "Z slJ",
      "g Iz",
      "j F",
      "r OB",
      "r b!",
      "WN r",
      "nI i",
      "Cq Te",
      "bw R",
      "dr u",
      "bb W",
      "ng m",
      "zq E",
      "zq y",
      "oc R",
      "GI Vbn",
      "nn p",
      "zT A",
      "edrNn lG",
      "haW ly",
      "6 211",
      "B Cq",
      "F IB",
      "S JW",
      "V C",
      "j C",
      "l Zl",
      "t nr",
      "x Ii",
      "sW n",
      "tr r",
      "WN F",
      "Wd Fh",
      "aN p",
      "Vs cd",
      "Db Iz",
      "sr d",
      "st e",
      "14 7",
      "YI vbn",
      "nn bl",
      "le q",
      "rd W",
      "SWreh lq",
      "lld p",
      "WtZ WZ",
      "drNn r",
      "Eb Iz",
      "rbA Nd",
      "J !Z",
      "N ww",
      "O Cq",
      "U Y",
      "a f",
      "d vS",
      "o BB",
      "o cB",
      "q nn",
      "s j",
      "s II",
      "WW wB",
      "Ws Xn",
      "WZ p",
      "nw NT",
      "62 9",
      "OO E",
      "WO v",
      "Ow b",
      "Dh lr",
      "Dc o",
      "ON O",
      "lt @",
      "lt a",
      "Ib IB",
      "nah lh",
      "LYI Lbn",
      "! Y",
      "I Lbn",
      "K NN",
      "L I",
      "M g",
      "M wz",
      "N bn",
      "Q rU",
      "Q QNh",
      "R sN",
      "f qO",
      "g wI",
      "q II",
      "Js h",
      "Js l",
      "Nn au",
      "tt A",
      "aW F",
      "nN gd",
      "Cq B",
      "eh lq",
      "qW c",
      "WV ra",
      "gg D",
      "le Z",
      "Ib f",
      "ev cs",
      "wR A",
      "FT F",
      "ocu fBL",
      "! G",
      "6 18",
      "I lr",
      "J X",
      "J Js",
      "P Iq",
      "Q lw",
      "Q WD",
      "S K",
      "S O",
      "U Ns",
      "W nr",
      "Y l",
      "a Dw",
      "d M",
      "e JN",
      "e O!",
      "g qB",
      "i zN",
      "x Nu",
      "NN r",
      "tt nZJssS",
      "tZ sW",
      "tN S",
      "bD b",
      "Iz D",
      "nc Q",
      "at F",
      "ba Cq",
      "ON t",
      "zq R",
      "wQ b",
      "et Nd",
      "Gd d",
      "mO wI",
      "hs l",
      "zL Jq",
      "bd q",
      "zV Nere",
      "Wes T",
      "B mK",
      "E ww",
      "F Dv",
      "F OV",
      "I Wz",
      "W lV",
      "b Is",
      "d H",
      "w Nd",
      "w bO",
      "Wt rc",
      "re B",
      "wI R",
      "84 12",
      "ww G",
      "Iw m",
      "Wh y",
      "lW AA",
      "Nq l",
      "mn bbc",
      "nB y",
      "Wb fN",
      "bw q",
      "eT ANU",
      "mB b",
      "wl t",
      "Jr Z",
      "oc Q",
      "ne e",
      "bW v",
      "lb Ie",
      "UJN T",
      "ehJs Znr",
      "SNu ts",
      "0 12",
      "F dV",
      "J Ir",
      "O Vs",
      "Q ZZ",
      "U Q",
      "W zq",
      "b eh",
      "f wq",
      "j m",
      "Ne b",
      "Ns sa",
      "nI c",
      "bn Nb",
      "Wa U",
      "Wd A",
      "nq eu",
      "Ie I",
      "Vs ah",
      "Vs lh",
      "ZQ m",
      "rr s",
      "ta nw",
      "IP D",
      "WsTn Tsu",
      "UJN TJ",
      "stt lds",
      "WbQN lld",
      "8 87",
      "B WW",
      "B ls",
      "P H",
      "R If",
      "T G",
      "U zc",
      "W ww",
      "W Jq",
      "X G",
      "a At",
      "e wI",
      "h Nr",
      "o Ez",
      "u I",
      "22 0",
      "ll ZW",
      "tr tt",
      "qD y",
      "nZ ls",
      "tZ n",
      "Zl Z",
      "ID U",
      "Wu F",
      "reh Jq",
      "If o",
      "GR Y",
      "IW n",
      "Zu s",
      "eX AV",
      "!NN eN",
      "rl NZl",
      "Iv mn",
      "8 16",
      "9 94",
      "F Oh",
      "I Wc",
      "O Ww",
      "Y h",
      "a M",
      "c NZ",
      "c Nn",
      "i M",
      "j !",
      "m NB",
      "p G",
      "r II",
      "r sq",
      "v NQ",
      "nI z",
      "We Nb",
      "Nw Wa",
      "tN ar",
      "Jq Tz",
      "Nq r",
      "nt Q",
      "ID !",
      "zN c",
      "Da Z",
      "!N W",
      "QZ sr",
      "mR V",
      "Bd Iq",
      "!e WW",
      "QS Vsa",
      "wu e",
      "pd p",
      "UJN XJN",
      "lZWs sd!",
      "Qhs ld",
      "A R",
      "B Eq",
      "B GR",
      "F WV",
      "G ZZ",
      "J lt",
      "Y N",
      "a NN",
      "b Nz",
      "i u",
      "n bO",
      "q nW",
      "t Ns",
      "Ws NA",
      "Nd Ol",
      "Nr W",
      "lW k",
      "Nq h",
      "wZ w",
      "rN m",
      "NQ f",
      "sS Nd",
      "Ig U",
      "nU Q",
      "mO Z",
      "mR v",
      "ha s",
      "Nf f",
      "As tttW",
      "WU V",
      "Qs Ae",
      "llt bN",
      "iY ww",
      "Xx L",
      "WsTt Tsu",
      "D qD",
      "D Ie",
      "F hs",
      "G oxd",
      "V @",
      "V zN",
      "W nn",
      "Y x",
      "Z Dg",
      "b tw",
      "b qs",
      "c bo",
      "h P",
      "n et",
      "z lJ",
      "sW IZ",
      "Ne J",
      "Nd J",
      "qD g",
      "tN sW",
      "Nz a",
      "te s",
      "wQ F",
      "qs l",
      "Nc b",
      "sn D",
      "by P",
      "NWes T",
      "VaW l",
      "NdtWt W",
      "! @",
      "1 71",
      "F lJ",
      "K qDM",
      "S WW",
      "a tN",
      "r tW",
      "w at",
      "NN p",
      "24 6",
      "ll b",
      "re t",
      "ah raW",
      "nw Cq",
      "bD OI",
      "lh y",
      "bg wI",
      "Cs n",
      "qt al",
      "mR L",
      "GI vmn",
      "Oq E",
      "NR h",
      "wa g",
      "A E",
      "A u",
      "C Cw",
      "F !Q",
      "K qD",
      "N al",
      "W wZ",
      "X i",
      "b Ws",
      "d If",
      "f n",
      "h Wd",
      "i bC",
      "m H",
      "m bT",
      "n sZ",
      "o qC",
      "q fc",
      "r sW",
      "u O",
      "u te",
      "y wI",
      "Js w",
      "WW F",
      "WW bn",
      "lJ dp",
      "ah As",
      "11 9",
      "nI x",
      "Nw J",
      "tN t",
      "bD vg",
      "aW rN",
      "nr j",
      "nN td",
      "lW Nn",
      "Nq g",
      "rz sf",
      "16 9",
      "Zl I",
      "sr sQ",
      "Dh lh",
      "Je w",
      "zh Nerz",
      "wf m",
      "Oo w",
      "eL Cq",
      "my x",
      "bo f",
      "bl L",
      "eg bc",
      "ru e",
      "iY q",
      "str Ndal",
      "nY II",
      "RO cw",
      "A cd",
      "B Nb",
      "C lw",
      "C ld",
      "K p",
      "L bc",
      "V tw",
      "b eS",
      "f P",
      "f p",
      "i zh",
      "m qq",
      "n fa",
      "s tW",
      "s ts",
      "x W",
      "z WN",
      "z gI",
      "Js B",
      "WN CW",
      "Iw D",
      "Nq N",
      "Nb Wh",
      "sa O",
      "bw n",
      "eT !!",
      "qq v",
      "WV lV",
      "eW S",
      "Do fY",
      "eLnq i",
      "QT Nn",
      "dWV ra",
      "1 94",
      "B bO",
      "D Nb",
      "E X",
      "E Iq",
      "E Iz",
      "G qw",
      "J as",
      "K e",
      "O Nd",
      "O ww",
      "Q Jw",
      "V X",
      "a Ns",
      "a ZZ",
      "a Cs",
      "c ls",
      "l wZ",
      "o S",
      "o OZ",
      "s DO",
      "Js We",
      "Nn G",
      "ss nth",
      "al b",
      "nr Du",
      "su tA",
      "18 1",
      "ar tr",
      "As Wt",
      "mP L",
      "mP v",
      "oO R",
      "rl NZ",
      "WsN Wt",
      "JlZ Wh",
      "WtrNb ah",
      "gbB KM",
      "A S",
      "F Ne",
      "N Wq",
      "U P",
      "Y Iw",
      "Z sll",
      "a H",
      "e cB",
      "i OB",
      "j qq",
      "n Ws",
      "y lN",
      "sW h",
      "Ws Je",
      "ah O",
      "WN B",
      "tt Wr",
      "Iw K",
      "ss nOh",
      "nO wN",
      "sa N",
      "nB IN",
      "la w",
      "qs h",
      "rn Dh",
      "Gqq E",
      "lsN Wa",
      "! NZ",
      "C k",
      "J Qt",
      "M e",
      "S u",
      "T CS",
      "X Wv",
      "b ll",
      "j i",
      "m dV",
      "n Ww",
      "r We",
      "ll c",
      "ll e",
      "NZ tt",
      "sW wI",
      "nw R",
      "bD a",
      "bD g",
      "nO wB",
      "nr Ql",
      "II n",
      "Nr t",
      "Wh t",
      "Nq tt",
      "DD D",
      "nB RyI",
      "bw d",
      "lN H",
      "sr t",
      "Ig D",
      "Wq Nd",
      "Jt a",
      "cd i",
      "!N u",
      "Dq B",
      "gg bN",
      "Q! lld",
      "YR If",
      "md L",
      "Wm Q",
      "WsW rss",
      "nrG ww",
      "QhsWd TNZ",
      "7 21",
      "8 67",
      "C ny",
      "F IN",
      "F FX",
      "N L",
      "N aJ",
      "O Vt",
      "T Jr",
      "U WJ",
      "V K",
      "a Ow",
      "d et",
      "h o",
      "h v",
      "h tr",
      "h Ow",
      "i GZ",
      "l CZ",
      "m re",
      "n NN",
      "n Cs",
      "n Jw",
      "r AN",
      "r nrf",
      "w Jt",
      "w Nds",
      "y IB",
      "lJ b",
      "WN W",
      "qD ny",
      "Jq B",
      "lq Tz",
      "dh t",
      "eN a",
      "Db g",
      "sr sQN",
      "bR i",
      "DN JW",
      "qa U",
      "bg Cq",
      "aV ZF",
      "oB c",
      "zc b",
      "YI L",
      "DV Z",
      "by Wb",
      "DE Iq",
      "nd Z",
      "tA ts",
      "wg a",
      "bNN WW",
      "A i",
      "A Ns",
      "B ns",
      "C wZ",
      "E G",
      "E cw",
      "F Wt",
      "F DL",
      "G T",
      "M BR",
      "O bx",
      "V T",
      "c Aa",
      "g bN",
      "h E",
      "n ha",
      "p Zp",
      "v P",
      "w qE",
      "z H",
      "z rz",
      "wI r",
      "We B",
      "nw Y",
      "su d",
      "lq h",
      "ds U",
      "sa g",
      "ID z",
      "ld n",
      "qs V",
      "Qs TWnnNn",
      "IE R",
      "nJ b",
      "fA rt",
      "EI DD",
      "oo d",
      "Dl v",
      "sll w",
      "Lg G",
      "iG ww",
      "ufc h",
      "WsTW Tsu",
      "lZWe sd!",
      "7 78",
      "O tZ",
      "U Nz",
      "W II",
      "b eV",
      "e qW",
      "f Nn",
      "i bR",
      "m Ww",
      "m WV",
      "q ar",
      "r Vt",
      "u ri",
      "x qO",
      "y IZ",
      "z qW",
      "nB ad",
      "Wb g",
      "DO y",
      "cc n",
      "mD N",
      "AN A",
      "sr nOL",
      "lZ e",
      "wl b",
      "qa s",
      "WB n",
      "rr q",
      "BR Iq",
      "Tn tZ",
      "cf f",
      "sl n",
      "sh nrNd",
      "lZWs Zd!",
      "eTAV UnQNsQ",
      "nIOr DgmB",
      "3 5",
      "A f",
      "A sW",
      "A Ow",
      "F re",
      "N Fn",
      "Q Vq",
      "Y J",
      "b zh",
      "c lq",
      "g Is",
      "h Ns",
      "h OD",
      "j f",
      "p P",
      "q aW",
      "s wJ",
      "WW D",
      "tr zV",
      "tt s",
      "ww r",
      "Wa u",
      "26 7",
      "ss naV",
      "tN Or",
      "aW U",
      "bB F",
      "rz sQ",
      "na t",
      "Wr re",
      "Zl r",
      "gI Z",
      "lZ es",
      "qW g",
      "ng w",
      "aV raW",
      "cd V",
      "yI qD",
      "ha p",
      "19 9",
      "by W",
      "sd Wh",
      "qC J",
      "dG Td",
      "Fh u",
      "!NN e",
      "nx Igi",
      "824 2",
      "! L",
      "9 82",
      "A ll",
      "C Ii",
      "D nI",
      "D zq",
      "G Iw",
      "K cR",
      "M d",
      "O mB",
      "O EE",
      "Q dl",
      "W ah",
      "W cc",
      "W ny",
      "c nq",
      "c qE",
      "e Wb",
      "r mA",
      "z wa",
      "NN ds",
      "NZ N",
      "Ne tN",
      "WN Q",
      "qD v",
      "ls B",
      "aa l",
      "Iw o",
      "Nw b",
      "Nq i",
      "ts F",
      "Db bX",
      "gI g",
      "Ow bO",
      "DN c",
      "ng wc",
      "aV N",
      "zq fo",
      "Un d",
      "rr n",
      "dV t",
      "ta nZ",
      "ha Z",
      "bC h",
      "BZ w",
      "f! lld",
      "Ot D",
      "lC d",
      "bE v",
      "vM o",
      "ehNere NlW",
      "el H",
      "zJ H",
      "8 12",
      "8 08",
      "C @",
      "G st",
      "I bn",
      "K DE",
      "M Nf",
      "O Iz",
      "R qr",
      "T oL",
      "b sq",
      "g lq",
      "j a",
      "m Iq",
      "r MB",
      "w H",
      "w lW",
      "NZ ta",
      "Ws B",
      "84 6",
      "ww J",
      "al r",
      "nw j",
      "nr Y",
      "mn h",
      "mn Db",
      "Nb tN",
      "Wd U",
      "dh l",
      "Dh y",
      "cB o",
      "bg B",
      "cd v",
      "Oo gnO",
      "bwQ m",
      "CDb o",
      "! tZ",
      "! ZZ",
      "A WZ",
      "F la",
      "G sZ",
      "K J",
      "N JN",
      "N !A",
      "P qB",
      "V wZ",
      "W lW",
      "c Jq",
      "f Ez",
      "i ev",
      "l nb",
      "x bD",
      "y IN",
      "z cw",
      "wI d",
      "Ns h",
      "bn D",
      "ss Cl",
      "lh p",
      "Nr Ws",
      "DO I",
      "cc A",
      "27 4",
      "rN pd",
      "ar r",
      "sZ y",
      "an d",
      "DN o",
      "!s h",
      "WV As",
      "bb Wb",
      "NQ QNh",
      "Wc Z",
      "qN R",
      "QhsWd TN",
      "ehnq U",
      "! zh",
      "! rr",
      "F Ws",
      "I Ez",
      "I dA",
      "N WsTn",
      "Q dt",
      "T ld",
      "V aD",
      "X U",
      "a nrf",
      "e wg",
      "t Ib",
      "x f",
      "z nz",
      "Js ne",
      "ll I",
      "Ns i",
      "ls Xe",
      "bO Eq",
      "cw m",
      "mn gDb",
      "DD P",
      "WO I",
      "Ie R",
      "Bw b",
      "ZZ n",
      "qg n",
      "Jw sS",
      "EE m",
      "by Dm",
      "bT bq",
      "mg L",
      "fo v",
      "Dl L",
      "pd U",
      "ssnah na",
      "dVtr r",
      "CsTe G",
      "A WJ",
      "C sW",
      "D Cw",
      "D oB",
      "G y",
      "G bB",
      "L qC",
      "N DN",
      "N !N",
      "O Is",
      "Q Ow",
      "V P",
      "X Im",
      "b NZWt",
      "i zL",
      "o Y",
      "p X",
      "q JW",
      "u JZ",
      "x Q",
      "NN m",
      "Wt a",
      "Nn al",
      "qD a",
      "ww C",
      "WZ N",
      "We c",
      "bO Qs",
      "bD ww",
      "tW D",
      "cw W",
      "lh S",
      "nc y",
      "Bw m",
      "sr nOV",
      "64 82",
      "bx i",
      "Wn nB",
      "eX A",
      "WtZ Ww",
      "bwf m",
      "rp s",
      "UJN XJ",
      "a! n",
      "QNV Nr",
      "! zv",
      "C Ew",
      "F lA",
      "M cQ",
      "M Pi",
      "O tw",
      "R DB",
      "T Wnnc",
      "U esQ",
      "X V",
      "X qu",
      "d aC",
      "f dl",
      "h Y",
      "i Iz",
      "i eL",
      "j O",
      "j n",
      "m qU",
      "u RNn",
      "NN fS",
      "ll wW",
      "re n",
      "Ne uA",
      "Nd W",
      "nI gc",
      "tZ NS"
    ]
  }
}