{
  "version": "1.0",
  "truncation": null,
  "padding": null,
  "added_tokens": [
    {
      "id": 0,
      "content": "[UNK]",
      "single_word": false,
      "lstrip": false,
      "rstrip": false,
      "normalized": false,
      "special": true
    },
    {
      "id": 1,
      "content": "[CLS]",
      "single_word": false,
      "lstrip": false,
      "rstrip": false,
      "normalized": false,
      "special": true
    },
    {
      "id": 2,
      "content": "[SEP]",
      "single_word": false,
      "lstrip": false,
      "rstrip": false,
      "normalized": false,
      "special": true
    },
    {
      "id": 3,
      "content": "[PAD]",
      "single_word": false,
      "lstrip": false,
      "rstrip": false,
      "normalized": false,
      "special": true
    },
    {
      "id": 4,
      "content": "[MASK]",
      "single_word": false,
      "lstrip": false,
      "rstrip": false,
      "normalized": false,
      "special": true
    },
    {
      "id": 5,
      "content": "[BOS]",
      "single_word": false,
      "lstrip": false,
      "rstrip": false,
      "normalized": false,
      "special": true
    },
    {
      "id": 6,
      "content": "[EOS]",
      "single_word": false,
      "lstrip": false,
      "rstrip": false,
      "normalized": false,
      "special": true
    }
  ],
  "normalizer": null,
  "pre_tokenizer": null,
  "post_processor": {
    "type": "TemplateProcessing",
    "single": [
      {
        "SpecialToken": {
          "id": "[BOS]",
          "type_id": 0
        }
      },
      {
        "Sequence": {
          "id": "A",
          "type_id": 0
        }
      },
      {
        "SpecialToken": {
          "id": "[EOS]",
          "type_id": 0
        }
      }
    ],
    "pair": [
      {
        "Sequence": {
          "id": "A",
          "type_id": 0
        }
      },
      {
        "Sequence": {
          "id": "B",
          "type_id": 1
        }
      }
    ],
    "special_tokens": {
      "[BOS]": {
        "id": "[BOS]",
        "ids": [
          5
        ],
        "tokens": [
          "[BOS]"
        ]
      },
      "[EOS]": {
        "id": "[EOS]",
        "ids": [
          6
        ],
        "tokens": [
          "[EOS]"
        ]
      }
    }
  },
  "decoder": {
    "type": "ByteLevel",
    "add_prefix_space": true,
    "trim_offsets": true,
    "use_regex": true
  },
  "model": {
    "type": "BPE",
    "dropout": null,
    "unk_token": null,
    "continuing_subword_prefix": null,
    "end_of_word_suffix": null,
    "fuse_unk": false,
    "vocab": {
      "[UNK]": 0,
      "[CLS]": 1,
      "[SEP]": 2,
      "[PAD]": 3,
      "[MASK]": 4,
      "[BOS]": 5,
      "[EOS]": 6,
      "!": 7,
      "0": 8,
      "1": 9,
      "2": 10,
      "3": 11,
      "4": 12,
      "5": 13,
      "6": 14,
      "7": 15,
      "8": 16,
      "9": 17,
      "@": 18,
      "A": 19,
      "B": 20,
      "C": 21,
      "D": 22,
      "E": 23,
      "F": 24,
      "G": 25,
      "H": 26,
      "I": 27,
      "J": 28,
      "K": 29,
      "L": 30,
      "M": 31,
      "N": 32,
      "O": 33,
      "P": 34,
      "Q": 35,
      "R": 36,
      "S": 37,
      "T": 38,
      "U": 39,
      "V": 40,
      "W": 41,
      "X": 42,
      "Y": 43,
      "Z": 44,
      "a": 45,
      "b": 46,
      "c": 47,
      "d": 48,
      "e": 49,
      "f": 50,
      "g": 51,
      "h": 52,
      "i": 53,
      "j": 54,
      "k": 55,
      "l": 56,
      "m": 57,
      "n": 58,
      "o": 59,
      "p": 60,
      "q": 61,
      "r": 62,
      "s": 63,
      "t": 64,
      "u": 65,
      "v": 66,
      "w": 67,
      "x": 68,
      "y": 69,
      "z": 70,
      "zz": 71,
      "ww": 72,
      "qq": 73,
      "IE": 74,
      "Iz": 75,
      "wz": 76,
      "zq": 77,
      "Iq": 78,
      "wE": 79,
      "wq": 80,
      "Dq": 81,
      "II": 82,
      "EE": 83,
      "Iw": 84,
      "zw": 85,
      "zD": 86,
      "zE": 87,
      "If": 88,
      "Dw": 89,
      "yy": 90,
      "zI": 91,
      "qw": 92,
      "yE": 93,
      "zx": 94,
      "DE": 95,
      "DI": 96,
      "zo": 97,
      "qE": 98,
      "4I": 99,
      "Rq": 100,
      "zf": 101,
      "9I": 102,
      "wI": 103,
      "Dy": 104,
      "z0": 105,
      "0E": 106,
      "zy": 107,
      "DD": 108,
      "Rw": 109,
      "RE": 110,
      "xE": 111,
      "zb": 112,
      "zi": 113,
      "Iy": 114,
      "qD": 115,
      "bb": 116,
      "ze": 117,
      "oo": 118,
      "YE": 119,
      "oE": 120,
      "wf": 121,
      "yq": 122,
      "Db": 123,
      "00": 124,
      "IR": 125,
      "zR": 126,
      "Ix": 127,
      "zK": 128,
      "yw": 129,
      "fE": 130,
      "cc": 131,
      "LE": 132,
      "DO": 133,
      "zO": 134,
      "Io": 135,
      "zP": 136,
      "Rb": 137,
      "ID": 138,
      "IY": 139,
      "IO": 140,
      "fq": 141,
      "0q": 142,
      "PE": 143,
      "4q": 144,
      "9q": 145,
      "0o": 146,
      "4w": 147,
      "0w": 148,
      "zY": 149,
      "4Y": 150,
      "zL": 151,
      "Dc": 152,
      "0x": 153,
      "oy": 154,
      "zc": 155,
      "Dx": 156,
      "ox": 157,
      "DL": 158,
      "nq": 159,
      "dy": 160,
      "DY": 161,
      "Ey": 162,
      "bq": 163,
      "oq": 164,
      "0L": 165,
      "9w": 166,
      "Df": 167,
      "RO": 168,
      "zn": 169,
      "YY": 170,
      "zB": 171,
      "ow": 172,
      "I9": 173,
      "zX": 174,
      "44": 175,
      "0y": 176,
      "bw": 177,
      "Eq": 178,
      "IP": 179,
      "bO": 180,
      "zW": 181,
      "iq": 182,
      "Yq": 183,
      "fw": 184,
      "IL": 185,
      "Ew": 186,
      "Do": 187,
      "0c": 188,
      "0i": 189,
      "xx": 190,
      "zd": 191,
      "Di": 192,
      "Kq": 193,
      "Oq": 194,
      "nw": 195,
      "Ic": 196,
      "z9": 197,
      "z4": 198,
      "DB": 199,
      "Lw": 200,
      "oc": 201,
      "xq": 202,
      "0O": 203,
      "Yw": 204,
      "Ib": 205,
      "Rc": 206,
      "XE": 207,
      "dE": 208,
      "ff": 209,
      "I4": 210,
      "Pq": 211,
      "iE": 212,
      "PR": 213,
      "0b": 214,
      "oL": 215,
      "OE": 216,
      "oi": 217,
      "BE": 218,
      "Rf": 219,
      "RD": 220,
      "Kw": 221,
      "KE": 222,
      "WE": 223,
      "bE": 224,
      "y9": 225,
      "zs": 226,
      "Lq": 227,
      "3E": 228,
      "ee": 229,
      "IX": 230,
      "Ii": 231,
      "Ow": 232,
      "xY": 233,
      "DX": 234,
      "zZ": 235,
      "bc": 236,
      "eq": 237,
      "z!": 238,
      "gE": 239,
      "yf": 240,
      "I0": 241,
      "cE": 242,
      "zv": 243,
      "Rd": 244,
      "Iv": 245,
      "Wq": 246,
      "Xq": 247,
      "Id": 248,
      "Rx": 249,
      "zg": 250,
      "Ie": 251,
      "iY": 252,
      "CE": 253,
      "In": 254,
      "Oy": 255,
      "Px": 256,
      "IZ": 257,
      "Ry": 258,
      "o0": 259,
      "RB": 260,
      "oO": 261,
      "iw": 262,
      "zr": 263,
      "I3": 264,
      "cw": 265,
      "gq": 266,
      "4D": 267,
      "LY": 268,
      "fy": 269,
      "eE": 270,
      "0B": 271,
      "ey": 272,
      "gw": 273,
      "f9": 274,
      "IK": 275,
      "cy": 276,
      "cq": 277,
      "zm": 278,
      "xw": 279,
      "4y": 280,
      "vE": 281,
      "vw": 282,
      "Xw": 283,
      "LL": 284,
      "zu": 285,
      "oD": 286,
      "OO": 287,
      "nE": 288,
      "xy": 289,
      "ob": 290,
      "z3": 291,
      "0f": 292,
      "Pw": 293,
      "0D": 294,
      "Ly": 295,
      "RY": 296,
      "vq": 297,
      "ii": 298,
      "Ig": 299,
      "9E": 300,
      "Bw": 301,
      "oX": 302,
      "4i": 303,
      "Iu": 304,
      "fx": 305,
      "dq": 306,
      "ny": 307,
      "KK": 308,
      "BY": 309,
      "Ri": 310,
      "IW": 311,
      "Bq": 312,
      "fb": 313,
      "zM": 314,
      "Zw": 315,
      "09": 316,
      "LD": 317,
      "nO": 318,
      "bD": 319,
      "Ro": 320,
      "bY": 321,
      "Zq": 322,
      "ew": 323,
      "vx": 324,
      "Po": 325,
      "zzzz": 326,
      "Wy": 327,
      "nc": 328,
      "uq": 329,
      "vy": 330,
      "XX": 331,
      "ex": 332,
      "Pf": 333,
      "nY": 334,
      "0R": 335,
      "9c": 336,
      "9D": 337,
      "sq": 338,
      "4E": 339,
      "nx": 340,
      "mE": 341,
      "4c": 342,
      "o!": 343,
      "z7": 344,
      "IC": 345,
      "zC": 346,
      "40": 347,
      "Dg": 348,
      "PP": 349,
      "zN": 350,
      "I!": 351,
      "nD": 352,
      "OL": 353,
      "Yy": 354,
      "xi": 355,
      "aw": 356,
      "3q": 357,
      "fd": 358,
      "nb": 359,
      "0X": 360,
      "9b": 361,
      "ei": 362,
      "Li": 363,
      "IM": 364,
      "RN": 365,
      "WD": 366,
      "fD": 367,
      "IQ": 368,
      "9O": 369,
      "Ww": 370,
      "dX": 371,
      "eo": 372,
      "!E": 373,
      "9y": 374,
      "fo": 375,
      "Is": 376,
      "Kx": 377,
      "zt": 378,
      "Rg": 379,
      "IB": 380,
      "Cq": 381,
      "eL": 382,
      "4L": 383,
      "4n": 384,
      "dL": 385,
      "Xx": 386,
      "6y": 387,
      "Oc": 388,
      "uE": 389,
      "4K": 390,
      "Ob": 391,
      "oB": 392,
      "vL": 393,
      "ME": 394,
      "D0": 395,
      "4X": 396,
      "DK": 397,
      "by": 398,
      "WL": 399,
      "zF": 400,
      "Ox": 401,
      "dw": 402,
      "nR": 403,
      "n3": 404,
      "nB": 405,
      "fY": 406,
      "no": 407,
      "PL": 408,
      "Xy": 409,
      "9e": 410,
      "z2": 411,
      "ni": 412,
      "uw": 413,
      "0r": 414,
      "4b": 415,
      "0!": 416,
      "Mq": 417,
      "zA": 418,
      "oK": 419,
      "0v": 420,
      "FE": 421,
      "Rm": 422,
      "sw": 423,
      "DP": 424,
      "Yc": 425,
      "4P": 426,
      "zQ": 427,
      "4B": 428,
      "nK": 429,
      "aq": 430,
      "Of": 431,
      "4e": 432,
      "RK": 433,
      "De": 434,
      "iL": 435,
      "xK": 436,
      "sE": 437,
      "cb": 438,
      "DN": 439,
      "nf": 440,
      "xo": 441,
      "xL": 442,
      "yY": 443,
      "0Y": 444,
      "D3": 445,
      "IG": 446,
      "xR": 447,
      "iK": 448,
      "Dv": 449,
      "ZE": 450,
      "9B": 451,
      "cL": 452,
      "3w": 453,
      "Dd": 454,
      "Cy": 455,
      "Zy": 456,
      "9Y": 457,
      "fR": 458,
      "0K": 459,
      "Py": 460,
      "It": 461,
      "Dm": 462,
      "Cw": 463,
      "iy": 464,
      "94": 465,
      "nL": 466,
      "fL": 467,
      "0d": 468,
      "Oo": 469,
      "DR": 470,
      "eX": 471,
      "0g": 472,
      "WW": 473,
      "9L": 474,
      "ri": 475,
      "Pi": 476,
      "nn": 477,
      "vc": 478,
      "Gq": 479,
      "tE": 480,
      "DW": 481,
      "OX": 482,
      "vo": 483,
      "tq": 484,
      "xe": 485,
      "OY": 486,
      "AE": 487,
      "4W": 488,
      "3y": 489,
      "Du": 490,
      "Kb": 491,
      "I6": 492,
      "Ia": 493,
      "Gw": 494,
      "ne": 495,
      "Qq": 496,
      "9i": 497,
      "0N": 498,
      "WR": 499,
      "By": 500,
      "Mb": 501,
      "fc": 502,
      "DC": 503,
      "9W": 504,
      "9g": 505,
      "RR": 506,
      "rq": 507,
      "XL": 508,
      "Yb": 509,
      "za": 510,
      "fi": 511,
      "Ds": 512,
      "!i": 513,
      "Bb": 514,
      "Mw": 515,
      "og": 516,
      "RP": 517,
      "xP": 518,
      "DZ": 519,
      "eK": 520,
      "rr": 521,
      "of": 522,
      "cO": 523,
      "0P": 524,
      "ng": 525,
      "03": 526,
      "D!": 527,
      "RW": 528,
      "sy": 529,
      "fO": 530,
      "fX": 531,
      "mq": 532,
      "nP": 533,
      "rE": 534,
      "wy": 535,
      "vO": 536,
      "WX": 537,
      "Rt": 538,
      "Wi": 539,
      "NE": 540,
      "D9": 541,
      "vX": 542,
      "2y": 543,
      "QE": 544,
      "qqq": 545,
      "DM": 546,
      "Dt": 547,
      "oY": 548,
      "vB": 549,
      "uY": 550,
      "Cx": 551,
      "FR": 552,
      "4R": 553,
      "cB": 554,
      "4O": 555,
      "LP": 556,
      "ib": 557,
      "oN": 558,
      "GE": 559,
      "IA": 560,
      "oP": 561,
      "zwz": 562,
      "4Z": 563,
      "ie": 564,
      "Yf": 565,
      "xX": 566,
      "0W": 567,
      "Qy": 568,
      "oe": 569,
      "9K": 570,
      "or": 571,
      "zzq": 572,
      "mw": 573,
      "vi": 574,
      "9N": 575,
      "4f": 576,
      "OB": 577,
      "LK": 578,
      "xb": 579,
      "Xb": 580,
      "Oi": 581,
      "dd": 582,
      "xf": 583,
      "zqq": 584,
      "www": 585,
      "YR": 586,
      "9n": 587,
      "ci": 588,
      "0Z": 589,
      "eb": 590,
      "zIz": 591,
      "D4": 592,
      "9R": 593,
      "ov": 594,
      "9X": 595,
      "0u": 596,
      "Qw": 597,
      "Im": 598,
      "Yx": 599,
      "Lb": 600,
      "zG": 601,
      "!q": 602,
      "gR": 603,
      "zU": 604,
      "0C": 605,
      "0t": 606,
      "Dn": 607,
      "!4": 608,
      "Lx": 609,
      "Le": 610,
      "fW": 611,
      "o9": 612,
      "4s": 613,
      "fe": 614,
      "0e": 615,
      "Ir": 616,
      "oW": 617,
      "yc": 618,
      "vg": 619,
      "fM": 620,
      "43": 621,
      "BB": 622,
      "IN": 623,
      "9P": 624,
      "6E": 625,
      "Re": 626,
      "cx": 627,
      "di": 628,
      "yP": 629,
      "Dr": 630,
      "Ru": 631,
      "!W": 632,
      "Ki": 633,
      "lq": 634,
      "KB": 635,
      "Qb": 636,
      "o3": 637,
      "nX": 638,
      "ZZ": 639,
      "We": 640,
      "z5": 641,
      "2E": 642,
      "I5": 643,
      "6q": 644,
      "fB": 645,
      "KO": 646,
      "gx": 647,
      "!e": 648,
      "YP": 649,
      "Lc": 650,
      "Pv": 651,
      "7E": 652,
      "0s": 653,
      "Ky": 654,
      "Yi": 655,
      "Rs": 656,
      "IEE": 657,
      "de": 658,
      "4v": 659,
      "Kc": 660,
      "Rn": 661,
      "R3": 662,
      "dW": 663,
      "uy": 664,
      "!y": 665,
      "bB": 666,
      "z6": 667,
      "2X": 668,
      "zwE": 669,
      "Cf": 670,
      "LO": 671,
      "cX": 672,
      "Ye": 673,
      "xD": 674,
      "bi": 675,
      "9f": 676,
      "Il": 677,
      "KP": 678,
      "wwq": 679,
      "Izz": 680,
      "gy": 681,
      "RZ": 682,
      "db": 683,
      "LW": 684,
      "cN": 685,
      "nC": 686,
      "df": 687,
      "gB": 688,
      "vv": 689,
      "ot": 690,
      "eO": 691,
      "YO": 692,
      "Xf": 693,
      "dR": 694,
      "oC": 695,
      "nN": 696,
      "iP": 697,
      "4m": 698,
      "3Y": 699,
      "!!": 700,
      "ns": 701,
      "9Z": 702,
      "qqw": 703,
      "tw": 704,
      "nZ": 705,
      "od": 706,
      "wwE": 707,
      "ou": 708,
      "Wx": 709,
      "jE": 710,
      "0M": 711,
      "LR": 712,
      "Bx": 713,
      "IIE": 714,
      "oG": 715,
      "rw": 716,
      "vf": 717,
      "gY": 718,
      "ix": 719,
      "9s": 720,
      "9x": 721,
      "I7": 722,
      "RX": 723,
      "yb": 724,
      "wqw": 725,
      "f!": 726,
      "oA": 727,
      "4r": 728,
      "R!": 729,
      "vb": 730,
      "4x": 731,
      "f3": 732,
      "IzE": 733,
      "PO": 734,
      "Rr": 735,
      "dV": 736,
      "yO": 737,
      "yx": 738,
      "wzq": 739,
      "YK": 740,
      "90": 741,
      "nm": 742,
      "ub": 743,
      "zIE": 744,
      "DG": 745,
      "MO": 746,
      "wEE": 747,
      "om": 748,
      "93": 749,
      "UE": 750,
      "gc": 751,
      "zzE": 752,
      "zT": 753,
      "7q": 754,
      "nW": 755,
      "yi": 756,
      "Pe": 757,
      "Xd": 758,
      "n0": 759,
      "R0": 760,
      "Aq": 761,
      "DQ": 762,
      "RL": 763,
      "Xi": 764,
      "45": 765,
      "VE": 766,
      "fu": 767,
      "PY": 768,
      "gL": 769,
      "gi": 770,
      "Cb": 771,
      "nv": 772,
      "Ke": 773,
      "wY": 774,
      "!r": 775,
      "Bc": 776,
      "XO": 777,
      "zww": 778,
      "zwq": 779,
      "Xc": 780,
      "zl": 781,
      "DF": 782,
      "Da": 783,
      "3x": 784,
      "9t": 785,
      "9r": 786,
      "WY": 787,
      "bx": 788,
      "3i": 789,
      "oR": 790,
      "66": 791,
      "IwE": 792,
      "os": 793,
      "zzw": 794,
      "0m": 795,
      "9m": 796,
      "aE": 797,
      "ev": 798,
      "IqE": 799,
      "n!": 800,
      "9II": 801,
      "CX": 802,
      "fs": 803,
      "5w": 804,
      "nF": 805,
      "0G": 806,
      "gO": 807,
      "7i": 808,
      "o4": 809,
      "zze": 810,
      "RM": 811,
      "Wb": 812,
      "6w": 813,
      "Cd": 814,
      "Kf": 815,
      "5q": 816,
      "KY": 817,
      "0a": 818,
      "Lv": 819,
      "wzw": 820,
      "iB": 821,
      "o2": 822,
      "dx": 823,
      "0A": 824,
      "zV": 825,
      "!x": 826,
      "Ks": 827,
      "Wr": 828,
      "on": 829,
      "!w": 830,
      "ON": 831,
      "fQ": 832,
      "Ij": 833,
      "PZ": 834,
      "RC": 835,
      "gZ": 836,
      "4N": 837,
      "PB": 838,
      "7x": 839,
      "bN": 840,
      "be": 841,
      "9Iz": 842,
      "fZ": 843,
      "0F": 844,
      "I2": 845,
      "R2": 846,
      "u3": 847,
      "0n": 848,
      "IT": 849,
      "ac": 850,
      "re": 851,
      "yZ": 852,
      "IF": 853,
      "cY": 854,
      "nt": 855,
      "oZ": 856,
      "W4": 857,
      "dv": 858,
      "yyy": 859,
      "PX": 860,
      "sx": 861,
      "R4": 862,
      "bt": 863,
      "cf": 864,
      "dY": 865,
      "iO": 866,
      "uO": 867,
      "04": 868,
      "BO": 869,
      "LX": 870,
      "D2": 871,
      "dr": 872,
      "lw": 873,
      "5E": 874,
      "Kg": 875,
      "dG": 876,
      "0Q": 877,
      "wqE": 878,
      "Dwz": 879,
      "Lr": 880,
      "YX": 881,
      "6X": 882,
      "BR": 883,
      "Nq": 884,
      "SE": 885,
      "C3": 886,
      "BL": 887,
      "Iww": 888,
      "02": 889,
      "nr": 890,
      "uc": 891,
      "Be": 892,
      "Km": 893,
      "aO": 894,
      "n4": 895,
      "sL": 896,
      "zJ": 897,
      "qqE": 898,
      "99": 899,
      "Qe": 900,
      "YW": 901,
      "GG": 902,
      "P3": 903,
      "bf": 904,
      "yR": 905,
      "CL": 906,
      "Og": 907,
      "co": 908,
      "KR": 909,
      "Ko": 910,
      "Dqw": 911,
      "KZ": 912,
      "si": 913,
      "xW": 914,
      "bW": 915,
      "dD": 916,
      "lE": 917,
      "ye": 918,
      "zIq": 919,
      "zII": 920,
      "4g": 921,
      "uf": 922,
      "yX": 923,
      "bg": 924,
      "nM": 925,
      "Bi": 926,
      "ct": 927,
      "yW": 928,
      "ss": 929,
      "xO": 930,
      "Y4": 931,
      "C!": 932,
      "RQ": 933,
      "YL": 934,
      "eD": 935,
      "v3": 936,
      "Izq": 937,
      "e!": 938,
      "Fq": 939,
      "KD": 940,
      "Tq": 941,
      "Ni": 942,
      "bX": 943,
      "P9": 944,
      "zqE": 945,
      "OM": 946,
      "P!": 947,
      "n2": 948,
      "yd": 949,
      "N4": 950,
      "aB": 951,
      "rL": 952,
      "uM": 953,
      "xg": 954,
      "3L": 955,
      "QL": 956,
      "cD": 957,
      "1E": 958,
      "Wv": 959,
      "bo": 960,
      "yL": 961,
      "aZ": 962,
      "IJ": 963,
      "OD": 964,
      "b4": 965,
      "v!": 966,
      "Ny": 967,
      "Uq": 968,
      "Wo": 969,
      "ef": 970,
      "ux": 971,
      "W9": 972,
      "cr": 973,
      "PD": 974,
      "Pg": 975,
      "Pn": 976,
      "fm": 977,
      "PA": 978,
      "0zz": 979,
      "K!": 980,
      "QX": 981,
      "R9": 982,
      "bM": 983,
      "nd": 984,
      "wO": 985,
      "zj": 986,
      "hE": 987,
      "DqE": 988,
      "Zi": 989,
      "sX": 990,
      "Iwz": 991,
      "zEE": 992,
      "PK": 993,
      "Co": 994,
      "xB": 995,
      "W!": 996,
      "xv": 997,
      "IfE": 998,
      "D6": 999,
      "KX": 1000,
      "n9": 1001,
      "ty": 1002,
      "Pd": 1003,
      "o6": 1004,
      "CB": 1005,
      "Dzz": 1006,
      "eY": 1007,
      "7y": 1008,
      "Iqq": 1009,
      "Ou": 1010,
      "bu": 1011,
      "e4": 1012,
      "mi": 1013,
      "cG": 1014,
      "nu": 1015,
      "c3": 1016,
      "f4": 1017,
      "0U": 1018,
      "P4": 1019,
      "c!": 1020,
      "cW": 1021,
      "yB": 1022,
      "7w": 1023,
      "CO": 1024,
      "eW": 1025,
      "ti": 1026,
      "IU": 1027,
      "TE": 1028,
      "dQ": 1029,
      "rW": 1030,
      "xn": 1031,
      "Aw": 1032,
      "IV": 1033,
      "bm": 1034,
      "iX": 1035,
      "sO": 1036,
      "Cu": 1037,
      "fP": 1038,
      "x9": 1039,
      "zqw": 1040,
      "Fw": 1041,
      "Lg": 1042,
      "Lo": 1043,
      "OG": 1044,
      "YD": 1045,
      "oa": 1046,
      "xd": 1047,
      "YB": 1048,
      "ZB": 1049,
      "KW": 1050,
      "ed": 1051,
      "Izw": 1052,
      "2q": 1053,
      "fg": 1054,
      "z1": 1055,
      "LB": 1056,
      "zIw": 1057,
      "PQ": 1058,
      "RF": 1059,
      "iv": 1060,
      "o7": 1061,
      "0V": 1062,
      "ZX": 1063,
      "n7": 1064,
      "rx": 1065,
      "06": 1066,
      "07": 1067,
      "Ps": 1068,
      "d9": 1069,
      "IS": 1070,
      "KN": 1071,
      "O!": 1072,
      "e9": 1073,
      "4F": 1074,
      "Ci": 1075,
      "CM": 1076,
      "Cc": 1077,
      "Dww": 1078,
      "Gy": 1079,
      "zDq": 1080,
      "IIz": 1081,
      "PM": 1082,
      "bL": 1083,
      "fK": 1084,
      "IEq": 1085,
      "Iqw": 1086,
      "Qi": 1087,
      "bn": 1088,
      "XB": 1089,
      "gg": 1090,
      "zyE": 1091,
      "39": 1092,
      "d!": 1093,
      "iD": 1094,
      "vN": 1095,
      "xm": 1096,
      "3B": 1097,
      "Ot": 1098,
      "Pc": 1099,
      "Ra": 1100,
      "br": 1101,
      "y6": 1102,
      "Xo": 1103,
      "bK": 1104,
      "bs": 1105,
      "fN": 1106,
      "zh": 1107,
      "wzE": 1108,
      "0h": 1109,
      "9a": 1110,
      "Yd": 1111,
      "zDE": 1112,
      "Cm": 1113,
      "MM": 1114,
      "er": 1115,
      "ft": 1116,
      "2x": 1117,
      "L4": 1118,
      "Om": 1119,
      "Q4": 1120,
      "Yn": 1121,
      "fn": 1122,
      "ig": 1123,
      "EEE": 1124,
      "33": 1125,
      "IH": 1126,
      "JE": 1127,
      "Tw": 1128,
      "g9": 1129,
      "yD": 1130,
      "zS": 1131,
      "Jq": 1132,
      "Y9": 1133,
      "yK": 1134,
      "Ln": 1135,
      "c9": 1136,
      "eR": 1137,
      "x!": 1138,
      "Ph": 1139,
      "Z3": 1140,
      "Yo": 1141,
      "fv": 1142,
      "b!": 1143,
      "KF": 1144,
      "IEw": 1145,
      "DIz": 1146,
      "L0": 1147,
      "v6": 1148,
      "wEw": 1149,
      "XW": 1150,
      "IyE": 1151,
      "Ys": 1152,
      "bF": 1153,
      "ic": 1154,
      "vd": 1155,
      "Cg": 1156,
      "QO": 1157,
      "ec": 1158,
      "EEq": 1159,
      "7K": 1160,
      "Ld": 1161,
      "et": 1162,
      "oT": 1163,
      "ry": 1164,
      "3P": 1165,
      "BK": 1166,
      "X!": 1167,
      "b0": 1168,
      "iR": 1169,
      "na": 1170,
      "wEq": 1171,
      "C9": 1172,
      "Os": 1173,
      "Vi": 1174,
      "e0": 1175,
      "xc": 1176,
      "4Iz": 1177,
      "YZ": 1178,
      "Yu": 1179,
      "bP": 1180,
      "mR": 1181,
      "Wd": 1182,
      "YM": 1183,
      "3Z": 1184,
      "zzzzzzzz": 1185,
      "LZ": 1186,
      "Uw": 1187,
      "oM": 1188,
      "r4": 1189,
      "Ih": 1190,
      "NW": 1191,
      "fG": 1192,
      "jq": 1193,
      "zzK": 1194,
      "x7": 1195,
      "Iwq": 1196,
      "Y5": 1197,
      "bZ": 1198,
      "i4": 1199,
      "rv": 1200,
      "x0": 1201,
      "D7": 1202,
      "Yt": 1203,
      "iW": 1204,
      "x4": 1205,
      "6L": 1206,
      "sZ": 1207,
      "Od": 1208,
      "X9": 1209,
      "yg": 1210,
      "zIf": 1211,
      "DA": 1212,
      "NN": 1213,
      "cM": 1214,
      "s4": 1215,
      "2f": 1216,
      "c0": 1217,
      "io": 1218,
      "sv": 1219,
      "Yg": 1220,
      "!o": 1221,
      "P0": 1222,
      "dM": 1223,
      "yv": 1224,
      "WK": 1225,
      "X3": 1226,
      "cg": 1227,
      "du": 1228,
      "r0": 1229,
      "y4": 1230,
      "z9I": 1231,
      "Nw": 1232,
      "WO": 1233,
      "Yv": 1234,
      "b2": 1235,
      "bQ": 1236,
      "oQ": 1237,
      "Pu": 1238,
      "Rv": 1239,
      "W3": 1240,
      "92": 1241,
      "9v": 1242,
      "W0": 1243,
      "zzx": 1244,
      "!K": 1245,
      "Lf": 1246,
      "jw": 1247,
      "XY": 1248,
      "ZR": 1249,
      "d4": 1250,
      "ro": 1251,
      "IRE": 1252,
      "DV": 1253,
      "d3": 1254,
      "dK": 1255,
      "mf": 1256,
      "nQ": 1257,
      "s!": 1258,
      "y3": 1259,
      "!0": 1260,
      "9F": 1261,
      "CC": 1262,
      "GY": 1263,
      "Zc": 1264,
      "tW": 1265,
      "Bf": 1266,
      "Ov": 1267,
      "Z4": 1268,
      "ag": 1269,
      "yyyy": 1270,
      "XR": 1271,
      "uR": 1272,
      "!Y": 1273,
      "Dwq": 1274,
      "Pj": 1275,
      "xZ": 1276,
      "PV": 1277,
      "WV": 1278,
      "ai": 1279,
      "bd": 1280,
      "nl": 1281,
      "t9": 1282,
      "2w": 1283,
      "7e": 1284,
      "TX": 1285,
      "zDw": 1286,
      "7X": 1287,
      "O3": 1288,
      "eB": 1289,
      "if": 1290,
      "OK": 1291,
      "es": 1292,
      "4G": 1293,
      "OC": 1294,
      "YN": 1295,
      "49": 1296,
      "I9I": 1297,
      "OW": 1298,
      "P6": 1299,
      "cu": 1300,
      "nA": 1301,
      "Dzw": 1302,
      "PW": 1303,
      "Y3": 1304,
      "vt": 1305,
      "xA": 1306,
      "LQ": 1307,
      "ZK": 1308,
      "uB": 1309,
      "RwI": 1310,
      "eA": 1311,
      "rX": 1312,
      "vG": 1313,
      "wc": 1314,
      "yn": 1315,
      "wwww": 1316,
      "i0": 1317,
      "nV": 1318,
      "yyE": 1319,
      "Dzq": 1320,
      "Mf": 1321,
      "Nr": 1322,
      "e3": 1323,
      "eP": 1324,
      "My": 1325,
      "v0": 1326,
      "x3": 1327,
      "1q": 1328,
      "K9": 1329,
      "Mc": 1330,
      "PC": 1331,
      "YG": 1332,
      "so": 1333,
      "Fd": 1334,
      "O4": 1335,
      "Y0": 1336,
      "ZL": 1337,
      "vQ": 1338,
      "yo": 1339,
      "F3": 1340,
      "eQ": 1341,
      "eg": 1342,
      "vA": 1343,
      "xs": 1344,
      "zEq": 1345,
      "Ifq": 1346,
      "WG": 1347,
      "uu": 1348,
      "xr": 1349,
      "K7": 1350,
      "Q9": 1351,
      "gb": 1352,
      "hq": 1353,
      "Dqq": 1354,
      "Kt": 1355,
      "L9": 1356,
      "Rwz": 1357,
      "YQ": 1358,
      "cd": 1359,
      "fA": 1360,
      "Gf": 1361,
      "MW": 1362,
      "Vq": 1363,
      "Yr": 1364,
      "n6": 1365,
      "eZ": 1366,
      "Bg": 1367,
      "CN": 1368,
      "Lu": 1369,
      "OQ": 1370,
      "v9": 1371,
      "yN": 1372,
      "zfE": 1373,
      "eG": 1374,
      "f0": 1375,
      "iZ": 1376,
      "im": 1377,
      "tr": 1378,
      "qEq": 1379,
      "47": 1380,
      "DIq": 1381,
      "IDq": 1382,
      "O0": 1383,
      "XG": 1384,
      "XM": 1385,
      "d0": 1386,
      "xM": 1387,
      "2o": 1388,
      "4II": 1389,
      "DII": 1390,
      "I4I": 1391,
      "IDD": 1392,
      "L!": 1393,
      "Rww": 1394,
      "Y!": 1395,
      "fr": 1396,
      "xzz": 1397,
      "yu": 1398,
      "L7": 1399,
      "cv": 1400,
      "gP": 1401,
      "i7": 1402,
      "Dl": 1403,
      "IIq": 1404,
      "IDE": 1405,
      "WP": 1406,
      "hw": 1407,
      "y0": 1408,
      "fa": 1409,
      "to": 1410,
      "x5": 1411,
      "zRq": 1412,
      "2i": 1413,
      "c6": 1414,
      "Dbq": 1415,
      "3R": 1416,
      "3g": 1417,
      "46": 1418,
      "Kzz": 1419,
      "Md": 1420,
      "Xm": 1421,
      "bC": 1422,
      "qEw": 1423,
      "9o": 1424,
      "L6": 1425,
      "Or": 1426,
      "QW": 1427,
      "vP": 1428,
      "ys": 1429,
      "DT": 1430,
      "DzI": 1431,
      "vu": 1432,
      "yr": 1433,
      "36": 1434,
      "Bo": 1435,
      "K0": 1436,
      "ZP": 1437,
      "x6": 1438,
      "!R": 1439,
      "Cv": 1440,
      "Ls": 1441,
      "bG": 1442,
      "zoE": 1443,
      "Dyq": 1444,
      "3c": 1445,
      "F9": 1446,
      "Xv": 1447,
      "e7": 1448,
      "en": 1449,
      "mo": 1450,
      "yt": 1451,
      "Cl": 1452,
      "D5": 1453,
      "Kd": 1454,
      "ZO": 1455,
      "iM": 1456,
      "sf": 1457,
      "zH": 1458,
      "EEw": 1459,
      "2G": 1460,
      "Wn": 1461,
      "ezz": 1462,
      "go": 1463,
      "in": 1464,
      "1w": 1465,
      "Ai": 1466,
      "KM": 1467,
      "O9": 1468,
      "WM": 1469,
      "b3": 1470,
      "xC": 1471,
      "Bd": 1472,
      "Dj": 1473,
      "Wf": 1474,
      "Zf": 1475,
      "cP": 1476,
      "mm": 1477,
      "tL": 1478,
      "4l": 1479,
      "IxE": 1480,
      "KA": 1481,
      "ozz": 1482,
      "sR": 1483,
      "zxE": 1484,
      "2L": 1485,
      "3f": 1486,
      "Bs": 1487,
      "Z9": 1488,
      "gs": 1489,
      "va": 1490,
      "yQ": 1491,
      "IDw": 1492,
      "Ka": 1493,
      "Ku": 1494,
      "OP": 1495,
      "nG": 1496,
      "IIw": 1497,
      "DIE": 1498,
      "xQ": 1499,
      "Bn": 1500,
      "Kr": 1501,
      "RIz": 1502,
      "dP": 1503,
      "dT": 1504,
      "e6": 1505,
      "gn": 1506,
      "oV": 1507,
      "yG": 1508,
      "qqqq": 1509,
      "Rzz": 1510,
      "XD": 1511,
      "eC": 1512,
      "gm": 1513,
      "DEq": 1514,
      "BM": 1515,
      "OZ": 1516,
      "XP": 1517,
      "Xu": 1518,
      "eM": 1519,
      "z0E": 1520,
      "Qf": 1521,
      "42": 1522,
      "4d": 1523,
      "9d": 1524,
      "Cs": 1525,
      "DIw": 1526,
      "IRq": 1527,
      "is": 1528,
      "nzz": 1529,
      "zfq": 1530,
      "4t": 1531,
      "DS": 1532,
      "DwE": 1533,
      "QQ": 1534,
      "ZW": 1535,
      "Zv": 1536,
      "cC": 1537,
      "yM": 1538,
      "0T": 1539,
      "2M": 1540,
      "IoE": 1541,
      "R7": 1542,
      "Xt": 1543,
      "eu": 1544,
      "mx": 1545,
      "3b": 1546,
      "3o": 1547,
      "4o": 1548,
      "GO": 1549,
      "IYE": 1550,
      "Qx": 1551,
      "ir": 1552,
      "zRw": 1553,
      "4IE": 1554,
      "Xe": 1555,
      "Ym": 1556,
      "gv": 1557,
      "xEq": 1558,
      "!n": 1559,
      "Y6": 1560,
      "Zm": 1561,
      "dO": 1562,
      "z4I": 1563,
      "!P": 1564,
      "Cj": 1565,
      "D1": 1566,
      "Rwq": 1567,
      "ZY": 1568,
      "gd": 1569,
      "sG": 1570,
      "vr": 1571,
      "z0q": 1572,
      "0l": 1573,
      "3d": 1574,
      "N!": 1575,
      "Lt": 1576,
      "Ui": 1577,
      "s9": 1578,
      "I1": 1579,
      "IDI": 1580,
      "K2": 1581,
      "Mi": 1582,
      "RA": 1583,
      "fF": 1584,
      "ge": 1585,
      "yEw": 1586,
      "Lm": 1587,
      "9Iq": 1588,
      "AA": 1589,
      "BZ": 1590,
      "Gb": 1591,
      "Gc": 1592,
      "Iyy": 1593,
      "RIq": 1594,
      "XQ": 1595,
      "do": 1596,
      "rP": 1597,
      "zzi": 1598,
      "yEq": 1599,
      "zyq": 1600,
      "wfE": 1601,
      "2u": 1602,
      "B9": 1603,
      "Nn": 1604,
      "Oj": 1605,
      "Sy": 1606,
      "X0": 1607,
      "Xg": 1608,
      "!7": 1609,
      "Ct": 1610,
      "DJ": 1611,
      "DU": 1612,
      "Ws": 1613,
      "mP": 1614,
      "zzy": 1615,
      "9IE": 1616,
      "DDq": 1617,
      "DDw": 1618,
      "I0E": 1619,
      "Mg": 1620,
      "Rqw": 1621,
      "96": 1622,
      "9Iw": 1623,
      "B4": 1624,
      "CA": 1625,
      "XK": 1626,
      "Xn": 1627,
      "g3": 1628,
      "uL": 1629,
      "Dyw": 1630,
      "Bm": 1631,
      "Mx": 1632,
      "at": 1633,
      "vm": 1634,
      "zYE": 1635,
      "zEw": 1636,
      "3O": 1637,
      "Ax": 1638,
      "Kn": 1639,
      "cK": 1640,
      "dn": 1641,
      "g!": 1642,
      "Jy": 1643,
      "Mt": 1644,
      "c4": 1645,
      "ll": 1646,
      "oU": 1647,
      "BG": 1648,
      "QG": 1649,
      "QY": 1650,
      "W6": 1651,
      "Xs": 1652,
      "Zx": 1653,
      "cZ": 1654,
      "gf": 1655,
      "rO": 1656,
      "ue": 1657,
      "yEy": 1658,
      "4C": 1659,
      "ca": 1660,
      "cs": 1661,
      "IEy": 1662,
      "3v": 1663,
      "FW": 1664,
      "KL": 1665,
      "NL": 1666,
      "Rqq": 1667,
      "dt": 1668,
      "mY": 1669,
      "DOq": 1670,
      "4T": 1671,
      "BW": 1672,
      "C6": 1673,
      "rn": 1674,
      "s0": 1675,
      "sA": 1676,
      "zRE": 1677,
      "!L": 1678,
      "7P": 1679,
      "M9": 1680,
      "ND": 1681,
      "Oe": 1682,
      "aa": 1683,
      "zDy": 1684,
      "Ifw": 1685,
      "wfq": 1686,
      "5y": 1687,
      "7o": 1688,
      "Ip": 1689,
      "R6": 1690,
      "Vw": 1691,
      "WZ": 1692,
      "eT": 1693,
      "zbq": 1694,
      "!X": 1695,
      "0ww": 1696,
      "BX": 1697,
      "CZ": 1698,
      "MF": 1699,
      "On": 1700,
      "WA": 1701,
      "IOE": 1702,
      "3K": 1703,
      "3Q": 1704,
      "ds": 1705,
      "eN": 1706,
      "zEy": 1707,
      "01": 1708,
      "9V": 1709,
      "CQ": 1710,
      "MB": 1711,
      "PU": 1712,
      "RII": 1713,
      "Wt": 1714,
      "XA": 1715,
      "XZ": 1716,
      "ba": 1717,
      "cn": 1718,
      "ug": 1719,
      "!D": 1720,
      "IPE": 1721,
      "K3": 1722,
      "Pa": 1723,
      "cQ": 1724,
      "nIz": 1725,
      "uo": 1726,
      "wi": 1727,
      "wx": 1728,
      "4wz": 1729,
      "6i": 1730,
      "Rzq": 1731,
      "vZ": 1732,
      "zzf": 1733,
      "REq": 1734,
      "3s": 1735,
      "Gs": 1736,
      "IRw": 1737,
      "K4": 1738,
      "MR": 1739,
      "N0": 1740,
      "UL": 1741,
      "YA": 1742,
      "zxzx": 1743,
      "4!": 1744,
      "Pb": 1745,
      "i5": 1746,
      "i9": 1747,
      "tx": 1748,
      "vs": 1749,
      "0Eq": 1750,
      "3m": 1751,
      "9!": 1752,
      "BD": 1753,
      "LA": 1754,
      "MY": 1755,
      "Pm": 1756,
      "0qq": 1757,
      "3X": 1758,
      "Gg": 1759,
      "Pr": 1760,
      "RS": 1761,
      "ce": 1762,
      "i6": 1763,
      "yA": 1764,
      "Rbq": 1765,
      "2!": 1766,
      "4Q": 1767,
      "4zz": 1768,
      "77": 1769,
      "Bu": 1770,
      "Ff": 1771,
      "M3": 1772,
      "MN": 1773,
      "OR": 1774,
      "WC": 1775,
      "Z0": 1776,
      "oF": 1777,
      "sb": 1778,
      "6v": 1779,
      "B!": 1780,
      "Ze": 1781,
      "Zn": 1782,
      "gK": 1783,
      "pE": 1784,
      "Iyq": 1785,
      "9zz": 1786,
      "I8": 1787,
      "Mm": 1788,
      "ab": 1789,
      "d6": 1790,
      "uW": 1791,
      "z9q": 1792,
      "wwy": 1793,
      "9Q": 1794,
      "BN": 1795,
      "I4Y": 1796,
      "Pzz": 1797,
      "Ta": 1798,
      "aF": 1799,
      "bR": 1800,
      "gA": 1801,
      "my": 1802,
      "r!": 1803,
      "tR": 1804,
      "zxq": 1805,
      "3C": 1806,
      "7Y": 1807,
      "BQ": 1808,
      "ZD": 1809,
      "sD": 1810,
      "t0": 1811,
      "uF": 1812,
      "zOq": 1813,
      "Dcq": 1814,
      "7f": 1815,
      "B6": 1816,
      "Ioo": 1817,
      "NY": 1818,
      "ZG": 1819,
      "wEy": 1820,
      "DEy": 1821,
      "bA": 1822,
      "eU": 1823,
      "gQ": 1824,
      "rY": 1825,
      "vD": 1826,
      "4Iw": 1827,
      "4zI": 1828,
      "5B": 1829,
      "GX": 1830,
      "No": 1831,
      "Ty": 1832,
      "aN": 1833,
      "f6": 1834,
      "i!": 1835,
      "id": 1836,
      "tb": 1837,
      "ziq": 1838,
      "00q": 1839,
      "P5": 1840,
      "VW": 1841,
      "fl": 1842,
      "vC": 1843,
      "vF": 1844,
      "zbw": 1845,
      "3n": 1846,
      "4U": 1847,
      "9wz": 1848,
      "Zg": 1849,
      "izz": 1850,
      "mK": 1851,
      "mb": 1852,
      "oIz": 1853,
      "ui": 1854,
      "xzq": 1855,
      "zoq": 1856,
      "zOE": 1857,
      "05": 1858,
      "3l": 1859,
      "4If": 1860,
      "Gt": 1861,
      "XF": 1862,
      "Xr": 1863,
      "ZC": 1864,
      "aL": 1865,
      "ax": 1866,
      "fC": 1867,
      "zeq": 1868,
      "Dbw": 1869,
      "zPq": 1870,
      "DYq": 1871,
      "0EE": 1872,
      "3e": 1873,
      "44I": 1874,
      "B7": 1875,
      "P7": 1876,
      "XN": 1877,
      "Zt": 1878,
      "se": 1879,
      "ud": 1880,
      "vW": 1881,
      "zyy": 1882,
      "DEw": 1883,
      "26": 1884,
      "35": 1885,
      "6yy": 1886,
      "An": 1887,
      "BP": 1888,
      "I9q": 1889,
      "KC": 1890,
      "QM": 1891,
      "ym": 1892,
      "qqs": 1893,
      "9ww": 1894,
      "9zw": 1895,
      "A9": 1896,
      "Qt": 1897,
      "Sq": 1898,
      "Zww": 1899,
      "dC": 1900,
      "ly": 1901,
      "xt": 1902,
      "Izx": 1903,
      "0Ew": 1904,
      "0J": 1905,
      "M!": 1906,
      "ML": 1907,
      "MP": 1908,
      "WQ": 1909,
      "XC": 1910,
      "cm": 1911,
      "gN": 1912,
      "nwq": 1913,
      "u!": 1914,
      "vT": 1915,
      "zz7": 1916,
      "wfw": 1917,
      "6y6y": 1918,
      "97": 1919,
      "FO": 1920,
      "G3": 1921,
      "Rzw": 1922,
      "RDw": 1923,
      "Y2": 1924,
      "Zs": 1925,
      "lm": 1926,
      "nwz": 1927,
      "t!": 1928,
      "te": 1929,
      "v2": 1930,
      "vY": 1931,
      "xT": 1932,
      "xu": 1933,
      "ya": 1934,
      "yyw": 1935,
      "0qw": 1936,
      "5L": 1937,
      "9zq": 1938,
      "AP": 1939,
      "DDI": 1940,
      "Ga": 1941,
      "RDq": 1942,
      "nzq": 1943,
      "ooE": 1944,
      "YEq": 1945,
      "LEq": 1946,
      "eeee": 1947,
      "9C": 1948,
      "Dzy": 1949,
      "IDO": 1950,
      "Kqq": 1951,
      "L5": 1952,
      "Ne": 1953,
      "RV": 1954,
      "RIE": 1955,
      "fEq": 1956,
      "2e": 1957,
      "3D": 1958,
      "Gi": 1959,
      "I4w": 1960,
      "KQ": 1961,
      "WB": 1962,
      "Wc": 1963,
      "t4": 1964,
      "Dcw": 1965,
      "OF": 1966,
      "Pl": 1967,
      "RJ": 1968,
      "RIw": 1969,
      "V4": 1970,
      "X2": 1971,
      "rc": 1972,
      "uN": 1973,
      "uQ": 1974,
      "bbq": 1975,
      "0oq": 1976,
      "!d": 1977,
      "6W": 1978,
      "6Y": 1979,
      "GM": 1980,
      "Wg": 1981,
      "cA": 1982,
      "hL": 1983,
      "iF": 1984,
      "n1": 1985,
      "nU": 1986,
      "oJ": 1987,
      "oKw": 1988,
      "rD": 1989,
      "DzE": 1990,
      "JV": 1991,
      "Oa": 1992,
      "RzI": 1993,
      "Y7": 1994,
      "b9": 1995,
      "el": 1996,
      "sY": 1997,
      "u0": 1998,
      "uK": 1999,
      "zqx": 2000,
      "3W": 2001,
      "4zq": 2002,
      "4Iq": 2003,
      "CF": 2004,
      "LU": 2005,
      "fzz": 2006,
      "tG": 2007,
      "zLE": 2008,
      "zXE": 2009,
      "0Iz": 2010,
      "3A": 2011,
      "4ww": 2012,
      "Oww": 2013,
      "Pt": 2014,
      "Zo": 2015,
      "b7": 2016,
      "sc": 2017,
      "sd": 2018,
      "vl": 2019,
      "xa": 2020,
      "y!": 2021,
      "zKq": 2022,
      "zLq": 2023,
      "2b": 2024,
      "3!": 2025,
      "4a": 2026,
      "BF": 2027,
      "GW": 2028,
      "IDy": 2029,
      "Jw": 2030,
      "Nc": 2031,
      "PS": 2032,
      "Ti": 2033,
      "f2": 2034,
      "rK": 2035,
      "rb": 2036,
      "rf": 2037,
      "vV": 2038,
      "yC": 2039,
      "yl": 2040,
      "zdy": 2041,
      "zWq": 2042,
      "9M": 2043,
      "Lzz": 2044,
      "QZ": 2045,
      "ol": 2046,
      "rB": 2047,
      "tD": 2048,
      "td": 2049,
      "zPE": 2050,
      "5X": 2051,
      "Ba": 2052,
      "GN": 2053,
      "IbO": 2054,
      "Ms": 2055,
      "Te": 2056,
      "Wzz": 2057,
      "Z6": 2058,
      "cF": 2059,
      "o1": 2060,
      "oww": 2061,
      "tQ": 2062,
      "uX": 2063,
      "xIE": 2064,
      "y5": 2065,
      "IEY": 2066,
      "z0w": 2067,
      "Iyw": 2068,
      "oEq": 2069,
      "4wE": 2070,
      "J!": 2071,
      "em": 2072,
      "fwz": 2073,
      "lb": 2074,
      "sM": 2075,
      "uP": 2076,
      "xU": 2077,
      "z@": 2078,
      "z4q": 2079,
      "yyq": 2080,
      "qEy": 2081,
      "zKE": 2082,
      "0zq": 2083,
      "0wE": 2084,
      "9If": 2085,
      "ILE": 2086,
      "R5": 2087,
      "ZF": 2088,
      "gG": 2089,
      "ia": 2090,
      "la": 2091,
      "vK": 2092,
      "Iwf": 2093,
      "4Yq": 2094,
      "DYw": 2095,
      "DBE": 2096,
      "3h": 2097,
      "9U": 2098,
      "9wq": 2099,
      "Bv": 2100,
      "Ik": 2101,
      "IDb": 2102,
      "LM": 2103,
      "PN": 2104,
      "Zd": 2105,
      "g7": 2106,
      "gr": 2107,
      "lc": 2108,
      "7!": 2109,
      "B2": 2110,
      "LC": 2111,
      "LG": 2112,
      "MQ": 2113,
      "Pzq": 2114,
      "SX": 2115,
      "Ya": 2116,
      "eV": 2117,
      "i2": 2118,
      "sQ": 2119,
      "sW": 2120,
      "vR": 2121,
      "xG": 2122,
      "zzo": 2123,
      "Izf": 2124,
      "B0": 2125,
      "YF": 2126,
      "Zl": 2127,
      "c2": 2128,
      "fqq": 2129,
      "nIE": 2130,
      "tO": 2131,
      "tn": 2132,
      "wK": 2133,
      "xF": 2134,
      "IYq": 2135,
      "IOq": 2136,
      "IbE": 2137,
      "34": 2138,
      "63": 2139,
      "6B": 2140,
      "9qq": 2141,
      "9qw": 2142,
      "B5": 2143,
      "Bt": 2144,
      "DzD": 2145,
      "I9w": 2146,
      "IXE": 2147,
      "Vy": 2148,
      "YC": 2149,
      "fU": 2150,
      "g4": 2151,
      "xzx": 2152,
      "4IY": 2153,
      "YEw": 2154,
      "zYq": 2155,
      "6P": 2156,
      "7A": 2157,
      "8E": 2158,
      "AK": 2159,
      "G!": 2160,
      "LN": 2161,
      "NX": 2162,
      "aP": 2163,
      "cR": 2164,
      "e2": 2165,
      "gW": 2166,
      "nIq": 2167,
      "rR": 2168,
      "xzE": 2169,
      "wwc": 2170,
      "zfw": 2171,
      "fEw": 2172,
      "ccE": 2173,
      "IcE": 2174,
      "0wz": 2175,
      "3u": 2176,
      "4zE": 2177,
      "Dh": 2178,
      "KG": 2179,
      "MD": 2180,
      "WT": 2181,
      "g5": 2182,
      "owE": 2183,
      "tX": 2184,
      "xV": 2185,
      "Iwy": 2186,
      "PEq": 2187,
      "4wI": 2188,
      "9l": 2189,
      "IdE": 2190,
      "MX": 2191,
      "RDI": 2192,
      "YT": 2193,
      "fT": 2194,
      "iA": 2195,
      "me": 2196,
      "oj": 2197,
      "r6": 2198,
      "sN": 2199,
      "zxw": 2200,
      "ziE": 2201,
      "bbE": 2202,
      "zBE": 2203,
      "zdE": 2204,
      "IvE": 2205,
      "!C": 2206,
      "5Y": 2207,
      "74": 2208,
      "I0w": 2209,
      "IiE": 2210,
      "OV": 2211,
      "Qd": 2212,
      "Rj": 2213,
      "XT": 2214,
      "an": 2215,
      "ay": 2216,
      "bqq": 2217,
      "iN": 2218,
      "mL": 2219,
      "mc": 2220,
      "rN": 2221,
      "rU": 2222,
      "uD": 2223,
      "xzD": 2224,
      "zzW": 2225,
      "Izy": 2226,
      "IIf": 2227,
      "xEw": 2228,
      "0wq": 2229,
      "CG": 2230,
      "IKE": 2231,
      "KU": 2232,
      "QR": 2233,
      "Qv": 2234,
      "ezq": 2235,
      "fqw": 2236,
      "nT": 2237,
      "oDw": 2238,
      "sT": 2239,
      "tV": 2240,
      "ul": 2241,
      "zzD": 2242,
      "zqL": 2243,
      "zeE": 2244,
      "2T": 2245,
      "3G": 2246,
      "4DI": 2247,
      "7W": 2248,
      "L3": 2249,
      "OA": 2250,
      "Rl": 2251,
      "REE": 2252,
      "eze": 2253,
      "gD": 2254,
      "DOw": 2255,
      "!V": 2256,
      "0S": 2257,
      "0Dw": 2258,
      "95": 2259,
      "Ibb": 2260,
      "I4q": 2261,
      "Q!": 2262,
      "YIE": 2263,
      "ga": 2264,
      "gu": 2265,
      "i3": 2266,
      "nqq": 2267,
      "oqq": 2268,
      "oyE": 2269,
      "znq": 2270,
      "Dqy": 2271,
      "!3": 2272,
      "!U": 2273,
      "5v": 2274,
      "6n": 2275,
      "9zI": 2276,
      "Ay": 2277,
      "Ibq": 2278,
      "Mn": 2279,
      "Qr": 2280,
      "RwE": 2281,
      "eF": 2282,
      "iC": 2283,
      "mu": 2284,
      "sP": 2285,
      "sr": 2286,
      "tc": 2287,
      "un": 2288,
      "zcc": 2289,
      "zqf": 2290,
      "Ixq": 2291,
      "4zw": 2292,
      "6e": 2293,
      "9G": 2294,
      "94I": 2295,
      "9wI": 2296,
      "AX": 2297,
      "C2": 2298,
      "Lh": 2299,
      "Mo": 2300,
      "O2": 2301,
      "RU": 2302,
      "ZN": 2303,
      "dc": 2304,
      "l3": 2305,
      "nII": 2306,
      "zp": 2307,
      "z3E": 2308,
      "zEL": 2309,
      "zow": 2310,
      "zyw": 2311,
      "ooq": 2312,
      "oEw": 2313,
      "Ioq": 2314,
      "DcE": 2315,
      "zcE": 2316,
      "zcq": 2317,
      "44w": 2318,
      "9T": 2319,
      "Gu": 2320,
      "I44": 2321,
      "MC": 2322,
      "Yzz": 2323,
      "gM": 2324,
      "iQ": 2325,
      "m!": 2326,
      "mn": 2327,
      "oIE": 2328,
      "ve": 2329,
      "x2": 2330,
      "xN": 2331,
      "xEE": 2332,
      "RbE": 2333,
      "53": 2334,
      "5R": 2335,
      "9Dq": 2336,
      "AL": 2337,
      "DEE": 2338,
      "I0q": 2339,
      "UR": 2340,
      "X4": 2341,
      "iV": 2342,
      "mr": 2343,
      "oqw": 2344,
      "sC": 2345,
      "su": 2346,
      "Iwc": 2347,
      "DwY": 2348,
      "DOE": 2349,
      "0II": 2350,
      "5O": 2351,
      "Af": 2352,
      "CJ": 2353,
      "DyE": 2354,
      "GB": 2355,
      "I@": 2356,
      "Qs": 2357,
      "Qu": 2358,
      "RzD": 2359,
      "ea": 2360,
      "ozq": 2361,
      "tY": 2362,
      "z9w": 2363,
      "zzP": 2364,
      "9IY": 2365,
      "0Ey": 2366,
      "0Lw": 2367,
      "ROq": 2368,
      "0zw": 2369,
      "0bq": 2370,
      "4zD": 2371,
      "6T": 2372,
      "A!": 2373,
      "Ag": 2374,
      "DIf": 2375,
      "FP": 2376,
      "Icc": 2377,
      "Kv": 2378,
      "N9": 2379,
      "Nx": 2380,
      "PJ": 2381,
      "Qn": 2382,
      "bT": 2383,
      "bv": 2384,
      "bIq": 2385,
      "dN": 2386,
      "fwq": 2387,
      "lZ": 2388,
      "m9": 2389,
      "nJ": 2390,
      "oII": 2391,
      "vM": 2392,
      "y2": 2393,
      "zox": 2394,
      "REw": 2395,
      "DbE": 2396,
      "1c": 2397,
      "3r": 2398,
      "6f": 2399,
      "6l": 2400,
      "AO": 2401,
      "AY": 2402,
      "RH": 2403,
      "d7": 2404,
      "dzz": 2405,
      "g0": 2406,
      "iU": 2407,
      "nzI": 2408,
      "oEE": 2409,
      "ozD": 2410,
      "r7": 2411,
      "rC": 2412,
      "sww": 2413,
      "u4": 2414,
      "z44": 2415,
      "zxe": 2416,
      "5f": 2417,
      "Ae": 2418,
      "Fn": 2419,
      "Iiq": 2420,
      "L2": 2421,
      "M0": 2422,
      "Mu": 2423,
      "NK": 2424,
      "T4": 2425,
      "gt": 2426,
      "nqw": 2427,
      "xzw": 2428,
      "zCE": 2429,
      "zzze": 2430,
      "zwi": 2431,
      "DIy": 2432,
      "zOw": 2433,
      "Rbw": 2434,
      "Icq": 2435,
      "zmE": 2436,
      "2K": 2437,
      "7O": 2438,
      "GQ": 2439,
      "PT": 2440,
      "Q3": 2441,
      "Q6": 2442,
      "TT": 2443,
      "mF": 2444,
      "mW": 2445,
      "nww": 2446,
      "oh": 2447,
      "uH": 2448,
      "bbw": 2449,
      "Ixw": 2450,
      "Iow": 2451,
      "zXq": 2452,
      "ILw": 2453,
      "DXq": 2454,
      "!f": 2455,
      "0cc": 2456,
      "7R": 2457,
      "B3": 2458,
      "D9I": 2459,
      "I0o": 2460,
      "NR": 2461,
      "PRq": 2462,
      "UP": 2463,
      "YqE": 2464,
      "ZU": 2465,
      "m3": 2466,
      "nwI": 2467,
      "sK": 2468,
      "st": 2469,
      "um": 2470,
      "yj": 2471,
      "wzx": 2472,
      "Iqy": 2473,
      "zIx": 2474,
      "DIY": 2475,
      "IYw": 2476,
      "Dfw": 2477,
      "bcq": 2478,
      "!v": 2479,
      "0IE": 2480,
      "2Y": 2481,
      "8G": 2482,
      "Ca": 2483,
      "Dzo": 2484,
      "GF": 2485,
      "Ibw": 2486,
      "Me": 2487,
      "Qc": 2488,
      "Qo": 2489,
      "RqE": 2490,
      "Sx": 2491,
      "Xzz": 2492,
      "bww": 2493,
      "fS": 2494,
      "gF": 2495,
      "uZ": 2496,
      "IzD": 2497,
      "IIx": 2498,
      "4Iy": 2499,
      "z4E": 2500,
      "4M": 2501,
      "4V": 2502,
      "6O": 2503,
      "91": 2504,
      "CY": 2505,
      "DDy": 2506,
      "IgE": 2507,
      "O6": 2508,
      "QK": 2509,
      "SR": 2510,
      "TL": 2511,
      "Tv": 2512,
      "g2": 2513,
      "zqzq": 2514,
      "zwf": 2515,
      "qwO": 2516,
      "ccq": 2517,
      "oxq": 2518,
      "DLw": 2519,
      "0OE": 2520,
      "!zz": 2521,
      "5c": 2522,
      "9zf": 2523,
      "CP": 2524,
      "NU": 2525,
      "Q0": 2526,
      "QA": 2527,
      "WU": 2528,
      "Zb": 2529,
      "gX": 2530,
      "iu": 2531,
      "izD": 2532,
      "mB": 2533,
      "oDq": 2534,
      "rs": 2535,
      "swq": 2536,
      "yU": 2537,
      "zk": 2538,
      "wEY": 2539,
      "Dwy": 2540,
      "zie": 2541,
      "zLw": 2542,
      "zBq": 2543,
      "0z0": 2544,
      "30": 2545,
      "7V": 2546,
      "8y": 2547,
      "9Dw": 2548,
      "Go": 2549,
      "M2": 2550,
      "Za": 2551,
      "bzz": 2552,
      "dg": 2553,
      "gS": 2554,
      "jY": 2555,
      "lP": 2556,
      "mO": 2557,
      "md": 2558,
      "n5": 2559,
      "rA": 2560,
      "sB": 2561,
      "sn": 2562,
      "LEw": 2563,
      "4YY": 2564,
      "I9E": 2565,
      "bOq": 2566,
      "Rcq": 2567,
      "zuE": 2568,
      "2W": 2569,
      "3j": 2570,
      "6Z": 2571,
      "7L": 2572,
      "AR": 2573,
      "Gx": 2574,
      "Idy": 2575,
      "La": 2576,
      "QC": 2577,
      "RIY": 2578,
      "TY": 2579,
      "cU": 2580,
      "it": 2581,
      "tP": 2582,
      "wwO": 2583,
      "IEP": 2584,
      "wzy": 2585,
      "zwP": 2586,
      "zDL": 2587,
      "zDx": 2588,
      "zWE": 2589,
      "0Iq": 2590,
      "4Dw": 2591,
      "5b": 2592,
      "C1": 2593,
      "DLE": 2594,
      "GK": 2595,
      "ICE": 2596,
      "Kwq": 2597,
      "RzE": 2598,
      "TO": 2599,
      "V!": 2600,
      "W7": 2601,
      "YEE": 2602,
      "aR": 2603,
      "dJ": 2604,
      "gC": 2605,
      "iIE": 2606,
      "lB": 2607,
      "m2": 2608,
      "sqq": 2609,
      "us": 2610,
      "wwb": 2611,
      "EEx": 2612,
      "zwy": 2613,
      "qwZ": 2614,
      "zeze": 2615,
      "DLq": 2616,
      "IPq": 2617,
      "0wI": 2618,
      "0qD": 2619,
      "0oo": 2620,
      "4wq": 2621,
      "I0x": 2622,
      "I0O": 2623,
      "MZ": 2624,
      "Nb": 2625,
      "Nd": 2626,
      "O7": 2627,
      "OwI": 2628,
      "RDy": 2629,
      "Ub": 2630,
      "Vr": 2631,
      "a1": 2632,
      "lO": 2633,
      "lf": 2634,
      "o5": 2635,
      "owz": 2636,
      "tf": 2637,
      "z8": 2638,
      "zzr": 2639,
      "wwR": 2640,
      "zqi": 2641,
      "EEy": 2642,
      "Ify": 2643,
      "DIL": 2644,
      "znE": 2645,
      "DBw": 2646,
      "zvq": 2647,
      "0qE": 2648,
      "0Rq": 2649,
      "8T": 2650,
      "Dyy": 2651,
      "Dzf": 2652,
      "DRw": 2653,
      "Fy": 2654,
      "Gd": 2655,
      "Ge": 2656,
      "Gr": 2657,
      "QN": 2658,
      "Sw": 2659,
      "Uv": 2660,
      "Zqq": 2661,
      "ZIE": 2662,
      "ozE": 2663,
      "rd": 2664,
      "tK": 2665,
      "tt": 2666,
      "xqq": 2667,
      "xzI": 2668,
      "xzy": 2669,
      "IzW": 2670,
      "DqL": 2671,
      "IIy": 2672,
      "Iff": 2673,
      "zIY": 2674,
      "9Iy": 2675,
      "ziw": 2676,
      "0cE": 2677,
      "zdq": 2678,
      "ocoK": 2679,
      "zvE": 2680,
      "0j": 2681,
      "0oE": 2682,
      "37": 2683,
      "3M": 2684,
      "4Dq": 2685,
      "AW": 2686,
      "Dze": 2687,
      "K5": 2688,
      "Ma": 2689,
      "f7": 2690,
      "mv": 2691,
      "oIw": 2692,
      "ozw": 2693,
      "s6": 2694,
      "u5": 2695,
      "xzo": 2696,
      "y7": 2697,
      "z4w": 2698,
      "zzs": 2699,
      "wzO": 2700,
      "wzb": 2701,
      "wqf": 2702,
      "yEL": 2703,
      "4Yw": 2704,
      "ocE": 2705,
      "!6": 2706,
      "!9": 2707,
      "0Iw": 2708,
      "4zf": 2709,
      "64": 2710,
      "6R": 2711,
      "9zE": 2712,
      "BA": 2713,
      "Br": 2714,
      "Ce": 2715,
      "DH": 2716,
      "GP": 2717,
      "I3E": 2718,
      "K1": 2719,
      "P2": 2720,
      "Vx": 2721,
      "Z7": 2722,
      "aW": 2723,
      "b5": 2724,
      "fIq": 2725,
      "l2": 2726,
      "xoo": 2727,
      "qqL": 2728,
      "IEx": 2729,
      "PEw": 2730,
      "zYw": 2731,
      "Dxw": 2732,
      "!A": 2733,
      "0yy": 2734,
      "3V": 2735,
      "4DE": 2736,
      "6F": 2737,
      "8X": 2738,
      "BC": 2739,
      "Ddy": 2740,
      "I00": 2741,
      "JX": 2742,
      "MK": 2743,
      "NP": 2744,
      "PEE": 2745,
      "TW": 2746,
      "UY": 2747,
      "Wzq": 2748,
      "c7": 2749,
      "fIE": 2750,
      "fzq": 2751,
      "izq": 2752,
      "lg": 2753,
      "mX": 2754,
      "nh": 2755,
      "nwE": 2756,
      "nzw": 2757,
      "sg": 2758,
      "ur": 2759,
      "vwE": 2760,
      "EEL": 2761,
      "IwO": 2762,
      "zIO": 2763,
      "qDL": 2764,
      "ywy": 2765,
      "Dxq": 2766,
      "oLq": 2767,
      "0ze": 2768,
      "2R": 2769,
      "32": 2770,
      "3T": 2771,
      "5Z": 2772,
      "6K": 2773,
      "7v": 2774,
      "CW": 2775,
      "CEy": 2776,
      "Ji": 2777,
      "Pwz": 2778,
      "SM": 2779,
      "Tx": 2780,
      "UB": 2781,
      "Uo": 2782,
      "VR": 2783,
      "WIq": 2784,
      "Yww": 2785,
      "cT": 2786,
      "ezf": 2787,
      "fj": 2788,
      "izE": 2789,
      "mM": 2790,
      "nDq": 2791,
      "tA": 2792,
      "zzb": 2793,
      "zzzq": 2794,
      "Iqd": 2795,
      "EEY": 2796,
      "zIy": 2797,
      "IOw": 2798,
      "znw": 2799,
      "0cq": 2800,
      "DiE": 2801,
      "zgq": 2802,
      "!b": 2803,
      "0Dq": 2804,
      "0zD": 2805,
      "0Rw": 2806,
      "0xE": 2807,
      "1O": 2808,
      "3F": 2809,
      "44Y": 2810,
      "Dzb": 2811,
      "G9": 2812,
      "I0y": 2813,
      "Igw": 2814,
      "Kwz": 2815,
      "Pqw": 2816,
      "UA": 2817,
      "VL": 2818,
      "Vo": 2819,
      "YIz": 2820,
      "Zwq": 2821,
      "as": 2822,
      "fqE": 2823,
      "vU": 2824,
      "xIz": 2825,
      "wqb": 2826,
      "oEy": 2827,
      "ccc": 2828,
      "0xq": 2829,
      "!O": 2830,
      "0zE": 2831,
      "0yE": 2832,
      "3t": 2833,
      "4qD": 2834,
      "9A": 2835,
      "9wE": 2836,
      "J6": 2837,
      "LzD": 2838,
      "P1": 2839,
      "QD": 2840,
      "Uc": 2841,
      "bwE": 2842,
      "hV": 2843,
      "ms": 2844,
      "oxE": 2845,
      "ut": 2846,
      "xS": 2847,
      "IEL": 2848,
      "Izb": 2849,
      "wqc": 2850,
      "zfy": 2851,
      "wIO": 2852,
      "YYq": 2853,
      "7n": 2854,
      "Je": 2855,
      "Kzq": 2856,
      "M4": 2857,
      "PIw": 2858,
      "Z5": 2859,
      "ae": 2860,
      "dDq": 2861,
      "dyq": 2862,
      "fzE": 2863,
      "hm": 2864,
      "lN": 2865,
      "lX": 2866,
      "li": 2867,
      "mG": 2868,
      "oqD": 2869,
      "yF": 2870,
      "zgE": 2871,
      "zzO": 2872,
      "zzR": 2873,
      "zzX": 2874,
      "IzO": 2875,
      "Izd": 2876,
      "wzi": 2877,
      "IIO": 2878,
      "zwO": 2879,
      "Dwe": 2880,
      "zIi": 2881,
      "00w": 2882,
      "0ow": 2883,
      "0bE": 2884,
      "y9E": 2885,
      "!Iq": 2886,
      "2d": 2887,
      "2r": 2888,
      "5x": 2889,
      "9zo": 2890,
      "9wf": 2891,
      "Dzx": 2892,
      "DDE": 2893,
      "Dbb": 2894,
      "Igq": 2895,
      "Nf": 2896,
      "RIf": 2897,
      "Rdy": 2898,
      "T!": 2899,
      "X7": 2900,
      "Zr": 2901,
      "aY": 2902,
      "bU": 2903,
      "dA": 2904,
      "eJ": 2905,
      "f5": 2906,
      "f9I": 2907,
      "oqE": 2908,
      "uv": 2909,
      "xIw": 2910,
      "zzL": 2911,
      "Izi": 2912,
      "Dqx": 2913,
      "Dwc": 2914,
      "zoy": 2915,
      "ROw": 2916,
      "zXw": 2917,
      "1B": 2918,
      "2Q": 2919,
      "2v": 2920,
      "6V": 2921,
      "7r": 2922,
      "D0q": 2923,
      "DzY": 2924,
      "Fc": 2925,
      "G4": 2926,
      "Inq": 2927,
      "LIE": 2928,
      "MV": 2929,
      "QB": 2930,
      "QP": 2931,
      "R9I": 2932,
      "Rbb": 2933,
      "TK": 2934,
      "Wzf": 2935,
      "Yj": 2936,
      "ZV": 2937,
      "c5": 2938,
      "gV": 2939,
      "nzE": 2940,
      "oIq": 2941,
      "rV": 2942,
      "vn": 2943,
      "zzz0": 2944,
      "wwZ": 2945,
      "Iwb": 2946,
      "ccw": 2947,
      "Rdq": 2948,
      "!t": 2949,
      "!IE": 2950,
      "0zx": 2951,
      "09I": 2952,
      "7b": 2953,
      "Ao": 2954,
      "DzR": 2955,
      "DfE": 2956,
      "FY": 2957,
      "Fi": 2958,
      "I0b": 2959,
      "KzD": 2960,
      "Lzq": 2961,
      "NO": 2962,
      "R1": 2963,
      "YV": 2964,
      "a9": 2965,
      "jf": 2966,
      "mC": 2967,
      "rg": 2968,
      "sV": 2969,
      "tU": 2970,
      "uS": 2971,
      "ua": 2972,
      "zzzK": 2973,
      "DwK": 2974,
      "DDb": 2975,
      "zbE": 2976,
      "zizi": 2977,
      "bbb": 2978,
      "6x": 2979,
      "7U": 2980,
      "8q": 2981,
      "9DI": 2982,
      "DzK": 2983,
      "JT": 2984,
      "N3": 2985,
      "Pwq": 2986,
      "RIy": 2987,
      "Si": 2988,
      "WDq": 2989,
      "ZQ": 2990,
      "a3": 2991,
      "e5": 2992,
      "eh": 2993,
      "fzw": 2994,
      "fzI": 2995,
      "ih": 2996,
      "jg": 2997,
      "ls": 2998,
      "nIf": 2999,
      "o9I": 3000,
      "tM": 3001,
      "v7": 3002,
      "xox": 3003,
      "zzB": 3004,
      "zzY": 3005,
      "IER": 3006,
      "Izu": 3007,
      "wqO": 3008,
      "Dwb": 3009,
      "ooL": 3010,
      "0oy": 3011,
      "zsq": 3012,
      "InE": 3013,
      "0DI": 3014,
      "0zi": 3015,
      "41": 3016,
      "4qq": 3017,
      "4Dy": 3018,
      "40E": 3019,
      "AB": 3020,
      "BEE": 3021,
      "Dfq": 3022,
      "I0L": 3023,
      "IWE": 3024,
      "KDq": 3025,
      "N6": 3026,
      "NA": 3027,
      "Sf": 3028,
      "Tb": 3029,
      "To": 3030,
      "Ug": 3031,
      "XU": 3032,
      "Yl": 3033,
      "am": 3034,
      "dm": 3035,
      "dIq": 3036,
      "fwI": 3037,
      "gww": 3038,
      "oz0": 3039,
      "oIo": 3040,
      "tZ": 3041,
      "ts": 3042,
      "xDq": 3043,
      "xzf": 3044,
      "z4Y": 3045,
      "zz!": 3046,
      "zzn": 3047,
      "qqZ": 3048,
      "IzY": 3049,
      "IIP": 3050,
      "IId": 3051,
      "YEy": 3052,
      "IRy": 3053,
      "fEy": 3054,
      "ROE": 3055,
      "IZq": 3056,
      "54": 3057,
      "5i": 3058,
      "6m": 3059,
      "A4": 3060,
      "Doy": 3061,
      "FB": 3062,
      "KqD": 3063,
      "LEE": 3064,
      "MA": 3065,
      "Nv": 3066,
      "Pzw": 3067,
      "Un": 3068,
      "Ux": 3069,
      "X6": 3070,
      "YzD": 3071,
      "af": 3072,
      "bqD": 3073,
      "dZ": 3074,
      "dIE": 3075,
      "fwE": 3076,
      "jR": 3077,
      "lh": 3078,
      "ozx": 3079,
      "tv": 3080,
      "u1": 3081,
      "uC": 3082,
      "xIq": 3083,
      "qqO": 3084,
      "IzK": 3085,
      "IzR": 3086,
      "wzK": 3087,
      "IqO": 3088,
      "IqW": 3089,
      "Dwi": 3090,
      "0cw": 3091,
      "Idq": 3092,
      "!4I": 3093,
      "0zI": 3094,
      "0DE": 3095,
      "4yE": 3096,
      "40w": 3097,
      "6C": 3098,
      "6c": 3099,
      "Gm": 3100,
      "MG": 3101,
      "Rzx": 3102,
      "SL": 3103,
      "Uy": 3104,
      "V9": 3105,
      "YqD": 3106,
      "ZM": 3107,
      "dyE": 3108,
      "iG": 3109,
      "mg": 3110,
      "nj": 3111,
      "nIy": 3112,
      "nIR": 3113,
      "r9": 3114,
      "s3": 3115,
      "sJ": 3116,
      "xz0": 3117,
      "IEf": 3118,
      "DqO": 3119,
      "qwqq": 3120,
      "9wy": 3121,
      "0coKw": 3122,
      "zZE": 3123,
      "IuE": 3124,
      "1y": 3125,
      "4qw": 3126,
      "4qE": 3127,
      "6b": 3128,
      "9u": 3129,
      "9Dy": 3130,
      "CR": 3131,
      "DxE": 3132,
      "Fg": 3133,
      "OT": 3134,
      "OIz": 3135,
      "Pzx": 3136,
      "WIE": 3137,
      "Xl": 3138,
      "Zzw": 3139,
      "ao": 3140,
      "bqE": 3141,
      "dB": 3142,
      "dzq": 3143,
      "ez0": 3144,
      "iqq": 3145,
      "izw": 3146,
      "izx": 3147,
      "izo": 3148,
      "izi": 3149,
      "jy": 3150,
      "m0": 3151,
      "nzD": 3152,
      "IzL": 3153,
      "wzc": 3154,
      "wqZ": 3155,
      "wqy": 3156,
      "IwR": 3157,
      "yy6": 3158,
      "qwy": 3159,
      "DIx": 3160,
      "qEL": 3161,
      "RwY": 3162,
      "Rwy": 3163,
      "oox": 3164,
      "DbY": 3165,
      "00c": 3166,
      "zcw": 3167,
      "DBq": 3168,
      "0Ow": 3169,
      "IZE": 3170,
      "zCq": 3171,
      "0LE": 3172,
      "0dy": 3173,
      "2A": 3174,
      "2P": 3175,
      "4DD": 3176,
      "Fx": 3177,
      "GV": 3178,
      "JA": 3179,
      "JW": 3180,
      "NV": 3181,
      "Q2": 3182,
      "QU": 3183,
      "SP": 3184,
      "WN": 3185,
      "X5": 3186,
      "XS": 3187,
      "Xa": 3188,
      "Yzq": 3189,
      "YwE": 3190,
      "bIE": 3191,
      "cl": 3192,
      "cww": 3193,
      "dqq": 3194,
      "dzw": 3195,
      "ezo": 3196,
      "hO": 3197,
      "hg": 3198,
      "hy": 3199,
      "m7": 3200,
      "nqE": 3201,
      "nIY": 3202,
      "oIR": 3203,
      "rt": 3204,
      "rzz": 3205,
      "vww": 3206,
      "wwP": 3207,
      "wEx": 3208,
      "DEL": 3209,
      "4IO": 3210,
      "0EL": 3211,
      "oow": 3212,
      "zKw": 3213,
      "bOw": 3214,
      "Icw": 3215,
      "DXw": 3216,
      "IZw": 3217,
      "!T": 3218,
      "!zq": 3219,
      "40y": 3220,
      "7D": 3221,
      "9qE": 3222,
      "FL": 3223,
      "J9": 3224,
      "JL": 3225,
      "RIR": 3226,
      "Sd": 3227,
      "V0": 3228,
      "Vf": 3229,
      "al": 3230,
      "cV": 3231,
      "dEE": 3232,
      "dyw": 3233,
      "g6": 3234,
      "nS": 3235,
      "nzn": 3236,
      "oDE": 3237,
      "ozb": 3238,
      "sm": 3239,
      "u6": 3240,
      "zqqq": 3241,
      "qqW": 3242,
      "zqD": 3243,
      "IIX": 3244,
      "IwK": 3245,
      "IwY": 3246,
      "Ifx": 3247,
      "DIO": 3248,
      "xEy": 3249,
      "IYY": 3250,
      "IPw": 3251,
      "bOE": 3252,
      "Ivq": 3253,
      "zzzzzzzzzzzzzzzz": 3254,
      "!5": 3255,
      "0zK": 3256,
      "19": 3257,
      "3U": 3258,
      "55": 3259,
      "CS": 3260,
      "F!": 3261,
      "FG": 3262,
      "Mv": 3263,
      "NC": 3264,
      "Pqq": 3265,
      "RRq": 3266,
      "Tc": 3267,
      "Tf": 3268,
      "Ue": 3269,
      "YzE": 3270,
      "bDI": 3271,
      "cDb": 3272,
      "ezw": 3273,
      "ezD": 3274,
      "gqq": 3275,
      "hi": 3276,
      "l4": 3277,
      "l9": 3278,
      "mZ": 3279,
      "nRE": 3280,
      "oS": 3281,
      "owq": 3282,
      "v4": 3283,
      "zzc": 3284,
      "qqP": 3285,
      "IE!": 3286,
      "IzB": 3287,
      "wzf": 3288,
      "Iqb": 3289,
      "Iqf": 3290,
      "wEL": 3291,
      "Iw9": 3292,
      "bbc": 3293,
      "xxq": 3294,
      "ocq": 3295,
      "zsE": 3296,
      "bcE": 3297,
      "IeE": 3298,
      "RBq": 3299,
      "0Rb": 3300,
      "27": 3301,
      "2Z": 3302,
      "8w": 3303,
      "BV": 3304,
      "GL": 3305,
      "GZ": 3306,
      "Kl": 3307,
      "PzE": 3308,
      "U3": 3309,
      "UK": 3310,
      "Vd": 3311,
      "Wu": 3312,
      "WzE": 3313,
      "YS": 3314,
      "Zzz": 3315,
      "aX": 3316,
      "cwI": 3317,
      "dzE": 3318,
      "dzI": 3319,
      "ezE": 3320,
      "hv": 3321,
      "iz0": 3322,
      "mA": 3323,
      "nIw": 3324,
      "nDw": 3325,
      "oIf": 3326,
      "zqy": 3327,
      "IqP": 3328,
      "DEY": 3329,
      "zoL": 3330,
      "zezz": 3331,
      "0Lq": 3332,
      "0iE": 3333,
      "zuq": 3334,
      "!c": 3335,
      "!zE": 3336,
      "0DD": 3337,
      "1f": 3338,
      "4j": 3339,
      "4zO": 3340,
      "5g": 3341,
      "9zb": 3342,
      "DYE": 3343,
      "IAE": 3344,
      "JQ": 3345,
      "KzE": 3346,
      "NM": 3347,
      "Nt": 3348,
      "OS": 3349,
      "PIz": 3350,
      "PRE": 3351,
      "RIi": 3352,
      "V3": 3353,
      "Ve": 3354,
      "Wm": 3355,
      "Wqq": 3356,
      "Wzw": 3357,
      "WDy": 3358,
      "ZII": 3359,
      "bwq": 3360,
      "bzD": 3361,
      "cwz": 3362,
      "dII": 3363,
      "dzf": 3364,
      "ezI": 3365,
      "hA": 3366,
      "lx": 3367,
      "o0E": 3368,
      "o00": 3369,
      "rM": 3370,
      "rQ": 3371,
      "s7": 3372,
      "szq": 3373,
      "wwf": 3374,
      "IEc": 3375,
      "qwc": 3376,
      "Rqx": 3377,
      "ziK": 3378,
      "bOO": 3379,
      "z9E": 3380,
      "ococ": 3381,
      "Rcw": 3382,
      "zZq": 3383,
      "z!E": 3384,
      "I!E": 3385,
      "!Iw": 3386,
      "0zo": 3387,
      "0bb": 3388,
      "4u": 3389,
      "56": 3390,
      "6Q": 3391,
      "@@": 3392,
      "Am": 3393,
      "Bzq": 3394,
      "BwE": 3395,
      "DKq": 3396,
      "Fl": 3397,
      "K6": 3398,
      "KS": 3399,
      "Kj": 3400,
      "LwE": 3401,
      "LDD": 3402,
      "Oqq": 3403,
      "Owq": 3404,
      "PwE": 3405,
      "PDw": 3406,
      "Rzy": 3407,
      "RIx": 3408,
      "RzY": 3409,
      "UO": 3410,
      "XwE": 3411,
      "YzI": 3412,
      "YIy": 3413,
      "Zu": 3414,
      "fIz": 3415,
      "iS": 3416,
      "iT": 3417,
      "iEE": 3418,
      "nzy": 3419,
      "now": 3420,
      "oDI": 3421,
      "owI": 3422,
      "o0o": 3423,
      "sU": 3424,
      "vDE": 3425,
      "yzz": 3426,
      "zaq": 3427,
      "IEb": 3428,
      "IEi": 3429,
      "zxY": 3430,
      "DIb": 3431,
      "9IL": 3432,
      "zRO": 3433,
      "Rbc": 3434,
      "IDx": 3435,
      "0xw": 3436,
      "zdw": 3437,
      "Diw": 3438,
      "zsw": 3439,
      "I3q": 3440,
      "zME": 3441,
      "ByBy": 3442,
      "23": 3443,
      "2C": 3444,
      "3a": 3445,
      "4A": 3446,
      "44q": 3447,
      "5j": 3448,
      "6a": 3449,
      "86": 3450,
      "9zD": 3451,
      "Ad": 3452,
      "Bzz": 3453,
      "Cr": 3454,
      "DoE": 3455,
      "KzK": 3456,
      "NG": 3457,
      "ODq": 3458,
      "PF": 3459,
      "Poq": 3460,
      "RG": 3461,
      "RDY": 3462,
      "WzI": 3463,
      "Wqw": 3464,
      "Wzo": 3465,
      "XV": 3466,
      "ZIf": 3467,
      "bzq": 3468,
      "c1": 3469,
      "cyy": 3470,
      "eIE": 3471,
      "nqD": 3472,
      "nze": 3473,
      "nEy": 3474,
      "ncE": 3475,
      "ozo": 3476,
      "occ": 3477,
      "sa": 3478,
      "sl": 3479,
      "sqw": 3480,
      "v1": 3481,
      "vwq": 3482,
      "xJ": 3483,
      "yIE": 3484,
      "ywE": 3485,
      "yEE": 3486,
      "zzm": 3487,
      "wqww": 3488,
      "DqY": 3489,
      "DqZ": 3490,
      "IIR": 3491,
      "IIW": 3492,
      "zwx": 3493,
      "Dw9": 3494,
      "wIy": 3495,
      "DDY": 3496,
      "IyY": 3497,
      "I4E": 3498,
      "I4y": 3499,
      "zZw": 3500,
      "zvw": 3501,
      "zgw": 3502,
      "rrr": 3503,
      "0zb": 3504,
      "0wf": 3505,
      "0bw": 3506,
      "22": 3507,
      "29": 3508,
      "3S": 3509,
      "4zx": 3510,
      "4zb": 3511,
      "4yq": 3512,
      "D0E": 3513,
      "Dcc": 3514,
      "Diq": 3515,
      "FQ": 3516,
      "IWq": 3517,
      "Kzw": 3518,
      "KzI": 3519,
      "Ozw": 3520,
      "PH": 3521,
      "Pzy": 3522,
      "Qg": 3523,
      "Wa": 3524,
      "WIy": 3525,
      "X9I": 3526,
      "ZIz": 3527,
      "Zwz": 3528,
      "bV": 3529,
      "cIE": 3530,
      "dDw": 3531,
      "dzx": 3532,
      "fJ": 3533,
      "fyE": 3534,
      "gwz": 3535,
      "iDE": 3536,
      "lL": 3537,
      "nDI": 3538,
      "nzo": 3539,
      "nzf": 3540,
      "nRw": 3541,
      "nxE": 3542,
      "ncc": 3543,
      "o8": 3544,
      "oRq": 3545,
      "tC": 3546,
      "xj": 3547,
      "xqw": 3548,
      "Dqf": 3549,
      "Iwi": 3550,
      "zwY": 3551,
      "zwe": 3552,
      "zDf": 3553,
      "IfY": 3554,
      "4Ic": 3555,
      "DyY": 3556,
      "DDL": 3557,
      "oEL": 3558,
      "ywO": 3559,
      "ILq": 3560,
      "zmq": 3561,
      "!zD": 3562,
      "5o": 3563,
      "6g": 3564,
      "6h": 3565,
      "9h": 3566,
      "A3": 3567,
      "BS": 3568,
      "Dz0": 3569,
      "D0w": 3570,
      "DzL": 3571,
      "FRE": 3572,
      "I0i": 3573,
      "KJ": 3574,
      "Mr": 3575,
      "N7": 3576,
      "OU": 3577,
      "PIq": 3578,
      "RT": 3579,
      "RDE": 3580,
      "RDx": 3581,
      "TG": 3582,
      "Tu": 3583,
      "UX": 3584,
      "WIz": 3585,
      "WEy": 3586,
      "Xh": 3587,
      "ar": 3588,
      "bEE": 3589,
      "czw": 3590,
      "cEy": 3591,
      "gwE": 3592,
      "lF": 3593,
      "oIy": 3594,
      "wwi": 3595,
      "wzg": 3596,
      "IqB": 3597,
      "IqL": 3598,
      "Iqc": 3599,
      "zDX": 3600,
      "zEY": 3601,
      "Ifd": 3602,
      "0000": 3603,
      "zRy": 3604,
      "fEL": 3605,
      "DOy": 3606,
      "YYY": 3607,
      "YYw": 3608,
      "zrE": 3609,
      "IMq": 3610,
      "!G": 3611,
      "!II": 3612,
      "!ocoK": 3613,
      "0Dy": 3614,
      "0fq": 3615,
      "0Dx": 3616,
      "1S": 3617,
      "4YE": 3618,
      "4wf": 3619,
      "5II": 3620,
      "6d": 3621,
      "9H": 3622,
      "9Db": 3623,
      "A7": 3624,
      "Cwz": 3625,
      "Doo": 3626,
      "IKq": 3627,
      "IBE": 3628,
      "KV": 3629,
      "KwI": 3630,
      "LS": 3631,
      "OH": 3632,
      "OIE": 3633,
      "OwE": 3634,
      "Pp": 3635,
      "PRw": 3636,
      "Qm": 3637,
      "RRw": 3638,
      "TA": 3639,
      "UF": 3640,
      "WJ": 3641,
      "WDw": 3642,
      "ZT": 3643,
      "aIz": 3644,
      "bS": 3645,
      "bDq": 3646,
      "bDO": 3647,
      "czq": 3648,
      "cwE": 3649,
      "cqw": 3650,
      "eIz": 3651,
      "g1": 3652,
      "jZ": 3653,
      "mS": 3654,
      "nH": 3655,
      "nyy": 3656,
      "nDE": 3657,
      "oyy": 3658,
      "oDy": 3659,
      "obb": 3660,
      "o0q": 3661,
      "o0x": 3662,
      "r00": 3663,
      "tN": 3664,
      "uzq": 3665,
      "vh": 3666,
      "xyE": 3667,
      "wwY": 3668,
      "qqx": 3669,
      "qqy": 3670,
      "wzB": 3671,
      "wzL": 3672,
      "wqwq": 3673,
      "zDB": 3674,
      "Rqf": 3675,
      "zyf": 3676,
      "Ioy": 3677,
      "zPw": 3678,
      "IOy": 3679,
      "Dfy": 3680,
      "owy": 3681,
      "!zw": 3682,
      "0If": 3683,
      "0yq": 3684,
      "0iq": 3685,
      "1L": 3686,
      "1b": 3687,
      "2V": 3688,
      "Ch": 3689,
      "Doq": 3690,
      "IBw": 3691,
      "Kww": 3692,
      "KII": 3693,
      "Ml": 3694,
      "Oqw": 3695,
      "OqE": 3696,
      "PIE": 3697,
      "PII": 3698,
      "RIL": 3699,
      "RBE": 3700,
      "UZ": 3701,
      "Ud": 3702,
      "Wl": 3703,
      "Zzq": 3704,
      "aww": 3705,
      "bIw": 3706,
      "bwf": 3707,
      "ch": 3708,
      "gj": 3709,
      "noq": 3710,
      "pq": 3711,
      "sF": 3712,
      "t6": 3713,
      "tg": 3714,
      "uqD": 3715,
      "vJ": 3716,
      "vqE": 3717,
      "xh": 3718,
      "xzb": 3719,
      "wzY": 3720,
      "zqs": 3721,
      "IqX": 3722,
      "zI9": 3723,
      "yEf": 3724,
      "yEx": 3725,
      "DIc": 3726,
      "zoi": 3727,
      "Rqy": 3728,
      "9Ie": 3729,
      "YEY": 3730,
      "ccN": 3731,
      "LEL": 3732,
      "eee": 3733,
      "IXq": 3734,
      "Iiw": 3735,
      "zFE": 3736,
      "!s": 3737,
      "!If": 3738,
      "00E": 3739,
      "3N": 3740,
      "7G": 3741,
      "7zz": 3742,
      "9J": 3743,
      "Av": 3744,
      "CT": 3745,
      "D8": 3746,
      "D4I": 3747,
      "D4q": 3748,
      "Gj": 3749,
      "Jr": 3750,
      "KIz": 3751,
      "KwE": 3752,
      "LT": 3753,
      "OIq": 3754,
      "OEE": 3755,
      "PRb": 3756,
      "Q5": 3757,
      "QT": 3758,
      "Rfq": 3759,
      "RDi": 3760,
      "XJ": 3761,
      "ZIR": 3762,
      "ad": 3763,
      "bDw": 3764,
      "bEq": 3765,
      "czz": 3766,
      "cIz": 3767,
      "cEE": 3768,
      "dh": 3769,
      "iIq": 3770,
      "mD": 3771,
      "nyE": 3772,
      "noo": 3773,
      "oyw": 3774,
      "rF": 3775,
      "t3": 3776,
      "tu": 3777,
      "u9": 3778,
      "uIw": 3779,
      "vqw": 3780,
      "zaw": 3781,
      "qqc": 3782,
      "II9": 3783,
      "IwW": 3784,
      "zEx": 3785,
      "Ifb": 3786,
      "zIe": 3787,
      "DEe": 3788,
      "wId": 3789,
      "wIx": 3790,
      "z0L": 3791,
      "z0i": 3792,
      "DDB": 3793,
      "zRd": 3794,
      "IYy": 3795,
      "4wY": 3796,
      "Lwb": 3797,
      "oLY": 3798,
      "zmw": 3799,
      "zuw": 3800,
      "Iuq": 3801,
      "ICq": 3802,
      "2O": 3803,
      "3wz": 3804,
      "8V": 3805,
      "9zx": 3806,
      "DRq": 3807,
      "Dzi": 3808,
      "DzP": 3809,
      "DzZ": 3810,
      "F4": 3811,
      "FC": 3812,
      "G2": 3813,
      "GC": 3814,
      "I0c": 3815,
      "Ieq": 3816,
      "Iaq": 3817,
      "Kqw": 3818,
      "Lzx": 3819,
      "O5": 3820,
      "ODI": 3821,
      "Pww": 3822,
      "PDq": 3823,
      "PzD": 3824,
      "Q7": 3825,
      "Rzb": 3826,
      "Ryq": 3827,
      "Vn": 3828,
      "Wh": 3829,
      "Xwz": 3830,
      "XEE": 3831,
      "aK": 3832,
      "b6": 3833,
      "dwq": 3834,
      "dIf": 3835,
      "f1": 3836,
      "fww": 3837,
      "fDw": 3838,
      "izP": 3839,
      "jK": 3840,
      "nDy": 3841,
      "nIx": 3842,
      "ozy": 3843,
      "ozR": 3844,
      "oLE": 3845,
      "oIO": 3846,
      "pw": 3847,
      "r0o": 3848,
      "vwz": 3849,
      "xqE": 3850,
      "x0E": 3851,
      "zzzD": 3852,
      "zzzo": 3853,
      "wwW": 3854,
      "qqwq": 3855,
      "zEe": 3856,
      "DEb": 3857,
      "DIi": 3858,
      "REy": 3859,
      "zbO": 3860,
      "LEy": 3861,
      "Dcy": 3862,
      "44E": 3863,
      "xxxx": 3864,
      "Ivw": 3865,
      "I3w": 3866,
      "!B": 3867,
      "!u": 3868,
      "!Iy": 3869,
      "4zR": 3870,
      "5s": 3871,
      "62": 3872,
      "69": 3873,
      "6N": 3874,
      "7T": 3875,
      "9zy": 3876,
      "Bww": 3877,
      "BIE": 3878,
      "Dox": 3879,
      "DzX": 3880,
      "D0y": 3881,
      "FD": 3882,
      "Gl": 3883,
      "KIf": 3884,
      "OJ": 3885,
      "OqD": 3886,
      "PG": 3887,
      "Pzf": 3888,
      "Pz0": 3889,
      "Qa": 3890,
      "Qj": 3891,
      "Rze": 3892,
      "RDb": 3893,
      "RzR": 3894,
      "RfE": 3895,
      "RI4": 3896,
      "Td": 3897,
      "Uf": 3898,
      "V7": 3899,
      "Vg": 3900,
      "WLE": 3901,
      "XEy": 3902,
      "Z2": 3903,
      "cIw": 3904,
      "c9I": 3905,
      "fV": 3906,
      "fEE": 3907,
      "fqD": 3908,
      "ffq": 3909,
      "gqw": 3910,
      "gRq": 3911,
      "iqE": 3912,
      "nwf": 3913,
      "nzR": 3914,
      "n0w": 3915,
      "oDD": 3916,
      "oRw": 3917,
      "oID": 3918,
      "oIY": 3919,
      "o0L": 3920,
      "obw": 3921,
      "rZ": 3922,
      "sIq": 3923,
      "tDq": 3924,
      "vj": 3925,
      "xIf": 3926,
      "xzK": 3927,
      "zz0": 3928,
      "zzZ": 3929,
      "wzt": 3930,
      "Ifu": 3931,
      "qwf": 3932,
      "Dye": 3933,
      "0EY": 3934,
      "REL": 3935,
      "zizz": 3936,
      "DYY": 3937,
      "zBw": 3938,
      "zrq": 3939,
      "!h": 3940,
      "!Dw": 3941,
      "0zy": 3942,
      "5IY": 3943,
      "6!": 3944,
      "6A": 3945,
      "70": 3946,
      "9DE": 3947,
      "Bzw": 3948,
      "Fe": 3949,
      "FRb": 3950,
      "HH": 3951,
      "Inw": 3952,
      "KEE": 3953,
      "LzE": 3954,
      "MJ": 3955,
      "Pzo": 3956,
      "PqE": 3957,
      "Pox": 3958,
      "Rzo": 3959,
      "RI9": 3960,
      "UC": 3961,
      "UW": 3962,
      "VA": 3963,
      "Wj": 3964,
      "W4I": 3965,
      "Xqq": 3966,
      "ZJ": 3967,
      "aD": 3968,
      "bzE": 3969,
      "bDE": 3970,
      "bDy": 3971,
      "cDw": 3972,
      "ewE": 3973,
      "fIw": 3974,
      "iDq": 3975,
      "iYE": 3976,
      "jc": 3977,
      "ln": 3978,
      "mU": 3979,
      "nEE": 3980,
      "nYw": 3981,
      "nI0": 3982,
      "owf": 3983,
      "oIx": 3984,
      "oI4": 3985,
      "pdq": 3986,
      "t7": 3987,
      "uA": 3988,
      "xwz": 3989,
      "xwq": 3990,
      "xRq": 3991,
      "xxE": 3992,
      "IEd": 3993,
      "Iqx": 3994,
      "wqW": 3995,
      "IIY": 3996,
      "IIg": 3997,
      "Iwx": 3998,
      "zwK": 3999,
      "zwc": 4000,
      "DIZ": 4001,
      "DDc": 4002,
      "qDO": 4003,
      "00O": 4004,
      "00i": 4005,
      "4Yc": 4006,
      "oiw": 4007,
      "eeq": 4008,
      "!F": 4009,
      "!g": 4010,
      "!zx": 4011,
      "0Iy": 4012,
      "3Ey": 4013,
      "4zy": 4014,
      "4PE": 4015,
      "6s": 4016,
      "7C": 4017,
      "9S": 4018,
      "9z0": 4019,
      "9zd": 4020,
      "Dzn": 4021,
      "Fa": 4022,
      "Ft": 4023,
      "FRq": 4024,
      "Kzx": 4025,
      "Kzo": 4026,
      "Lzw": 4027,
      "Ns": 4028,
      "Oyw": 4029,
      "OIO": 4030,
      "Pwf": 4031,
      "Rzf": 4032,
      "RoE": 4033,
      "RDf": 4034,
      "RRx": 4035,
      "SV": 4036,
      "Ua": 4037,
      "XzD": 4038,
      "bqw": 4039,
      "dIy": 4040,
      "ej": 4041,
      "ffE": 4042,
      "iwz": 4043,
      "iRE": 4044,
      "lA": 4045,
      "mQ": 4046,
      "niq": 4047,
      "oyq": 4048,
      "o0w": 4049,
      "r3": 4050,
      "tB": 4051,
      "vIE": 4052,
      "xze": 4053,
      "xzR": 4054,
      "xIx": 4055,
      "wzP": 4056,
      "wzs": 4057,
      "Iqu": 4058,
      "Dqc": 4059,
      "IfB": 4060,
      "qwP": 4061,
      "z0y": 4062,
      "ooc": 4063,
      "ooi": 4064,
      "00r": 4065,
      "oyW": 4066,
      "oxY": 4067,
      "DLc": 4068,
      "RBw": 4069,
      "cwY": 4070,
      "z3q": 4071,
      "KKK": 4072,
      "ICw": 4073,
      "Rmq": 4074,
      "04I": 4075,
      "0Db": 4076,
      "0Io": 4077,
      "3zw": 4078,
      "4J": 4079,
      "4EE": 4080,
      "4zo": 4081,
      "4DY": 4082,
      "5C": 4083,
      "5P": 4084,
      "5l": 4085,
      "67": 4086,
      "9yq": 4087,
      "9Ew": 4088,
      "Ab": 4089,
      "D0L": 4090,
      "Dzd": 4091,
      "Dz9": 4092,
      "IKw": 4093,
      "IBY": 4094,
      "Iaw": 4095,
      "LJ": 4096,
      "Lww": 4097,
      "LyE": 4098,
      "LRE": 4099,
      "LzO": 4100,
      "NQ": 4101,
      "Ozz": 4102,
      "Occ": 4103,
      "Ofq": 4104,
      "OEq": 4105,
      "PqD": 4106,
      "Pfq": 4107,
      "Ql": 4108,
      "Rz0": 4109,
      "Rzi": 4110,
      "RIo": 4111,
      "RDL": 4112,
      "RYY": 4113,
      "T9": 4114,
      "VK": 4115,
      "VY": 4116,
      "WS": 4117,
      "XoX": 4118,
      "YYE": 4119,
      "dwE": 4120,
      "eww": 4121,
      "eqq": 4122,
      "eyE": 4123,
      "ezx": 4124,
      "gl": 4125,
      "hX": 4126,
      "hl": 4127,
      "izR": 4128,
      "jW": 4129,
      "nRq": 4130,
      "nzb": 4131,
      "nOq": 4132,
      "oze": 4133,
      "o0y": 4134,
      "oDo": 4135,
      "oLw": 4136,
      "rT": 4137,
      "rl": 4138,
      "ta": 4139,
      "vEy": 4140,
      "xIy": 4141,
      "zzF": 4142,
      "IEO": 4143,
      "IEX": 4144,
      "IEe": 4145,
      "IEv": 4146,
      "IzX": 4147,
      "wzZ": 4148,
      "zqW": 4149,
      "zqc": 4150,
      "Iqi": 4151,
      "Iqs": 4152,
      "Iwu": 4153,
      "IfW": 4154,
      "zIW": 4155,
      "wIP": 4156,
      "wIQ": 4157,
      "IDf": 4158,
      "oxw": 4159,
      "ROy": 4160,
      "0iw": 4161,
      "Rcb": 4162,
      "ffy": 4163,
      "Pqx": 4164,
      "0Bq": 4165,
      "z7E": 4166,
      "ne0coKw": 4167,
      "!Iz": 4168,
      "!Dq": 4169,
      "!0E": 4170,
      "0IY": 4171,
      "0zL": 4172,
      "0Do": 4173,
      "0BE": 4174,
      "1i": 4175,
      "1m": 4176,
      "2s": 4177,
      "3qq": 4178,
      "7M": 4179,
      "9bq": 4180,
      "9cq": 4181,
      "BzD": 4182,
      "Cwq": 4183,
      "DdE": 4184,
      "DCE": 4185,
      "G5": 4186,
      "KqE": 4187,
      "Kzi": 4188,
      "Lwq": 4189,
      "L00": 4190,
      "MU": 4191,
      "NB": 4192,
      "QV": 4193,
      "RyE": 4194,
      "RDO": 4195,
      "R0q": 4196,
      "Roy": 4197,
      "RxY": 4198,
      "RI0": 4199,
      "Rgw": 4200,
      "VU": 4201,
      "Www": 4202,
      "YU": 4203,
      "ZEE": 4204,
      "dqw": 4205,
      "dEy": 4206,
      "eEE": 4207,
      "eDE": 4208,
      "eqE": 4209,
      "eDy": 4210,
      "foE": 4211,
      "ha": 4212,
      "iIz": 4213,
      "iIy": 4214,
      "jN": 4215,
      "je": 4216,
      "ji": 4217,
      "mN": 4218,
      "n9I": 4219,
      "nbb": 4220,
      "nzK": 4221,
      "nRb": 4222,
      "n0q": 4223,
      "noy": 4224,
      "nDL": 4225,
      "nxw": 4226,
      "ody": 4227,
      "o9w": 4228,
      "obc": 4229,
      "rzI": 4230,
      "uIE": 4231,
      "uzw": 4232,
      "uqE": 4233,
      "vvL": 4234,
      "xzi": 4235,
      "xqD": 4236,
      "xzP": 4237,
      "EEc": 4238,
      "zDY": 4239,
      "Dwf": 4240,
      "zIA": 4241,
      "yEY": 4242,
      "4Id": 4243,
      "Iyf": 4244,
      "qDB": 4245,
      "oo!": 4246,
      "yqf": 4247,
      "yqy": 4248,
      "DOb": 4249,
      "PEy": 4250,
      "4wc": 4251,
      "0wy": 4252,
      "ocw": 4253,
      "IXw": 4254,
      "f9E": 4255,
      "IME": 4256,
      "IsE": 4257,
      "6666": 4258,
      "!N": 4259,
      "!Q": 4260,
      "0zf": 4261,
      "0IR": 4262,
      "0yw": 4263,
      "0zP": 4264,
      "0Dc": 4265,
      "3zz": 4266,
      "4RE": 4267,
      "4iq": 4268,
      "4z9": 4269,
      "4BE": 4270,
      "59": 4271,
      "7u": 4272,
      "9EE": 4273,
      "9zK": 4274,
      "9zO": 4275,
      "Bqq": 4276,
      "FM": 4277,
      "Iee": 4278,
      "KT": 4279,
      "KIq": 4280,
      "Ll": 4281,
      "LIw": 4282,
      "LDE": 4283,
      "Lzo": 4284,
      "MS": 4285,
      "OzD": 4286,
      "OxE": 4287,
      "OOq": 4288,
      "OBE": 4289,
      "PzI": 4290,
      "WqE": 4291,
      "Z!": 4292,
      "aU": 4293,
      "aIw": 4294,
      "bYE": 4295,
      "cDE": 4296,
      "cqE": 4297,
      "cDc": 4298,
      "cEw": 4299,
      "eIf": 4300,
      "fIR": 4301,
      "fbq": 4302,
      "gwq": 4303,
      "gqE": 4304,
      "gRE": 4305,
      "izf": 4306,
      "lJ": 4307,
      "mt": 4308,
      "nzY": 4309,
      "nIn": 4310,
      "ncq": 4311,
      "o4I": 4312,
      "ozK": 4313,
      "vqq": 4314,
      "vzq": 4315,
      "vqD": 4316,
      "xDE": 4317,
      "wzd": 4318,
      "wqd": 4319,
      "zwX": 4320,
      "zEP": 4321,
      "zxy": 4322,
      "4IK": 4323,
      "zyP": 4324,
      "YEx": 4325,
      "Ixy": 4326,
      "ywW": 4327,
      "ccb": 4328,
      "fqy": 4329,
      "0ox": 4330,
      "ROb": 4331,
      "Icy": 4332,
      "Rxw": 4333,
      "cwy": 4334,
      "zNE": 4335,
      "!IR": 4336,
      "0dE": 4337,
      "0I4": 4338,
      "0vx": 4339,
      "2U": 4340,
      "31": 4341,
      "4Rq": 4342,
      "4Db": 4343,
      "4zP": 4344,
      "40O": 4345,
      "4XE": 4346,
      "5m": 4347,
      "6j": 4348,
      "9DD": 4349,
      "9zi": 4350,
      "9zR": 4351,
      "94w": 4352,
      "Al": 4353,
      "BEw": 4354,
      "CV": 4355,
      "Cww": 4356,
      "CEq": 4357,
      "DPE": 4358,
      "Dow": 4359,
      "Dz4": 4360,
      "Fb": 4361,
      "Jv": 4362,
      "KIE": 4363,
      "LF": 4364,
      "Lyy": 4365,
      "Ng": 4366,
      "Obb": 4367,
      "Ooy": 4368,
      "Ofw": 4369,
      "Ryw": 4370,
      "RzL": 4371,
      "Roq": 4372,
      "RDB": 4373,
      "S3": 4374,
      "SW": 4375,
      "TZ": 4376,
      "W0E": 4377,
      "XIE": 4378,
      "Xqw": 4379,
      "XqE": 4380,
      "Yqq": 4381,
      "Yqw": 4382,
      "ZDq": 4383,
      "ZzD": 4384,
      "a2": 4385,
      "a7": 4386,
      "bDb": 4387,
      "bIo": 4388,
      "c8": 4389,
      "cqq": 4390,
      "cbb": 4391,
      "dU": 4392,
      "dyy": 4393,
      "ezK": 4394,
      "fDq": 4395,
      "fDI": 4396,
      "gU": 4397,
      "izc": 4398,
      "iEw": 4399,
      "jx": 4400,
      "mRE": 4401,
      "ozn": 4402,
      "uIq": 4403,
      "voo": 4404,
      "xIo": 4405,
      "IEQ": 4406,
      "IEs": 4407,
      "IEu": 4408,
      "Iz!": 4409,
      "zqO": 4410,
      "zqZ": 4411,
      "zqb": 4412,
      "wqg": 4413,
      "IIv": 4414,
      "zEi": 4415,
      "9IX": 4416,
      "REY": 4417,
      "00!": 4418,
      "fEx": 4419,
      "zOy": 4420,
      "IDg": 4421,
      "fqi": 4422,
      "9qy": 4423,
      "DxY": 4424,
      "DYy": 4425,
      "zBzB": 4426,
      "ocN": 4427,
      "Owy": 4428,
      "bcw": 4429,
      "!M": 4430,
      "!zo": 4431,
      "0zR": 4432,
      "0RD": 4433,
      "2B": 4434,
      "4z4": 4435,
      "4iY": 4436,
      "6u": 4437,
      "7d": 4438,
      "AS": 4439,
      "Bl": 4440,
      "Bzo": 4441,
      "CEE": 4442,
      "DzO": 4443,
      "DPq": 4444,
      "FN": 4445,
      "GA": 4446,
      "GD": 4447,
      "Gbb": 4448,
      "IBq": 4449,
      "JP": 4450,
      "Jx": 4451,
      "KDw": 4452,
      "LDw": 4453,
      "LRq": 4454,
      "L4q": 4455,
      "MDw": 4456,
      "Nl": 4457,
      "NIw": 4458,
      "OEw": 4459,
      "QzE": 4460,
      "RID": 4461,
      "RIO": 4462,
      "RDo": 4463,
      "RmE": 4464,
      "SG": 4465,
      "VB": 4466,
      "VO": 4467,
      "WDb": 4468,
      "Ywf": 4469,
      "ZDw": 4470,
      "a4": 4471,
      "bIb": 4472,
      "cwq": 4473,
      "cDq": 4474,
      "cqD": 4475,
      "coc": 4476,
      "dl": 4477,
      "eIw": 4478,
      "e0w": 4479,
      "eoi": 4480,
      "foq": 4481,
      "gEq": 4482,
      "i0E": 4483,
      "iqD": 4484,
      "nyq": 4485,
      "nyw": 4486,
      "nIo": 4487,
      "nzP": 4488,
      "nfq": 4489,
      "nKw": 4490,
      "nIi": 4491,
      "oDO": 4492,
      "ozP": 4493,
      "oIi": 4494,
      "rh": 4495,
      "rm": 4496,
      "ufq": 4497,
      "vyy": 4498,
      "vLL": 4499,
      "xl": 4500,
      "xDI": 4501,
      "wwwq": 4502,
      "IEW": 4503,
      "IzZ": 4504,
      "Ize": 4505,
      "Izg": 4506,
      "II3": 4507,
      "IIu": 4508,
      "zw9": 4509,
      "zfe": 4510,
      "9Id": 4511,
      "DDO": 4512,
      "DDi": 4513,
      "Rwi": 4514,
      "zew": 4515,
      "IRb": 4516,
      "zne": 4517,
      "44y": 4518,
      "Yqf": 4519,
      "xxx": 4520,
      "RcE": 4521,
      "y9y": 4522,
      "0Bw": 4523,
      "IQq": 4524,
      "0Ix": 4525,
      "09q": 4526,
      "2F": 4527,
      "4H": 4528,
      "52": 4529,
      "5G": 4530,
      "6r": 4531,
      "6zz": 4532,
      "8L": 4533,
      "9yw": 4534,
      "9zY": 4535,
      "9Ey": 4536,
      "BDw": 4537,
      "BYE": 4538,
      "C0": 4539,
      "Czz": 4540,
      "DKw": 4541,
      "FEE": 4542,
      "G1": 4543,
      "IjE": 4544,
      "Jj": 4545,
      "Lwz": 4546,
      "LDq": 4547,
      "M5": 4548,
      "Oh": 4549,
      "Oyy": 4550,
      "Rh": 4551,
      "Ryy": 4552,
      "R4I": 4553,
      "Tt": 4554,
      "Us": 4555,
      "VX": 4556,
      "Vv": 4557,
      "W5": 4558,
      "WEE": 4559,
      "WDE": 4560,
      "Wzy": 4561,
      "YwI": 4562,
      "ZID": 4563,
      "b0E": 4564,
      "bDD": 4565,
      "cII": 4566,
      "cyE": 4567,
      "dS": 4568,
      "dj": 4569,
      "eIq": 4570,
      "ezy": 4571,
      "fh": 4572,
      "fRq": 4573,
      "fwf": 4574,
      "gwf": 4575,
      "iwq": 4576,
      "iIo": 4577,
      "l6": 4578,
      "ma": 4579,
      "nYE": 4580,
      "nID": 4581,
      "nRf": 4582,
      "ozI": 4583,
      "ozf": 4584,
      "ozi": 4585,
      "oDf": 4586,
      "oI9": 4587,
      "o0i": 4588,
      "ru": 4589,
      "rDw": 4590,
      "swE": 4591,
      "tDb": 4592,
      "u7": 4593,
      "vzz": 4594,
      "vEE": 4595,
      "xRE": 4596,
      "xfE": 4597,
      "wwqw": 4598,
      "qqD": 4599,
      "Iz4": 4600,
      "zqP": 4601,
      "Iw3": 4602,
      "Iwg": 4603,
      "zDO": 4604,
      "zIb": 4605,
      "z0B": 4606,
      "z0x": 4607,
      "RwP": 4608,
      "zbY": 4609,
      "zby": 4610,
      "YEu": 4611,
      "yqx": 4612,
      "zKK": 4613,
      "ywY": 4614,
      "IDY": 4615,
      "0oi": 4616,
      "4Yy": 4617,
      "dyY": 4618,
      "zdX": 4619,
      "YwY": 4620,
      "I4P": 4621,
      "yfy": 4622,
      "zMq": 4623,
      "zCw": 4624,
      "ztE": 4625,
      "zAE": 4626,
      "Dmq": 4627,
      "I6E": 4628,
      "zqqw": 4629,
      "6y6y6y6y": 4630,
      "!Z": 4631,
      "!0x": 4632,
      "0DL": 4633,
      "0Df": 4634,
      "0fw": 4635,
      "0Di": 4636,
      "1a": 4637,
      "1l": 4638,
      "3wq": 4639,
      "3Ew": 4640,
      "6o": 4641,
      "7Q": 4642,
      "9YY": 4643,
      "9Eq": 4644,
      "A2": 4645,
      "AU": 4646,
      "Ac": 4647,
      "BT": 4648,
      "Bj": 4649,
      "CwI": 4650,
      "D4w": 4651,
      "FZ": 4652,
      "GT": 4653,
      "ImE": 4654,
      "Mh": 4655,
      "Mwz": 4656,
      "MEE": 4657,
      "Ol": 4658,
      "P0w": 4659,
      "Pxq": 4660,
      "Qh": 4661,
      "Rzc": 4662,
      "RIb": 4663,
      "Su": 4664,
      "Va": 4665,
      "Wzx": 4666,
      "Xj": 4667,
      "XIz": 4668,
      "XDE": 4669,
      "XqD": 4670,
      "awz": 4671,
      "bII": 4672,
      "bDL": 4673,
      "b0b": 4674,
      "cH": 4675,
      "cS": 4676,
      "czE": 4677,
      "dF": 4678,
      "dIR": 4679,
      "dIL": 4680,
      "eyy": 4681,
      "ezi": 4682,
      "eEy": 4683,
      "fzx": 4684,
      "gEw": 4685,
      "hh": 4686,
      "iJ": 4687,
      "ij": 4688,
      "izy": 4689,
      "j9": 4690,
      "jr": 4691,
      "lY": 4692,
      "m4": 4693,
      "ml": 4694,
      "nzx": 4695,
      "nzi": 4696,
      "n00": 4697,
      "nnq": 4698,
      "noc": 4699,
      "noi": 4700,
      "ozc": 4701,
      "p3": 4702,
      "s5": 4703,
      "sEE": 4704,
      "tT": 4705,
      "tm": 4706,
      "uzz": 4707,
      "v8": 4708,
      "vIz": 4709,
      "voy": 4710,
      "xww": 4711,
      "xzL": 4712,
      "zzC": 4713,
      "zzN": 4714,
      "zzg": 4715,
      "zzt": 4716,
      "Izs": 4717,
      "wzW": 4718,
      "zqX": 4719,
      "zqd": 4720,
      "IwP": 4721,
      "zwL": 4722,
      "zDb": 4723,
      "DwIE": 4724,
      "zIP": 4725,
      "zxi": 4726,
      "qEx": 4727,
      "Rqb": 4728,
      "wI9": 4729,
      "qDu": 4730,
      "ooy": 4731,
      "oooo": 4732,
      "IRO": 4733,
      "IxY": 4734,
      "ccy": 4735,
      "LEi": 4736,
      "zPx": 4737,
      "IDB": 4738,
      "0qL": 4739,
      "PEi": 4740,
      "DLy": 4741,
      "zWw": 4742,
      "zWy": 4743,
      "nwY": 4744,
      "iEL": 4745,
      "Idw": 4746,
      "Iew": 4747,
      "XXX": 4748,
      "zwzq": 4749,
      "ouDe": 4750,
      "!DE": 4751,
      "!Db": 4752,
      "!zR": 4753,
      "0zY": 4754,
      "0zc": 4755,
      "09w": 4756,
      "0zB": 4757,
      "0bO": 4758,
      "0z4": 4759,
      "0CE": 4760,
      "2n": 4761,
      "4h": 4762,
      "4DO": 4763,
      "40q": 4764,
      "4iE": 4765,
      "4zu": 4766,
      "6G": 4767,
      "6IE": 4768,
      "76": 4769,
      "7Z": 4770,
      "9Rq": 4771,
      "9Df": 4772,
      "BU": 4773,
      "Bwz": 4774,
      "Bwq": 4775,
      "Bqw": 4776,
      "BYq": 4777,
      "CU": 4778,
      "CII": 4779,
      "CEw": 4780,
      "Dzc": 4781,
      "D0i": 4782,
      "Dnw": 4783,
      "D3E": 4784,
      "Fr": 4785,
      "Isq": 4786,
      "Kh": 4787,
      "LV": 4788,
      "L0E": 4789,
      "Lzb": 4790,
      "M6": 4791,
      "NS": 4792,
      "NDq": 4793,
      "ODw": 4794,
      "OyE": 4795,
      "Oyq": 4796,
      "Obw": 4797,
      "PDI": 4798,
      "PDy": 4799,
      "Pfw": 4800,
      "Q1": 4801,
      "Rzn": 4802,
      "RIP": 4803,
      "RKq": 4804,
      "SQ": 4805,
      "T6": 4806,
      "UU": 4807,
      "WDx": 4808,
      "WYY": 4809,
      "WEw": 4810,
      "Xzq": 4811,
      "cDI": 4812,
      "dIz": 4813,
      "dqD": 4814,
      "dzR": 4815,
      "eH": 4816,
      "eDw": 4817,
      "eqw": 4818,
      "ewI": 4819,
      "ezR": 4820,
      "eLw": 4821,
      "fH": 4822,
      "fzD": 4823,
      "fIf": 4824,
      "fyy": 4825,
      "fxE": 4826,
      "fzR": 4827,
      "fbc": 4828,
      "gEE": 4829,
      "gzI": 4830,
      "iwE": 4831,
      "m5": 4832,
      "m6": 4833,
      "n4I": 4834,
      "nEq": 4835,
      "n3E": 4836,
      "nRd": 4837,
      "onq": 4838,
      "obO": 4839,
      "oXE": 4840,
      "oBE": 4841,
      "pvl": 4842,
      "rG": 4843,
      "rIz": 4844,
      "sqD": 4845,
      "u2": 4846,
      "uT": 4847,
      "uEE": 4848,
      "vyE": 4849,
      "x8": 4850,
      "xDD": 4851,
      "zwwE": 4852,
      "zz3": 4853,
      "zzzx": 4854,
      "wwB": 4855,
      "wwK": 4856,
      "IEo": 4857,
      "wzX": 4858,
      "zq3": 4859,
      "IqZ": 4860,
      "wEZ": 4861,
      "wqR": 4862,
      "wqs": 4863,
      "zwZ": 4864,
      "zDc": 4865,
      "zDi": 4866,
      "zIc": 4867,
      "4Ib": 4868,
      "RqZ": 4869,
      "9Ix": 4870,
      "wIY": 4871,
      "Dy9": 4872,
      "zy9": 4873,
      "xEx": 4874,
      "zRi": 4875,
      "zKy": 4876,
      "yw9": 4877,
      "DOc": 4878,
      "zOB": 4879,
      "RbY": 4880,
      "4qy": 4881,
      "0oL": 4882,
      "oxi": 4883,
      "9wY": 4884,
      "fwy": 4885,
      "0ii": 4886,
      "dEL": 4887,
      "I4i": 4888,
      "OEL": 4889,
      "Lqb": 4890,
      "Rdw": 4891,
      "Iuw": 4892,
      "o!E": 4893,
      "6y6": 4894,
      "atk": 4895,
      "!m": 4896,
      "!DI": 4897,
      "!0L": 4898,
      "!I9": 4899,
      "!4D": 4900,
      "0DO": 4901,
      "0zX": 4902,
      "0Oq": 4903,
      "18": 4904,
      "1R": 4905,
      "1Y": 4906,
      "2S": 4907,
      "400": 4908,
      "4DL": 4909,
      "4cw": 4910,
      "5K": 4911,
      "5N": 4912,
      "6U": 4913,
      "72": 4914,
      "73": 4915,
      "7N": 4916,
      "7c": 4917,
      "7g": 4918,
      "7z0": 4919,
      "9bw": 4920,
      "9cy": 4921,
      "As": 4922,
      "BDE": 4923,
      "BqE": 4924,
      "Cdy": 4925,
      "D@": 4926,
      "D00": 4927,
      "D0o": 4928,
      "D0x": 4929,
      "Dvx": 4930,
      "Duq": 4931,
      "Gn": 4932,
      "Kz0": 4933,
      "LDI": 4934,
      "NT": 4935,
      "NZ": 4936,
      "NIE": 4937,
      "NDb": 4938,
      "NDc": 4939,
      "OIw": 4940,
      "Ody": 4941,
      "Pnq": 4942,
      "PPq": 4943,
      "Rz4": 4944,
      "Rff": 4945,
      "SK": 4946,
      "SY": 4947,
      "Ur": 4948,
      "VP": 4949,
      "Wyq": 4950,
      "WIo": 4951,
      "WEq": 4952,
      "WIL": 4953,
      "XEq": 4954,
      "bIf": 4955,
      "bIO": 4956,
      "cJ": 4957,
      "c00": 4958,
      "dzo": 4959,
      "dXq": 4960,
      "e4I": 4961,
      "f9q": 4962,
      "fzL": 4963,
      "gT": 4964,
      "gzq": 4965,
      "iqw": 4966,
      "izL": 4967,
      "jP": 4968,
      "ju": 4969,
      "mww": 4970,
      "mwq": 4971,
      "nIO": 4972,
      "nzc": 4973,
      "nDY": 4974,
      "nIK": 4975,
      "nBY": 4976,
      "ozY": 4977,
      "oDx": 4978,
      "oIP": 4979,
      "oOE": 4980,
      "o3E": 4981,
      "oIW": 4982,
      "r0E": 4983,
      "r0x": 4984,
      "sIE": 4985,
      "uJ": 4986,
      "uV": 4987,
      "uII": 4988,
      "vzD": 4989,
      "vDw": 4990,
      "xzc": 4991,
      "zGE": 4992,
      "zzA": 4993,
      "zzd": 4994,
      "ww9": 4995,
      "qqb": 4996,
      "qqt": 4997,
      "wzu": 4998,
      "wqB": 4999,
      "EEv": 5000,
      "zw3": 5001,
      "zD3": 5002,
      "DwL": 5003,
      "DwZ": 5004,
      "Dwx": 5005,
      "zIR": 5006,
      "qws": 5007,
      "DI3": 5008,
      "4I6": 5009,
      "RqY": 5010,
      "wIL": 5011,
      "wIc": 5012,
      "Dyi": 5013,
      "z0c": 5014,
      "DDN": 5015,
      "bbY": 5016,
      "zee": 5017,
      "wfy": 5018,
      "yqB": 5019,
      "yqO": 5020,
      "zOx": 5021,
      "RbO": 5022,
      "0cy": 5023,
      "DBY": 5024,
      "eeE": 5025,
      "bcb": 5026,
      "cycy": 5027,
      "4yY": 5028,
      "Xwy": 5029,
      "iii": 5030,
      "Zwy": 5031,
      "zzzzzz": 5032,
      "RNE": 5033,
      "z2E": 5034,
      "0Gpvl": 5035,
      "!zi": 5036,
      "!oo": 5037,
      "0RE": 5038,
      "03E": 5039,
      "0Rx": 5040,
      "2c": 5041,
      "4yw": 5042,
      "40o": 5043,
      "4zn": 5044,
      "4zd": 5045,
      "4BY": 5046,
      "5M": 5047,
      "7B": 5048,
      "9bb": 5049,
      "9Do": 5050,
      "A6": 5051,
      "At": 5052,
      "AIE": 5053,
      "Bzx": 5054,
      "Dp": 5055,
      "Dnq": 5056,
      "Dvq": 5057,
      "I6y": 5058,
      "INE": 5059,
      "Jf": 5060,
      "Jl": 5061,
      "KIw": 5062,
      "LIf": 5063,
      "M7": 5064,
      "MDb": 5065,
      "OzI": 5066,
      "OLE": 5067,
      "Pze": 5068,
      "PfE": 5069,
      "PzP": 5070,
      "QF": 5071,
      "QII": 5072,
      "Rcc": 5073,
      "Rxq": 5074,
      "RdE": 5075,
      "RgE": 5076,
      "RIe": 5077,
      "RIW": 5078,
      "Ul": 5079,
      "Um": 5080,
      "WF": 5081,
      "WDc": 5082,
      "WDY": 5083,
      "YIw": 5084,
      "Yzw": 5085,
      "YIx": 5086,
      "Y4Y": 5087,
      "ZwE": 5088,
      "Zwf": 5089,
      "av": 5090,
      "bwz": 5091,
      "bIR": 5092,
      "bIx": 5093,
      "bEy": 5094,
      "cOw": 5095,
      "cOL": 5096,
      "dwz": 5097,
      "dIw": 5098,
      "dzD": 5099,
      "fox": 5100,
      "gEy": 5101,
      "iIf": 5102,
      "j3": 5103,
      "lW": 5104,
      "nxx": 5105,
      "ncy": 5106,
      "ofE": 5107,
      "oiq": 5108,
      "o0c": 5109,
      "oKx": 5110,
      "odL": 5111,
      "rzq": 5112,
      "rDq": 5113,
      "rII": 5114,
      "rIw": 5115,
      "s4I": 5116,
      "uG": 5117,
      "uEw": 5118,
      "voL": 5119,
      "xwE": 5120,
      "xIR": 5121,
      "xDx": 5122,
      "xYq": 5123,
      "zzzy": 5124,
      "qqi": 5125,
      "IEB": 5126,
      "IzF": 5127,
      "IzM": 5128,
      "IzP": 5129,
      "Iqg": 5130,
      "wEW": 5131,
      "wqt": 5132,
      "IIi": 5133,
      "EEb": 5134,
      "Iwa": 5135,
      "zwb": 5136,
      "zwg": 5137,
      "zEb": 5138,
      "DEx": 5139,
      "DIB": 5140,
      "qEY": 5141,
      "qEi": 5142,
      "4IL": 5143,
      "zff": 5144,
      "wIR": 5145,
      "wIW": 5146,
      "REe": 5147,
      "xEL": 5148,
      "yqX": 5149,
      "00y": 5150,
      "zRN": 5151,
      "Ixd": 5152,
      "cccc": 5153,
      "DOB": 5154,
      "fqx": 5155,
      "9qd": 5156,
      "0xy": 5157,
      "zcB": 5158,
      "nqy": 5159,
      "bqO": 5160,
      "I9c": 5161,
      "z9y": 5162,
      "xqW": 5163,
      "Rfy": 5164,
      "xYy": 5165,
      "zZy": 5166,
      "zvy": 5167,
      "iwy": 5168,
      "nYy": 5169,
      "IQw": 5170,
      "zIzE": 5171,
      "!zO": 5172,
      "04q": 5173,
      "0RO": 5174,
      "0Ib": 5175,
      "0XE": 5176,
      "0I0": 5177,
      "24": 5178,
      "2a": 5179,
      "3J": 5180,
      "4Dc": 5181,
      "40L": 5182,
      "5V": 5183,
      "5e": 5184,
      "5Iz": 5185,
      "88": 5186,
      "8Z": 5187,
      "944": 5188,
      "90b": 5189,
      "9OE": 5190,
      "9Wq": 5191,
      "CH": 5192,
      "Dk": 5193,
      "DzW": 5194,
      "DPx": 5195,
      "DmE": 5196,
      "Daq": 5197,
      "Gv": 5198,
      "Jd": 5199,
      "Kwf": 5200,
      "KzP": 5201,
      "Lqw": 5202,
      "Lzi": 5203,
      "Lwf": 5204,
      "LzL": 5205,
      "Mzz": 5206,
      "MRw": 5207,
      "Ozq": 5208,
      "OzE": 5209,
      "ODb": 5210,
      "OoL": 5211,
      "Ocw": 5212,
      "PDE": 5213,
      "R0w": 5214,
      "Rzs": 5215,
      "ST": 5216,
      "WRE": 5217,
      "W9w": 5218,
      "XfE": 5219,
      "Xfq": 5220,
      "X9q": 5221,
      "YDq": 5222,
      "Z1": 5223,
      "ZIw": 5224,
      "Zyw": 5225,
      "aM": 5226,
      "awI": 5227,
      "bJ": 5228,
      "bzI": 5229,
      "b4I": 5230,
      "bEw": 5231,
      "b0O": 5232,
      "c0b": 5233,
      "dww": 5234,
      "dz0": 5235,
      "dIo": 5236,
      "dLw": 5237,
      "dLq": 5238,
      "eIy": 5239,
      "fDx": 5240,
      "gh": 5241,
      "hf": 5242,
      "jL": 5243,
      "lQ": 5244,
      "lt": 5245,
      "mV": 5246,
      "mzz": 5247,
      "nLE": 5248,
      "n0L": 5249,
      "nDf": 5250,
      "nzX": 5251,
      "nKq": 5252,
      "nKE": 5253,
      "nOO": 5254,
      "nxy": 5255,
      "nbD": 5256,
      "oDL": 5257,
      "oOq": 5258,
      "rzw": 5259,
      "s2": 5260,
      "swz": 5261,
      "szE": 5262,
      "sqE": 5263,
      "t0E": 5264,
      "uzD": 5265,
      "voE": 5266,
      "xyy": 5267,
      "xnq": 5268,
      "zGq": 5269,
      "zzv": 5270,
      "qqB": 5271,
      "qqQ": 5272,
      "qqww": 5273,
      "Iqo": 5274,
      "Iqt": 5275,
      "wqi": 5276,
      "EEo": 5277,
      "zDN": 5278,
      "IfX": 5279,
      "Ifc": 5280,
      "zIX": 5281,
      "qwe": 5282,
      "9Ii": 5283,
      "z0zz": 5284,
      "DDm": 5285,
      "RwK": 5286,
      "Rwc": 5287,
      "bbbb": 5288,
      "oEY": 5289,
      "Dby": 5290,
      "DOL": 5291,
      "DON": 5292,
      "zOf": 5293,
      "Io!": 5294,
      "IDc": 5295,
      "444": 5296,
      "bOb": 5297,
      "ILy": 5298,
      "fff": 5299,
      "bEb": 5300,
      "bcy": 5301,
      "z!q": 5302,
      "cqy": 5303,
      "sqsq": 5304,
      "ItE": 5305,
      "zwqE": 5306,
      "yyyyyyyy": 5307,
      "!a": 5308,
      "!0o": 5309,
      "0DB": 5310,
      "0PR": 5311,
      "0zr": 5312,
      "1X": 5313,
      "1g": 5314,
      "2EE": 5315,
      "3ww": 5316,
      "3Eq": 5317,
      "4ze": 5318,
      "4fq": 5319,
      "4zY": 5320,
      "4Ew": 5321,
      "5!": 5322,
      "5A": 5323,
      "9qD": 5324,
      "94q": 5325,
      "90y": 5326,
      "9DX": 5327,
      "9cE": 5328,
      "AEE": 5329,
      "Cqq": 5330,
      "Cyy": 5331,
      "CxE": 5332,
      "DWE": 5333,
      "Dzu": 5334,
      "Fo": 5335,
      "Fs": 5336,
      "FRw": 5337,
      "G7": 5338,
      "GwE": 5339,
      "Js": 5340,
      "KDE": 5341,
      "Kzf": 5342,
      "Lzf": 5343,
      "Lzy": 5344,
      "LzP": 5345,
      "L0L": 5346,
      "MT": 5347,
      "MEq": 5348,
      "Na": 5349,
      "Nu": 5350,
      "NDw": 5351,
      "Owz": 5352,
      "Ozx": 5353,
      "PwI": 5354,
      "PIo": 5355,
      "PzY": 5356,
      "QIq": 5357,
      "RxE": 5358,
      "Rgq": 5359,
      "S8": 5360,
      "Sv": 5361,
      "TC": 5362,
      "TV": 5363,
      "Tg": 5364,
      "UN": 5365,
      "Ut": 5366,
      "VN": 5367,
      "VV": 5368,
      "Wwz": 5369,
      "Wwq": 5370,
      "WIw": 5371,
      "WzY": 5372,
      "Wow": 5373,
      "XwI": 5374,
      "Xbq": 5375,
      "XzX": 5376,
      "Yp": 5377,
      "YyE": 5378,
      "Yfq": 5379,
      "Zp": 5380,
      "Zzf": 5381,
      "ZzR": 5382,
      "ZI9": 5383,
      "ZZw": 5384,
      "aA": 5385,
      "awE": 5386,
      "b9q": 5387,
      "bDc": 5388,
      "cDO": 5389,
      "d8": 5390,
      "dwI": 5391,
      "dzy": 5392,
      "dLE": 5393,
      "dDY": 5394,
      "dEq": 5395,
      "efE": 5396,
      "e0q": 5397,
      "gIE": 5398,
      "gqD": 5399,
      "gRO": 5400,
      "hZ": 5401,
      "iww": 5402,
      "iRq": 5403,
      "l!": 5404,
      "lT": 5405,
      "mJ": 5406,
      "nbO": 5407,
      "nzW": 5408,
      "nEw": 5409,
      "nPq": 5410,
      "nBE": 5411,
      "no0": 5412,
      "nI3": 5413,
      "nRY": 5414,
      "oiE": 5415,
      "oIe": 5416,
      "rz0": 5417,
      "sIf": 5418,
      "uqq": 5419,
      "uIR": 5420,
      "uEy": 5421,
      "vzw": 5422,
      "vwf": 5423,
      "v0i": 5424,
      "xzO": 5425,
      "xii": 5426,
      "qqd": 5427,
      "qqqw": 5428,
      "wzF": 5429,
      "zq!": 5430,
      "zqB": 5431,
      "zqu": 5432,
      "Iqr": 5433,
      "wEX": 5434,
      "wEc": 5435,
      "wEi": 5436,
      "wqL": 5437,
      "DqK": 5438,
      "Dqs": 5439,
      "zDv": 5440,
      "zEX": 5441,
      "Ifi": 5442,
      "DwO": 5443,
      "zIzz": 5444,
      "qwB": 5445,
      "qwn": 5446,
      "yEv": 5447,
      "zxzz": 5448,
      "DEi": 5449,
      "DIe": 5450,
      "zozo": 5451,
      "4Ie": 5452,
      "DyK": 5453,
      "DyL": 5454,
      "Dyf": 5455,
      "0Ec": 5456,
      "DDe": 5457,
      "DDx": 5458,
      "qDf": 5459,
      "wff": 5460,
      "fEY": 5461,
      "fEi": 5462,
      "IoO": 5463,
      "Rbx": 5464,
      "IOf": 5465,
      "0wc": 5466,
      "0xY": 5467,
      "oyY": 5468,
      "nqb": 5469,
      "I9X": 5470,
      "bwu": 5471,
      "Lwy": 5472,
      "xqP": 5473,
      "Ywy": 5474,
      "Ibc": 5475,
      "I4B": 5476,
      "PRy": 5477,
      "oLi": 5478,
      "Lqc": 5479,
      "OwO": 5480,
      "bcL": 5481,
      "0B0B": 5482,
      "vEL": 5483,
      "fdw": 5484,
      "zIzq": 5485,
      "DwzE": 5486,
      "!zf": 5487,
      "08": 5488,
      "0H": 5489,
      "0ID": 5490,
      "04w": 5491,
      "0IP": 5492,
      "0dL": 5493,
      "1h": 5494,
      "2m": 5495,
      "3EE": 5496,
      "3Dw": 5497,
      "3yy": 5498,
      "3Iy": 5499,
      "4zc": 5500,
      "4Ey": 5501,
      "4Df": 5502,
      "4bw": 5503,
      "4KE": 5504,
      "4y9": 5505,
      "90q": 5506,
      "94Y": 5507,
      "9Dc": 5508,
      "9Dx": 5509,
      "9Ry": 5510,
      "AF": 5511,
      "AN": 5512,
      "BDq": 5513,
      "BEy": 5514,
      "BYY": 5515,
      "BEq": 5516,
      "D9q": 5517,
      "D0b": 5518,
      "DRD": 5519,
      "DKE": 5520,
      "DgE": 5521,
      "Dew": 5522,
      "FX": 5523,
      "Fv": 5524,
      "FRd": 5525,
      "GR": 5526,
      "GqE": 5527,
      "Izzq": 5528,
      "KDI": 5529,
      "Kbq": 5530,
      "LzR": 5531,
      "Lyw": 5532,
      "LzY": 5533,
      "Mqq": 5534,
      "MwE": 5535,
      "MDE": 5536,
      "MqE": 5537,
      "Nzz": 5538,
      "O1": 5539,
      "O9I": 5540,
      "P@": 5541,
      "P9I": 5542,
      "PxE": 5543,
      "PIY": 5544,
      "PzX": 5545,
      "Pff": 5546,
      "PoO": 5547,
      "Qoy": 5548,
      "RzP": 5549,
      "Riq": 5550,
      "RYq": 5551,
      "Rxx": 5552,
      "T7": 5553,
      "U9": 5554,
      "Uh": 5555,
      "WxE": 5556,
      "W9q": 5557,
      "WDf": 5558,
      "Yh": 5559,
      "Yzx": 5560,
      "Y0E": 5561,
      "Yyw": 5562,
      "YIO": 5563,
      "Zzb": 5564,
      "boE": 5565,
      "coE": 5566,
      "cbO": 5567,
      "d2": 5568,
      "dH": 5569,
      "dDI": 5570,
      "dDy": 5571,
      "dbb": 5572,
      "eII": 5573,
      "ezO": 5574,
      "eDf": 5575,
      "ezW": 5576,
      "fII": 5577,
      "fzi": 5578,
      "fIY": 5579,
      "gxE": 5580,
      "gDb": 5581,
      "iIw": 5582,
      "lK": 5583,
      "mEE": 5584,
      "noE": 5585,
      "nzL": 5586,
      "n0i": 5587,
      "niE": 5588,
      "nIX": 5589,
      "nKx": 5590,
      "o4q": 5591,
      "obq": 5592,
      "o44": 5593,
      "oRD": 5594,
      "oOw": 5595,
      "rzD": 5596,
      "r0w": 5597,
      "sj": 5598,
      "uqw": 5599,
      "vLE": 5600,
      "xDO": 5601,
      "x0o": 5602,
      "z6y": 5603,
      "zjE": 5604,
      "ww3": 5605,
      "wwN": 5606,
      "wwt": 5607,
      "IEM": 5608,
      "IEt": 5609,
      "wzQ": 5610,
      "wzo": 5611,
      "zq7": 5612,
      "zqK": 5613,
      "zqY": 5614,
      "zqr": 5615,
      "DqW": 5616,
      "Dqb": 5617,
      "IIC": 5618,
      "Iwn": 5619,
      "zwC": 5620,
      "zws": 5621,
      "zDe": 5622,
      "zE3": 5623,
      "zEB": 5624,
      "zEv": 5625,
      "yEX": 5626,
      "zxK": 5627,
      "DIK": 5628,
      "zoO": 5629,
      "zor": 5630,
      "4Ix": 5631,
      "zfK": 5632,
      "wIg": 5633,
      "z0z0": 5634,
      "DDK": 5635,
      "RwL": 5636,
      "RwZ": 5637,
      "zbL": 5638,
      "qDK": 5639,
      "qDi": 5640,
      "qDx": 5641,
      "YEL": 5642,
      "yqd": 5643,
      "yqi": 5644,
      "IRB": 5645,
      "zKe": 5646,
      "zKzz": 5647,
      "ywc": 5648,
      "zOO": 5649,
      "zPy": 5650,
      "Rby": 5651,
      "IYf": 5652,
      "0qO": 5653,
      "0qx": 5654,
      "zLy": 5655,
      "DcL": 5656,
      "DYc": 5657,
      "0Li": 5658,
      "zXX": 5659,
      "bwc": 5660,
      "bOc": 5661,
      "Yqd": 5662,
      "Kqf": 5663,
      "nwy": 5664,
      "z4X": 5665,
      "DBb": 5666,
      "oc!K": 5667,
      "xqx": 5668,
      "WEY": 5669,
      "z!i": 5670,
      "Ivy": 5671,
      "Pxw": 5672,
      "cwO": 5673,
      "oDN": 5674,
      "0Dm": 5675,
      "uE5j": 5676,
      "n3w": 5677,
      "zAq": 5678,
      "IGq": 5679,
      "0NoKw": 5680,
      "!l": 5681,
      "0IO": 5682,
      "0vE": 5683,
      "0z7": 5684,
      "3qw": 5685,
      "4z0": 5686,
      "4zK": 5687,
      "4Dx": 5688,
      "4zB": 5689,
      "4Eq": 5690,
      "4cE": 5691,
      "5Q": 5692,
      "5u": 5693,
      "6II": 5694,
      "7F": 5695,
      "90E": 5696,
      "9ze": 5697,
      "90w": 5698,
      "9Ow": 5699,
      "AV": 5700,
      "AZ": 5701,
      "Ah": 5702,
      "BIw": 5703,
      "Cqw": 5704,
      "DRb": 5705,
      "D4Y": 5706,
      "DzB": 5707,
      "Dzs": 5708,
      "Dvw": 5709,
      "Fm": 5710,
      "FDq": 5711,
      "G8": 5712,
      "KH": 5713,
      "LYE": 5714,
      "LPE": 5715,
      "Lzn": 5716,
      "N4I": 5717,
      "OII": 5718,
      "ORq": 5719,
      "Oow": 5720,
      "PzL": 5721,
      "Pow": 5722,
      "RDD": 5723,
      "R9q": 5724,
      "Rox": 5725,
      "Rfw": 5726,
      "RIc": 5727,
      "RoL": 5728,
      "Req": 5729,
      "RIZ": 5730,
      "Ruq": 5731,
      "S9": 5732,
      "Tr": 5733,
      "Ts": 5734,
      "V5": 5735,
      "W8": 5736,
      "Wz0": 5737,
      "XIw": 5738,
      "XoE": 5739,
      "XLw": 5740,
      "Y8": 5741,
      "Yyy": 5742,
      "YID": 5743,
      "Yy9": 5744,
      "ZA": 5745,
      "ZIq": 5746,
      "Zqw": 5747,
      "ZIY": 5748,
      "aV": 5749,
      "awq": 5750,
      "aII": 5751,
      "aIf": 5752,
      "b0L": 5753,
      "bib": 5754,
      "d0E": 5755,
      "ezb": 5756,
      "eIO": 5757,
      "e9q": 5758,
      "eLq": 5759,
      "fyq": 5760,
      "fRO": 5761,
      "fOE": 5762,
      "f3E": 5763,
      "gH": 5764,
      "gRw": 5765,
      "h3": 5766,
      "hQ": 5767,
      "hs": 5768,
      "lH": 5769,
      "lV": 5770,
      "lv": 5771,
      "nz0": 5772,
      "nbq": 5773,
      "nz9": 5774,
      "nI4": 5775,
      "nPR": 5776,
      "nOE": 5777,
      "niY": 5778,
      "ozL": 5779,
      "ozW": 5780,
      "ofw": 5781,
      "rDE": 5782,
      "swf": 5783,
      "tS": 5784,
      "tzw": 5785,
      "uwE": 5786,
      "uzE": 5787,
      "zwww": 5788,
      "wwC": 5789,
      "qqX": 5790,
      "IEK": 5791,
      "IEg": 5792,
      "Iz7": 5793,
      "IzC": 5794,
      "Izc": 5795,
      "IzIz": 5796,
      "zqm": 5797,
      "IqY": 5798,
      "Iqm": 5799,
      "Iqv": 5800,
      "wqN": 5801,
      "wqo": 5802,
      "wqx": 5803,
      "Iw!": 5804,
      "zDg": 5805,
      "zEc": 5806,
      "yyX": 5807,
      "zIL": 5808,
      "zIQ": 5809,
      "zIg": 5810,
      "qwK": 5811,
      "DIs": 5812,
      "4IX": 5813,
      "Rqs": 5814,
      "zf!": 5815,
      "zf3": 5816,
      "wI3": 5817,
      "0EW": 5818,
      "zyW": 5819,
      "zye": 5820,
      "zyi": 5821,
      "zyx": 5822,
      "zii": 5823,
      "IyW": 5824,
      "Iyi": 5825,
      "bby": 5826,
      "00L": 5827,
      "IRx": 5828,
      "zRc": 5829,
      "zRx": 5830,
      "ccB": 5831,
      "9qc": 5832,
      "Dcb": 5833,
      "oyb": 5834,
      "oyoy": 5835,
      "bwy": 5836,
      "0cO": 5837,
      "IcB": 5838,
      "z4y": 5839,
      "ocb": 5840,
      "xqi": 5841,
      "0Oy": 5842,
      "Ywc": 5843,
      "dEX": 5844,
      "PRd": 5845,
      "eEL": 5846,
      "XXXX": 5847,
      "IQE": 5848,
      "zQq": 5849,
      "9LA": 5850,
      "Gwc": 5851,
      "zwEE": 5852,
      "yyy6": 5853,
      "!EE": 5854,
      "!ze": 5855,
      "!ID": 5856,
      "!Dc": 5857,
      "0nq": 5858,
      "0DY": 5859,
      "0z9": 5860,
      "0Ie": 5861,
      "0gw": 5862,
      "0f9": 5863,
      "28": 5864,
      "2J": 5865,
      "3Iq": 5866,
      "48": 5867,
      "4nq": 5868,
      "4Do": 5869,
      "40c": 5870,
      "4Di": 5871,
      "4DX": 5872,
      "4LD": 5873,
      "65": 5874,
      "7j": 5875,
      "7s": 5876,
      "7zD": 5877,
      "7zb": 5878,
      "9j": 5879,
      "9zc": 5880,
      "9DL": 5881,
      "9nq": 5882,
      "9DY": 5883,
      "9z4": 5884,
      "9eq": 5885,
      "9cw": 5886,
      "Ck": 5887,
      "DRc": 5888,
      "DPR": 5889,
      "DWq": 5890,
      "Dgw": 5891,
      "DZq": 5892,
      "Daw": 5893,
      "Fu": 5894,
      "FRc": 5895,
      "GJ": 5896,
      "Hq": 5897,
      "JU": 5898,
      "LzI": 5899,
      "L4w": 5900,
      "L0x": 5901,
      "M1": 5902,
      "MIE": 5903,
      "MII": 5904,
      "MqD": 5905,
      "Nm": 5906,
      "OEy": 5907,
      "Obq": 5908,
      "OIL": 5909,
      "PIf": 5910,
      "Pzb": 5911,
      "P0q": 5912,
      "P9q": 5913,
      "Piq": 5914,
      "Pz!": 5915,
      "PPx": 5916,
      "Qqw": 5917,
      "RRb": 5918,
      "R0y": 5919,
      "R0b": 5920,
      "RIv": 5921,
      "SS": 5922,
      "TP": 5923,
      "U4": 5924,
      "Vc": 5925,
      "Wp": 5926,
      "WwE": 5927,
      "Wzb": 5928,
      "WIx": 5929,
      "WRb": 5930,
      "WRf": 5931,
      "XzE": 5932,
      "XDy": 5933,
      "YIo": 5934,
      "YIP": 5935,
      "YiY": 5936,
      "ZH": 5937,
      "Zj": 5938,
      "ZzE": 5939,
      "ZIy": 5940,
      "aC": 5941,
      "bIc": 5942,
      "bob": 5943,
      "cj": 5944,
      "d5": 5945,
      "dIb": 5946,
      "eRE": 5947,
      "eIo": 5948,
      "eox": 5949,
      "eIP": 5950,
      "eff": 5951,
      "fzo": 5952,
      "fbb": 5953,
      "fLE": 5954,
      "fbw": 5955,
      "foi": 5956,
      "gbq": 5957,
      "hx": 5958,
      "i00": 5959,
      "iEq": 5960,
      "js": 5961,
      "mxE": 5962,
      "n0E": 5963,
      "nzO": 5964,
      "nox": 5965,
      "nRO": 5966,
      "n0y": 5967,
      "nDo": 5968,
      "nxq": 5969,
      "nzZ": 5970,
      "nbc": 5971,
      "niw": 5972,
      "oDb": 5973,
      "ozB": 5974,
      "oz9": 5975,
      "off": 5976,
      "o0b": 5977,
      "obE": 5978,
      "oXq": 5979,
      "oXw": 5980,
      "pl": 5981,
      "rzx": 5982,
      "rDI": 5983,
      "rzo": 5984,
      "rri": 5985,
      "szw": 5986,
      "tDw": 5987,
      "vzx": 5988,
      "v0E": 5989,
      "vDO": 5990,
      "voc": 5991,
      "vLY": 5992,
      "xDw": 5993,
      "xYE": 5994,
      "x0x": 5995,
      "xI9": 5996,
      "xIL": 5997,
      "yqq": 5998,
      "yRE": 5999,
      "z6E": 6000,
      "zzQ": 6001,
      "wwg": 6002,
      "qqR": 6003,
      "qqf": 6004,
      "IE3": 6005,
      "Iz3": 6006,
      "Izm": 6007,
      "wza": 6008,
      "wEB": 6009,
      "wEv": 6010,
      "wqu": 6011,
      "Dq!": 6012,
      "Dqg": 6013,
      "EER": 6014,
      "IwC": 6015,
      "IwX": 6016,
      "Iwd": 6017,
      "yyc": 6018,
      "zIK": 6019,
      "zId": 6020,
      "zxL": 6021,
      "DEK": 6022,
      "zoc": 6023,
      "RqX": 6024,
      "9IK": 6025,
      "9IQ": 6026,
      "9IIE": 6027,
      "wIX": 6028,
      "Dyx": 6029,
      "0Ei": 6030,
      "zyY": 6031,
      "xEX": 6032,
      "zbi": 6033,
      "IyO": 6034,
      "yqc": 6035,
      "00B": 6036,
      "zRB": 6037,
      "zRb": 6038,
      "zKi": 6039,
      "ywb": 6040,
      "fEB": 6041,
      "RbF": 6042,
      "IOO": 6043,
      "0ob": 6044,
      "0wY": 6045,
      "zYi": 6046,
      "zLU": 6047,
      "Dcr": 6048,
      "oxK": 6049,
      "bqf": 6050,
      "oqb": 6051,
      "9wi": 6052,
      "zBY": 6053,
      "Yqc": 6054,
      "fwY": 6055,
      "zdL": 6056,
      "Oqc": 6057,
      "Oqy": 6058,
      "oc!7": 6059,
      "RDM": 6060,
      "fyb": 6061,
      "vEY": 6062,
      "Xwc": 6063,
      "zMw": 6064,
      "Lir": 6065,
      "ztq": 6066,
      "IGw": 6067,
      "NyNy": 6068,
      "92V": 6069,
      "wwwwwwww": 6070,
      "!Ix": 6071,
      "!4w": 6072,
      "!4Y": 6073,
      "!0b": 6074,
      "0fE": 6075,
      "0IL": 6076,
      "0Kq": 6077,
      "0ff": 6078,
      "0KE": 6079,
      "0zv": 6080,
      "0dX": 6081,
      "1k": 6082,
      "2g": 6083,
      "2t": 6084,
      "20x": 6085,
      "4xE": 6086,
      "4zi": 6087,
      "4zX": 6088,
      "409": 6089,
      "43q": 6090,
      "5d": 6091,
      "5t": 6092,
      "5bA": 6093,
      "6J": 6094,
      "6zw": 6095,
      "6If": 6096,
      "7a": 6097,
      "7m": 6098,
      "7ze": 6099,
      "9Rw": 6100,
      "9zL": 6101,
      "9zn": 6102,
      "9Oq": 6103,
      "9z9": 6104,
      "9BE": 6105,
      "9zM": 6106,
      "A5": 6107,
      "AM": 6108,
      "Aa": 6109,
      "Bzi": 6110,
      "BIy": 6111,
      "BRb": 6112,
      "DRE": 6113,
      "Deq": 6114,
      "Dgq": 6115,
      "D4y": 6116,
      "DvE": 6117,
      "Dsw": 6118,
      "DMw": 6119,
      "GH": 6120,
      "GIE": 6121,
      "IFE": 6122,
      "Iwww": 6123,
      "KRE": 6124,
      "Kbb": 6125,
      "KoE": 6126,
      "Lqq": 6127,
      "LRw": 6128,
      "LqD": 6129,
      "LDO": 6130,
      "MIR": 6131,
      "NDf": 6132,
      "OIx": 6133,
      "PIR": 6134,
      "PIx": 6135,
      "PLE": 6136,
      "PPE": 6137,
      "Poy": 6138,
      "QJ": 6139,
      "Qww": 6140,
      "QIf": 6141,
      "Qbb": 6142,
      "Q0L": 6143,
      "Rk": 6144,
      "R0E": 6145,
      "RYE": 6146,
      "RzK": 6147,
      "Rnw": 6148,
      "Rzv": 6149,
      "SA": 6150,
      "U7": 6151,
      "UV": 6152,
      "WRq": 6153,
      "WwI": 6154,
      "WqD": 6155,
      "WDo": 6156,
      "WiE": 6157,
      "WDX": 6158,
      "XDw": 6159,
      "XID": 6160,
      "Xdy": 6161,
      "XLq": 6162,
      "YII": 6163,
      "YIf": 6164,
      "YzY": 6165,
      "Zh": 6166,
      "Zzo": 6167,
      "ZRw": 6168,
      "ZIZ": 6169,
      "ak": 6170,
      "azz": 6171,
      "bcc": 6172,
      "b0w": 6173,
      "cOy": 6174,
      "dRq": 6175,
      "dRb": 6176,
      "d9q": 6177,
      "ewz": 6178,
      "eDI": 6179,
      "eqD": 6180,
      "eoo": 6181,
      "ewf": 6182,
      "ezP": 6183,
      "ezc": 6184,
      "exq": 6185,
      "fIy": 6186,
      "fDL": 6187,
      "gJ": 6188,
      "goq": 6189,
      "h6": 6190,
      "hB": 6191,
      "iDI": 6192,
      "i4q": 6193,
      "iYq": 6194,
      "jO": 6195,
      "mqq": 6196,
      "mRq": 6197,
      "mRw": 6198,
      "mRx": 6199,
      "nDb": 6200,
      "n0x": 6201,
      "nDi": 6202,
      "nnw": 6203,
      "nIc": 6204,
      "nz4": 6205,
      "nOw": 6206,
      "nRy": 6207,
      "ncw": 6208,
      "n3q": 6209,
      "nIB": 6210,
      "ozO": 6211,
      "oIc": 6212,
      "oIX": 6213,
      "oDX": 6214,
      "oz!": 6215,
      "oI0": 6216,
      "oIv": 6217,
      "ra": 6218,
      "s1": 6219,
      "sh": 6220,
      "uU": 6221,
      "uwq": 6222,
      "uRE": 6223,
      "vII": 6224,
      "vxE": 6225,
      "v0y": 6226,
      "xoE": 6227,
      "xID": 6228,
      "xLw": 6229,
      "xoc": 6230,
      "y9I": 6231,
      "zzqq": 6232,
      "zzwz": 6233,
      "zzzb": 6234,
      "zzz7": 6235,
      "wwL": 6236,
      "qq9": 6237,
      "IEA": 6238,
      "zqg": 6239,
      "Iqe": 6240,
      "wEb": 6241,
      "wqwz": 6242,
      "EEi": 6243,
      "IwG": 6244,
      "Iwt": 6245,
      "zwW": 6246,
      "zDW": 6247,
      "DwID": 6248,
      "zIB": 6249,
      "zIu": 6250,
      "qwb": 6251,
      "DEX": 6252,
      "DIM": 6253,
      "DIg": 6254,
      "zog": 6255,
      "qEc": 6256,
      "qEd": 6257,
      "4Ii": 6258,
      "4It": 6259,
      "Rqd": 6260,
      "Rqv": 6261,
      "zfX": 6262,
      "wIM": 6263,
      "z0K": 6264,
      "DDf": 6265,
      "DDo": 6266,
      "Rwe": 6267,
      "zbc": 6268,
      "zis": 6269,
      "zeX": 6270,
      "oEc": 6271,
      "oEx": 6272,
      "yqP": 6273,
      "Dbc": 6274,
      "zOL": 6275,
      "zLW": 6276,
      "Dxy": 6277,
      "YY5": 6278,
      "44II": 6279,
      "IPx": 6280,
      "Yqy": 6281,
      "fwO": 6282,
      "fwZ": 6283,
      "Doi": 6284,
      "xxw": 6285,
      "xqb": 6286,
      "YwO": 6287,
      "RcX": 6288,
      "I4c": 6289,
      "oii": 6290,
      "KwK": 6291,
      "WEL": 6292,
      "WEx": 6293,
      "Xqc": 6294,
      "zgi": 6295,
      "CEi": 6296,
      "4DM": 6297,
      "4Dg": 6298,
      "XwY": 6299,
      "ewy": 6300,
      "I6w": 6301,
      "IaE": 6302,
      "eeeeeeee": 6303,
      "!z0": 6304,
      "!Eq": 6305,
      "0zO": 6306,
      "0zn": 6307,
      "0zW": 6308,
      "0zg": 6309,
      "0fy": 6310,
      "0vL": 6311,
      "20": 6312,
      "3zq": 6313,
      "3qD": 6314,
      "4Pq": 6315,
      "40b": 6316,
      "4bE": 6317,
      "4yf": 6318,
      "4nE": 6319,
      "4zM": 6320,
      "5h": 6321,
      "5IE": 6322,
      "6t": 6323,
      "6zy": 6324,
      "7nm": 6325,
      "9xE": 6326,
      "9bO": 6327,
      "9Kw": 6328,
      "9zs": 6329,
      "9zZ": 6330,
      "9ny": 6331,
      "A0": 6332,
      "B8": 6333,
      "BIz": 6334,
      "B4q": 6335,
      "D9w": 6336,
      "DRO": 6337,
      "DXE": 6338,
      "D0f": 6339,
      "DPw": 6340,
      "Dvy": 6341,
      "D9O": 6342,
      "DuE": 6343,
      "Duw": 6344,
      "FA": 6345,
      "FEq": 6346,
      "Imw": 6347,
      "Ilq": 6348,
      "IwwE": 6349,
      "J4": 6350,
      "JJ": 6351,
      "Jg": 6352,
      "KIx": 6353,
      "KBE": 6354,
      "LqE": 6355,
      "LDy": 6356,
      "LxE": 6357,
      "LIx": 6358,
      "LDL": 6359,
      "Lii": 6360,
      "MzE": 6361,
      "Mbb": 6362,
      "Nzw": 6363,
      "N4q": 6364,
      "N4Y": 6365,
      "O0E": 6366,
      "OIy": 6367,
      "Owf": 6368,
      "Ooq": 6369,
      "OLw": 6370,
      "Pyy": 6371,
      "Pzi": 6372,
      "P4w": 6373,
      "P0x": 6374,
      "PDx": 6375,
      "PRO": 6376,
      "PDi": 6377,
      "RPE": 6378,
      "R4w": 6379,
      "Rnq": 6380,
      "R9w": 6381,
      "RPx": 6382,
      "RWy": 6383,
      "S6": 6384,
      "Uzz": 6385,
      "VC": 6386,
      "Vu": 6387,
      "Wwf": 6388,
      "W0w": 6389,
      "W0x": 6390,
      "XH": 6391,
      "XDq": 6392,
      "Xyy": 6393,
      "XRq": 6394,
      "XxY": 6395,
      "Y9I": 6396,
      "YDy": 6397,
      "YIR": 6398,
      "YzR": 6399,
      "ZyE": 6400,
      "ZwI": 6401,
      "ZRE": 6402,
      "ZzO": 6403,
      "a6": 6404,
      "byy": 6405,
      "bRw": 6406,
      "bDo": 6407,
      "bI4": 6408,
      "c0E": 6409,
      "dDb": 6410,
      "dID": 6411,
      "dIY": 6412,
      "eDD": 6413,
      "eIx": 6414,
      "eDx": 6415,
      "eDL": 6416,
      "ebq": 6417,
      "eyf": 6418,
      "ez7": 6419,
      "f4I": 6420,
      "fzf": 6421,
      "foo": 6422,
      "f0q": 6423,
      "f9w": 6424,
      "fDi": 6425,
      "gzE": 6426,
      "gRb": 6427,
      "hW": 6428,
      "iDy": 6429,
      "iDb": 6430,
      "iIx": 6431,
      "iYY": 6432,
      "kuH": 6433,
      "lwz": 6434,
      "mj": 6435,
      "mp": 6436,
      "mz0": 6437,
      "nDO": 6438,
      "n9w": 6439,
      "nfw": 6440,
      "nbE": 6441,
      "nId": 6442,
      "nRx": 6443,
      "nfy": 6444,
      "nZq": 6445,
      "nIM": 6446,
      "oH": 6447,
      "oDY": 6448,
      "o0O": 6449,
      "oWE": 6450,
      "oIK": 6451,
      "oCq": 6452,
      "rIE": 6453,
      "r4I": 6454,
      "rDy": 6455,
      "r0y": 6456,
      "sDq": 6457,
      "t0q": 6458,
      "t0b": 6459,
      "uIz": 6460,
      "vRw": 6461,
      "vox": 6462,
      "vy9": 6463,
      "x1": 6464,
      "xyq": 6465,
      "xIO": 6466,
      "x4q": 6467,
      "xYY": 6468,
      "xKq": 6469,
      "xz9": 6470,
      "xRd": 6471,
      "zwwq": 6472,
      "zzzw": 6473,
      "zzqw": 6474,
      "wwQ": 6475,
      "wwv": 6476,
      "wwDw": 6477,
      "IEN": 6478,
      "Iz9": 6479,
      "wze": 6480,
      "zqQ": 6481,
      "IqF": 6482,
      "IqG": 6483,
      "IqN": 6484,
      "wE9": 6485,
      "wEO": 6486,
      "wEf": 6487,
      "DqX": 6488,
      "Iws": 6489,
      "zD!": 6490,
      "If!": 6491,
      "If9": 6492,
      "IfQ": 6493,
      "Ifs": 6494,
      "DwX": 6495,
      "zI!": 6496,
      "zI5": 6497,
      "zIC": 6498,
      "zIZ": 6499,
      "qwx": 6500,
      "zoP": 6501,
      "zoW": 6502,
      "qEB": 6503,
      "RqO": 6504,
      "wIC": 6505,
      "DyN": 6506,
      "zyK": 6507,
      "zyd": 6508,
      "REi": 6509,
      "zbx": 6510,
      "bbN": 6511,
      "bbO": 6512,
      "zeK": 6513,
      "zei": 6514,
      "zey": 6515,
      "IRm": 6516,
      "LEX": 6517,
      "IoB": 6518,
      "zPi": 6519,
      "IDi": 6520,
      "fqL": 6521,
      "0qc": 6522,
      "0o!": 6523,
      "4wy": 6524,
      "zLe": 6525,
      "zcy": 6526,
      "oqc": 6527,
      "owc": 6528,
      "Ewi": 6529,
      "Ewy": 6530,
      "Oqb": 6531,
      "z4i": 6532,
      "Rci": 6533,
      "Rcy": 6534,
      "0bc": 6535,
      "KEe": 6536,
      "Ow7": 6537,
      "Inc": 6538,
      "Iny": 6539,
      "xwy": 6540,
      "LLLy": 6541,
      "z3w": 6542,
      "Pwi": 6543,
      "IWw": 6544,
      "9DM": 6545,
      "0rq": 6546,
      "xKOB": 6547,
      "DNE": 6548,
      "0NE": 6549,
      "9g18": 6550,
      "aOkuH": 6551,
      "1yaOkuH": 6552,
      "pdq!F": 6553,
      "9LA92V": 6554,
      "zLU9LA92V": 6555,
      "1yaOkuHzLU9LA92V": 6556,
      "pdq!FC1": 6557,
      "1yaOkuHzLU9LA92Vpdq!FC1": 6558,
      "!J": 6559,
      "!DD": 6560,
      "!oE": 6561,
      "!zP": 6562,
      "!iq": 6563,
      "0PE": 6564,
      "0YY": 6565,
      "0I9": 6566,
      "0Rf": 6567,
      "0zs": 6568,
      "0DX": 6569,
      "0gE": 6570,
      "0Rd": 6571,
      "0Iv": 6572,
      "0Xq": 6573,
      "0RY": 6574,
      "0Ro": 6575,
      "11": 6576,
      "1N": 6577,
      "1v": 6578,
      "3Dq": 6579,
      "3Iw": 6580,
      "3zI": 6581,
      "3zy": 6582,
      "4yy": 6583,
      "4bq": 6584,
      "4bO": 6585,
      "4zW": 6586,
      "4nw": 6587,
      "4zg": 6588,
      "40D": 6589,
      "4nY": 6590,
      "4by": 6591,
      "75": 6592,
      "7zY": 6593,
      "8t": 6594,
      "9RE": 6595,
      "9zW": 6596,
      "9Pq": 6597,
      "9Zw": 6598,
      "94e": 6599,
      "Ar": 6600,
      "Azo": 6601,
      "Azv": 6602,
      "B1": 6603,
      "BDI": 6604,
      "BRE": 6605,
      "BRO": 6606,
      "Cbb": 6607,
      "Coo": 6608,
      "Cfq": 6609,
      "Cxw": 6610,
      "DRd": 6611,
      "DRy": 6612,
      "D0B": 6613,
      "Dzm": 6614,
      "G0": 6615,
      "GS": 6616,
      "Gwq": 6617,
      "GyE": 6618,
      "Hw": 6619,
      "Iqqq": 6620,
      "IwEE": 6621,
      "KyE": 6622,
      "KRq": 6623,
      "Kzb": 6624,
      "KIR": 6625,
      "K0o": 6626,
      "KIP": 6627,
      "Kz7": 6628,
      "L0i": 6629,
      "LRB": 6630,
      "Mj": 6631,
      "MIz": 6632,
      "Mqw": 6633,
      "MbO": 6634,
      "ORw": 6635,
      "OcE": 6636,
      "PIy": 6637,
      "PoE": 6638,
      "PDb": 6639,
      "PPR": 6640,
      "PLq": 6641,
      "QIw": 6642,
      "Qyq": 6643,
      "Qyw": 6644,
      "R0o": 6645,
      "RDc": 6646,
      "VM": 6647,
      "Vzq": 6648,
      "Wyy": 6649,
      "Xww": 6650,
      "Xz0": 6651,
      "YDE": 6652,
      "ZDD": 6653,
      "ZIO": 6654,
      "ZEy": 6655,
      "ZuE5j": 6656,
      "a!": 6657,
      "aqw": 6658,
      "b1": 6659,
      "bIz": 6660,
      "bzf": 6661,
      "bzO": 6662,
      "bIY": 6663,
      "bDf": 6664,
      "b0D": 6665,
      "czD": 6666,
      "coy": 6667,
      "cDY": 6668,
      "ciq": 6669,
      "cy9": 6670,
      "d9I": 6671,
      "dDO": 6672,
      "doq": 6673,
      "eIR": 6674,
      "ezs": 6675,
      "fDE": 6676,
      "fYq": 6677,
      "fIL": 6678,
      "fCE": 6679,
      "gDq": 6680,
      "ht": 6681,
      "iDw": 6682,
      "jB": 6683,
      "jl": 6684,
      "lC": 6685,
      "mzD": 6686,
      "mfq": 6687,
      "mfb": 6688,
      "n0o": 6689,
      "nDc": 6690,
      "nI9": 6691,
      "nLw": 6692,
      "nee": 6693,
      "nxY": 6694,
      "neq": 6695,
      "nPx": 6696,
      "nRB": 6697,
      "nIu": 6698,
      "nZw": 6699,
      "nmE": 6700,
      "nvL": 6701,
      "oIL": 6702,
      "oDi": 6703,
      "pf": 6704,
      "rzi": 6705,
      "rqD": 6706,
      "r4w": 6707,
      "szD": 6708,
      "s0E": 6709,
      "soc": 6710,
      "tDE": 6711,
      "tLL": 6712,
      "v5": 6713,
      "vDD": 6714,
      "vyq": 6715,
      "vyw": 6716,
      "vIo": 6717,
      "vxx": 6718,
      "vXE": 6719,
      "wZ": 6720,
      "xoq": 6721,
      "xDi": 6722,
      "zwqw": 6723,
      "zzzI": 6724,
      "Izt": 6725,
      "wzD": 6726,
      "wzN": 6727,
      "wzqw": 6728,
      "IqM": 6729,
      "IqIE": 6730,
      "wEe": 6731,
      "wqP": 6732,
      "DqG": 6733,
      "DqP": 6734,
      "Dqe": 6735,
      "Dqt": 6736,
      "IIs": 6737,
      "EE!": 6738,
      "EEB": 6739,
      "EEd": 6740,
      "EEg": 6741,
      "IwB": 6742,
      "zE!": 6743,
      "zEzE": 6744,
      "zI6": 6745,
      "zIs": 6746,
      "zIv": 6747,
      "qwd": 6748,
      "yER": 6749,
      "yEi": 6750,
      "yEu": 6751,
      "DIX": 6752,
      "qEO": 6753,
      "4IH": 6754,
      "zfx": 6755,
      "9Is": 6756,
      "Dyc": 6757,
      "0Ex": 6758,
      "qDt": 6759,
      "zex": 6760,
      "ooB": 6761,
      "oob": 6762,
      "zKX": 6763,
      "zKzK": 6764,
      "DOd": 6765,
      "IoX": 6766,
      "RbM": 6767,
      "IDu": 6768,
      "IOL": 6769,
      "0qd": 6770,
      "0qf": 6771,
      "4qb": 6772,
      "zYe": 6773,
      "0xK": 6774,
      "DLY": 6775,
      "zny": 6776,
      "zXy": 6777,
      "bwY": 6778,
      "iqP": 6779,
      "YqP": 6780,
      "DiY": 6781,
      "Oqf": 6782,
      "Ywi": 6783,
      "RDm": 6784,
      "Kwy": 6785,
      "Rxy": 6786,
      "OyO": 6787,
      "oOc": 6788,
      "f9i": 6789,
      "LLL": 6790,
      "bYb": 6791,
      "9cN": 6792,
      "40t": 6793,
      "nDm": 6794,
      "awy": 6795,
      "WDN": 6796,
      "zQy": 6797,
      "IGE": 6798,
      "zaZ": 6799,
      "zwzE": 6800,
      "z5q": 6801,
      "IlE": 6802,
      "IzzE": 6803,
      "POH": 6804,
      "0GpvlBM": 6805,
      "!zI": 6806,
      "!Df": 6807,
      "!xx": 6808,
      "0YE": 6809,
      "044": 6810,
      "0nw": 6811,
      "0Ic": 6812,
      "0IX": 6813,
      "0Xw": 6814,
      "0mE": 6815,
      "0Ww": 6816,
      "0!E": 6817,
      "0uE": 6818,
      "12": 6819,
      "3Iz": 6820,
      "3qE": 6821,
      "4LE": 6822,
      "4fw": 6823,
      "4Wy": 6824,
      "4Gq": 6825,
      "49g": 6826,
      "5F": 6827,
      "5W": 6828,
      "6yw": 6829,
      "7l": 6830,
      "7IE": 6831,
      "7zo": 6832,
      "8e": 6833,
      "8x": 6834,
      "9PE": 6835,
      "90x": 6836,
      "9Kq": 6837,
      "9bE": 6838,
      "9Bq": 6839,
      "ARq": 6840,
      "AEq": 6841,
      "Byy": 6842,
      "BRq": 6843,
      "Bow": 6844,
      "C9I": 6845,
      "Cwf": 6846,
      "D0O": 6847,
      "Dzv": 6848,
      "DzM": 6849,
      "DdX": 6850,
      "DCq": 6851,
      "D4B": 6852,
      "DCw": 6853,
      "FK": 6854,
      "FRg": 6855,
      "FGa": 6856,
      "KRw": 6857,
      "KxE": 6858,
      "Koq": 6859,
      "KEq": 6860,
      "LII": 6861,
      "Lbb": 6862,
      "Lyq": 6863,
      "L0q": 6864,
      "L0o": 6865,
      "Loy": 6866,
      "Lxx": 6867,
      "LRf": 6868,
      "LPx": 6869,
      "MH": 6870,
      "Mwq": 6871,
      "N0i": 6872,
      "O@": 6873,
      "Ozf": 6874,
      "ObE": 6875,
      "Oyf": 6876,
      "OXq": 6877,
      "Oob": 6878,
      "Ouq": 6879,
      "Po0": 6880,
      "Qzz": 6881,
      "QDq": 6882,
      "Qyy": 6883,
      "RiE": 6884,
      "Ry9": 6885,
      "R3E": 6886,
      "RI3": 6887,
      "Rz3": 6888,
      "S!": 6889,
      "TQ": 6890,
      "Tm": 6891,
      "U!": 6892,
      "U2": 6893,
      "UEE": 6894,
      "V6": 6895,
      "WDI": 6896,
      "WDD": 6897,
      "Wzi": 6898,
      "WzR": 6899,
      "W0o": 6900,
      "WzX": 6901,
      "Wzd": 6902,
      "WXw": 6903,
      "X1": 6904,
      "Xwq": 6905,
      "XIf": 6906,
      "X3E": 6907,
      "YfE": 6908,
      "YzP": 6909,
      "Zyq": 6910,
      "Znq": 6911,
      "ZIP": 6912,
      "au": 6913,
      "bl": 6914,
      "bz9": 6915,
      "bI0": 6916,
      "b4L": 6917,
      "cRw": 6918,
      "cyw": 6919,
      "c0L": 6920,
      "cOq": 6921,
      "cLw": 6922,
      "coL": 6923,
      "cNE": 6924,
      "da": 6925,
      "dk": 6926,
      "dIx": 6927,
      "dzc": 6928,
      "dDf": 6929,
      "dIv": 6930,
      "d9b": 6931,
      "eyw": 6932,
      "eDo": 6933,
      "e0i": 6934,
      "exx": 6935,
      "fDy": 6936,
      "fRw": 6937,
      "fIO": 6938,
      "fdy": 6939,
      "fRf": 6940,
      "fcE": 6941,
      "g8": 6942,
      "g@": 6943,
      "gp": 6944,
      "gIw": 6945,
      "gzw": 6946,
      "gIR": 6947,
      "hN": 6948,
      "iIR": 6949,
      "iID": 6950,
      "i4w": 6951,
      "jM": 6952,
      "jV": 6953,
      "jX": 6954,
      "mzq": 6955,
      "nDx": 6956,
      "nzB": 6957,
      "nIP": 6958,
      "n0c": 6959,
      "nzu": 6960,
      "nny": 6961,
      "nbY": 6962,
      "n9D": 6963,
      "op": 6964,
      "o9q": 6965,
      "oYY": 6966,
      "odE": 6967,
      "oPx": 6968,
      "ofy": 6969,
      "ogw": 6970,
      "ouq": 6971,
      "o4L": 6972,
      "osE": 6973,
      "r2": 6974,
      "rS": 6975,
      "rDb": 6976,
      "rLE": 6977,
      "r0i": 6978,
      "r0!": 6979,
      "sDE": 6980,
      "szo": 6981,
      "szb": 6982,
      "sff": 6983,
      "sy9": 6984,
      "sqqq": 6985,
      "tIf": 6986,
      "t0w": 6987,
      "tEy": 6988,
      "uk": 6989,
      "uIy": 6990,
      "uzR": 6991,
      "uIO": 6992,
      "uzL": 6993,
      "vwI": 6994,
      "vdy": 6995,
      "vEw": 6996,
      "vxy": 6997,
      "xwI": 6998,
      "xDb": 6999,
      "x00": 7000,
      "xPE": 7001,
      "x0i": 7002,
      "xIb": 7003,
      "xzv": 7004,
      "xoD": 7005,
      "x4i": 7006,
      "yzD": 7007,
      "zza": 7008,
      "ww!": 7009,
      "wws": 7010,
      "qq!": 7011,
      "IzN": 7012,
      "IzQ": 7013,
      "wz3": 7014,
      "wzM": 7015,
      "Iq3": 7016,
      "IqD": 7017,
      "IqK": 7018,
      "IqR": 7019,
      "IqEE": 7020,
      "wqM": 7021,
      "Dqd": 7022,
      "IIK": 7023,
      "EEe": 7024,
      "Iw6": 7025,
      "zwo": 7026,
      "zwu": 7027,
      "zEzz": 7028,
      "zEzq": 7029,
      "DwP": 7030,
      "qw3": 7031,
      "qwN": 7032,
      "qwY": 7033,
      "qwi": 7034,
      "yEB": 7035,
      "DEG": 7036,
      "qEX": 7037,
      "4I3": 7038,
      "4IQ": 7039,
      "4Ig": 7040,
      "zfL": 7041,
      "zfW": 7042,
      "wIu": 7043,
      "zy6": 7044,
      "DDd": 7045,
      "qDX": 7046,
      "ooA": 7047,
      "yqb": 7048,
      "cct": 7049,
      "Iox": 7050,
      "IDww": 7051,
      "ION": 7052,
      "4qP": 7053,
      "4qd": 7054,
      "4wW": 7055,
      "4wr": 7056,
      "zYY": 7057,
      "zYb": 7058,
      "DcO": 7059,
      "oyf": 7060,
      "DLb": 7061,
      "9wb": 7062,
      "bwi": 7063,
      "zWL": 7064,
      "YqDI": 7065,
      "fwe": 7066,
      "ILY": 7067,
      "0cb": 7068,
      "0ci": 7069,
      "IbY": 7070,
      "XEi": 7071,
      "dEb": 7072,
      "OEi": 7073,
      "Lqf": 7074,
      "DXy": 7075,
      "Wqy": 7076,
      "LYc": 7077,
      "Xwb": 7078,
      "0fx": 7079,
      "dqb": 7080,
      "KKKK": 7081,
      "LDg": 7082,
      "ncb": 7083,
      "awY": 7084,
      "fdX": 7085,
      "z2q": 7086,
      "Dmw": 7087,
      "I6q": 7088,
      "zaE": 7089,
      "I5E": 7090,
      "dVt": 7091,
      "sA!": 7092,
      "ne0coKwouDe": 7093,
      "FGa1k": 7094,
      "!2": 7095,
      "!zL": 7096,
      "!Dg": 7097,
      "0Pq": 7098,
      "0Ii": 7099,
      "0Wq": 7100,
      "0Px": 7101,
      "0IZ": 7102,
      "0I3": 7103,
      "09E": 7104,
      "0ny": 7105,
      "0Ri": 7106,
      "0XX": 7107,
      "0Yy": 7108,
      "0FE": 7109,
      "1d": 7110,
      "25": 7111,
      "2yE": 7112,
      "3@": 7113,
      "3Lw": 7114,
      "3LY": 7115,
      "4oE": 7116,
      "4cc": 7117,
      "4Rb": 7118,
      "4Kq": 7119,
      "4Kw": 7120,
      "43E": 7121,
      "4z!": 7122,
      "4zv": 7123,
      "4cq": 7124,
      "4Pw": 7125,
      "5a": 7126,
      "5Iy": 7127,
      "6zq": 7128,
      "69O": 7129,
      "79": 7130,
      "7h": 7131,
      "7zi": 7132,
      "8f": 7133,
      "9LE": 7134,
      "9zP": 7135,
      "9fw": 7136,
      "9Yw": 7137,
      "9gq": 7138,
      "AC": 7139,
      "AT": 7140,
      "Azz": 7141,
      "BIf": 7142,
      "Bzy": 7143,
      "Bzb": 7144,
      "B0y": 7145,
      "BRc": 7146,
      "Cyw": 7147,
      "DRY": 7148,
      "DRi": 7149,
      "D4E": 7150,
      "DCy": 7151,
      "FIE": 7152,
      "FIf": 7153,
      "FI9": 7154,
      "FOy": 7155,
      "Gww": 7156,
      "HT": 7157,
      "KIO": 7158,
      "KDL": 7159,
      "Kxx": 7160,
      "Kz9": 7161,
      "Ksq": 7162,
      "LIo": 7163,
      "LDY": 7164,
      "LI9": 7165,
      "LzW": 7166,
      "MnD": 7167,
      "NzD": 7168,
      "Nyc": 7169,
      "Ozy": 7170,
      "OoE": 7171,
      "OIo": 7172,
      "O0q": 7173,
      "ORc": 7174,
      "OOE": 7175,
      "Ovw": 7176,
      "PzR": 7177,
      "PzK": 7178,
      "Pzn": 7179,
      "PDB": 7180,
      "QS": 7181,
      "RzO": 7182,
      "R0L": 7183,
      "Rzd": 7184,
      "RRc": 7185,
      "RIX": 7186,
      "RWq": 7187,
      "RIK": 7188,
      "RIB": 7189,
      "Rtq": 7190,
      "Sr": 7191,
      "T2": 7192,
      "TM": 7193,
      "UM": 7194,
      "VQ": 7195,
      "Vb": 7196,
      "WH": 7197,
      "WIR": 7198,
      "WIY": 7199,
      "WRO": 7200,
      "Wz9": 7201,
      "WLw": 7202,
      "Xbb": 7203,
      "XEw": 7204,
      "XcE": 7205,
      "YRw": 7206,
      "Y0y": 7207,
      "YoO": 7208,
      "Yfb": 7209,
      "ZPE": 7210,
      "ZZq": 7211,
      "azw": 7212,
      "byE": 7213,
      "bz0": 7214,
      "bYY": 7215,
      "bI9": 7216,
      "bDi": 7217,
      "cIR": 7218,
      "c0q": 7219,
      "cnw": 7220,
      "c0O": 7221,
      "dIO": 7222,
      "d9w": 7223,
      "diq": 7224,
      "dIZ": 7225,
      "dvq": 7226,
      "e1": 7227,
      "eDq": 7228,
      "eRq": 7229,
      "eoy": 7230,
      "eDi": 7231,
      "eo0": 7232,
      "evx": 7233,
      "fDb": 7234,
      "fzO": 7235,
      "fDc": 7236,
      "foy": 7237,
      "f0L": 7238,
      "fPf": 7239,
      "gzD": 7240,
      "goE": 7241,
      "gYq": 7242,
      "i0x": 7243,
      "jQ": 7244,
      "l5": 7245,
      "l7": 7246,
      "lj": 7247,
      "mzE": 7248,
      "mzo": 7249,
      "mzP": 7250,
      "mzn": 7251,
      "nYY": 7252,
      "nzd": 7253,
      "nDB": 7254,
      "n0O": 7255,
      "ngw": 7256,
      "nnb": 7257,
      "ofq": 7258,
      "ozX": 7259,
      "oYq": 7260,
      "oKE": 7261,
      "ozv": 7262,
      "ogq": 7263,
      "ozm": 7264,
      "ovE": 7265,
      "ovx": 7266,
      "pV": 7267,
      "pZ": 7268,
      "rzb": 7269,
      "r0c": 7270,
      "tJ": 7271,
      "tl": 7272,
      "tww": 7273,
      "tIE": 7274,
      "tIw": 7275,
      "tRb": 7276,
      "tDx": 7277,
      "u4I": 7278,
      "uwI": 7279,
      "uIx": 7280,
      "vDy": 7281,
      "v0q": 7282,
      "v9q": 7283,
      "v0o": 7284,
      "vDx": 7285,
      "voq": 7286,
      "vow": 7287,
      "vBE": 7288,
      "vBq": 7289,
      "xfq": 7290,
      "xDL": 7291,
      "xoi": 7292,
      "xex": 7293,
      "xni": 7294,
      "ywI": 7295,
      "zIEE": 7296,
      "zzU": 7297,
      "zzzP": 7298,
      "wwwE": 7299,
      "qqu": 7300,
      "IEzq": 7301,
      "IzA": 7302,
      "Izv": 7303,
      "IzDI": 7304,
      "wzm": 7305,
      "wzwz": 7306,
      "wqF": 7307,
      "IIM": 7308,
      "IIZ": 7309,
      "EEu": 7310,
      "IwZ": 7311,
      "zw!": 7312,
      "zwN": 7313,
      "zwd": 7314,
      "zwr": 7315,
      "zDZ": 7316,
      "zEW": 7317,
      "zEzx": 7318,
      "yyi": 7319,
      "qwL": 7320,
      "qwg": 7321,
      "yEG": 7322,
      "yEK": 7323,
      "zxzo": 7324,
      "DE3": 7325,
      "DE6": 7326,
      "DEB": 7327,
      "DEzz": 7328,
      "DIG": 7329,
      "DIu": 7330,
      "DIzz": 7331,
      "zof": 7332,
      "qEg": 7333,
      "qEv": 7334,
      "RqW": 7335,
      "zfb": 7336,
      "9Iv": 7337,
      "z0X": 7338,
      "DDX": 7339,
      "Iy3": 7340,
      "bb!": 7341,
      "YEi": 7342,
      "wfc": 7343,
      "wfd": 7344,
      "yqZ": 7345,
      "DbM": 7346,
      "DbW": 7347,
      "IxQ": 7348,
      "Ixe": 7349,
      "Ixf": 7350,
      "IDL": 7351,
      "IDm": 7352,
      "IOx": 7353,
      "0qb": 7354,
      "9q!": 7355,
      "9qZ": 7356,
      "9qs": 7357,
      "zLK": 7358,
      "zLi": 7359,
      "0xi": 7360,
      "oxx": 7361,
      "DL4": 7362,
      "nqe": 7363,
      "Dfx": 7364,
      "YYx": 7365,
      "EqO": 7366,
      "IPy": 7367,
      "YqO": 7368,
      "YqY": 7369,
      "0cB": 7370,
      "xxy": 7371,
      "z9Iz": 7372,
      "LwO": 7373,
      "ocB": 7374,
      "IbX": 7375,
      "XEY": 7376,
      "dEY": 7377,
      "oLy": 7378,
      "oiO": 7379,
      "bEY": 7380,
      "xYi": 7381,
      "yfY": 7382,
      "I0Z": 7383,
      "Rdi": 7384,
      "IdX": 7385,
      "Rxi": 7386,
      "cyY": 7387,
      "RYy": 7388,
      "LD3": 7389,
      "bDd": 7390,
      "Zqww": 7391,
      "nYc": 7392,
      "I!q": 7393,
      "0Xy": 7394,
      "Isw": 7395,
      "zwzw": 7396,
      "BBBB": 7397,
      "z5E": 7398,
      "dbA": 7399,
      "!!!!": 7400,
      "oyWbq": 7401,
      "FGa1k9g18": 7402,
      "!RE": 7403,
      "!zb": 7404,
      "!00": 7405,
      "!zK": 7406,
      "!z!": 7407,
      "!ey": 7408,
      "!o!": 7409,
      "!4W": 7410,
      "0Kw": 7411,
      "0RB": 7412,
      "0gq": 7413,
      "06y": 7414,
      "2N": 7415,
      "2l": 7416,
      "2zz": 7417,
      "2oE": 7418,
      "3H": 7419,
      "3zE": 7420,
      "3yw": 7421,
      "4RO": 7422,
      "4Lw": 7423,
      "4PR": 7424,
      "4iw": 7425,
      "4LY": 7426,
      "4Bw": 7427,
      "4Bq": 7428,
      "4zQ": 7429,
      "58": 7430,
      "5U": 7431,
      "5IR": 7432,
      "6M": 7433,
      "6zD": 7434,
      "6dq": 7435,
      "98": 7436,
      "900": 7437,
      "9iq": 7438,
      "9nw": 7439,
      "9Rf": 7440,
      "9Lq": 7441,
      "9iY": 7442,
      "9gw": 7443,
      "9zu": 7444,
      "9bY": 7445,
      "@a": 7446,
      "AD": 7447,
      "AQ": 7448,
      "AzE": 7449,
      "Ayq": 7450,
      "BIq": 7451,
      "B4I": 7452,
      "BRw": 7453,
      "BxE": 7454,
      "BoE": 7455,
      "BzO": 7456,
      "Czq": 7457,
      "Cbq": 7458,
      "Coq": 7459,
      "Dz!": 7460,
      "Dzg": 7461,
      "DRB": 7462,
      "Dzr": 7463,
      "DzC": 7464,
      "D0X": 7465,
      "DdL": 7466,
      "DPL": 7467,
      "DFE": 7468,
      "DZy": 7469,
      "Dtq": 7470,
      "GEy": 7471,
      "Gbw": 7472,
      "IrE": 7473,
      "IIEE": 7474,
      "IUE": 7475,
      "ISE": 7476,
      "IqqE": 7477,
      "J3": 7478,
      "JO": 7479,
      "Ju": 7480,
      "K4I": 7481,
      "K9I": 7482,
      "KDy": 7483,
      "Koo": 7484,
      "KIo": 7485,
      "KzY": 7486,
      "KEy": 7487,
      "KI9": 7488,
      "KIb": 7489,
      "Kxi": 7490,
      "LIq": 7491,
      "L4I": 7492,
      "LwI": 7493,
      "Lbq": 7494,
      "LYY": 7495,
      "LIL": 7496,
      "L0c": 7497,
      "LRc": 7498,
      "LIg": 7499,
      "LcL": 7500,
      "Mzq": 7501,
      "MEy": 7502,
      "MRO": 7503,
      "MOE": 7504,
      "McE": 7505,
      "NIf": 7506,
      "N0E": 7507,
      "NRb": 7508,
      "N44": 7509,
      "N0c": 7510,
      "ODE": 7511,
      "ODD": 7512,
      "OIb": 7513,
      "Oxw": 7514,
      "Pzd": 7515,
      "Pz4": 7516,
      "PoL": 7517,
      "PIX": 7518,
      "PIi": 7519,
      "PzZ": 7520,
      "PiY": 7521,
      "Pfy": 7522,
      "Pfx": 7523,
      "PPo": 7524,
      "QH": 7525,
      "RRE": 7526,
      "R4Y": 7527,
      "RPq": 7528,
      "RPR": 7529,
      "RWE": 7530,
      "RzZ": 7531,
      "RId": 7532,
      "Ro0": 7533,
      "RoD": 7534,
      "RIQ": 7535,
      "SJ": 7536,
      "VZ": 7537,
      "V4Y": 7538,
      "WII": 7539,
      "Wyw": 7540,
      "WID": 7541,
      "WIO": 7542,
      "WRc": 7543,
      "WRi": 7544,
      "W9b": 7545,
      "Xzx": 7546,
      "Xzi": 7547,
      "Xoy": 7548,
      "Xox": 7549,
      "XXq": 7550,
      "Xfy": 7551,
      "Y1": 7552,
      "YJ": 7553,
      "YIq": 7554,
      "Yzo": 7555,
      "YDc": 7556,
      "Z4w": 7557,
      "Z44": 7558,
      "ZPq": 7559,
      "aqq": 7560,
      "aIq": 7561,
      "b9I": 7562,
      "b0o": 7563,
      "bDx": 7564,
      "bYw": 7565,
      "bIi": 7566,
      "bIK": 7567,
      "bmE": 7568,
      "c4I": 7569,
      "cDy": 7570,
      "cIO": 7571,
      "cLL": 7572,
      "cOO": 7573,
      "dDE": 7574,
      "dDD": 7575,
      "d0w": 7576,
      "dzn": 7577,
      "d0y": 7578,
      "ddE": 7579,
      "dbE": 7580,
      "dIi": 7581,
      "eS": 7582,
      "ewq": 7583,
      "eoE": 7584,
      "eyq": 7585,
      "eIY": 7586,
      "eoq": 7587,
      "e44": 7588,
      "ez9": 7589,
      "ez!": 7590,
      "efd": 7591,
      "f0E": 7592,
      "fzy": 7593,
      "fzb": 7594,
      "fzY": 7595,
      "fDY": 7596,
      "fDB": 7597,
      "fRd": 7598,
      "fcw": 7599,
      "gzb": 7600,
      "gRc": 7601,
      "izI": 7602,
      "ifq": 7603,
      "ivE": 7604,
      "j!": 7605,
      "jC": 7606,
      "jJ": 7607,
      "jm": 7608,
      "lU": 7609,
      "lIz": 7610,
      "mT": 7611,
      "mwz": 7612,
      "mDq": 7613,
      "miw": 7614,
      "nfE": 7615,
      "nPE": 7616,
      "ndy": 7617,
      "nIL": 7618,
      "nff": 7619,
      "nz!": 7620,
      "nyf": 7621,
      "nIv": 7622,
      "nOy": 7623,
      "nLY": 7624,
      "nob": 7625,
      "oPE": 7626,
      "o4w": 7627,
      "oRO": 7628,
      "oz4": 7629,
      "ozs": 7630,
      "oeq": 7631,
      "ozg": 7632,
      "oYy": 7633,
      "ofY": 7634,
      "r5": 7635,
      "rIq": 7636,
      "rI9": 7637,
      "riE": 7638,
      "r0D": 7639,
      "s0w": 7640,
      "tzz": 7641,
      "tzq": 7642,
      "tzo": 7643,
      "tzb": 7644,
      "tEq": 7645,
      "uID": 7646,
      "udy": 7647,
      "uI9": 7648,
      "vDI": 7649,
      "vzb": 7650,
      "vzR": 7651,
      "vOE": 7652,
      "voi": 7653,
      "vxY": 7654,
      "vcE": 7655,
      "vLy": 7656,
      "xDY": 7657,
      "xzX": 7658,
      "xy9": 7659,
      "xeo": 7660,
      "zz5": 7661,
      "zzu": 7662,
      "wwM": 7663,
      "wwr": 7664,
      "wwu": 7665,
      "qqY": 7666,
      "IE5": 7667,
      "wz!": 7668,
      "wzr": 7669,
      "zqG": 7670,
      "Iq2": 7671,
      "IqDw": 7672,
      "wEK": 7673,
      "wEQ": 7674,
      "wqm": 7675,
      "Dqi": 7676,
      "II!": 7677,
      "zwzz": 7678,
      "zwqq": 7679,
      "zDC": 7680,
      "If3": 7681,
      "Ife": 7682,
      "Dws": 7683,
      "yyv": 7684,
      "zI7": 7685,
      "qwR": 7686,
      "zxzE": 7687,
      "zo!": 7688,
      "qEQ": 7689,
      "4Is": 7690,
      "4Iv": 7691,
      "RqB": 7692,
      "Rqc": 7693,
      "zfY": 7694,
      "9I!": 7695,
      "wIt": 7696,
      "wIv": 7697,
      "Dyzz": 7698,
      "z000": 7699,
      "DDM": 7700,
      "RwO": 7701,
      "Rwx": 7702,
      "REX": 7703,
      "REr": 7704,
      "xEM": 7705,
      "ziX": 7706,
      "Iy9": 7707,
      "qD3": 7708,
      "qDY": 7709,
      "qDr": 7710,
      "bbd": 7711,
      "ze!": 7712,
      "zeee": 7713,
      "wfu": 7714,
      "IRN": 7715,
      "IxB": 7716,
      "zKx": 7717,
      "fEX": 7718,
      "LEd": 7719,
      "RbB": 7720,
      "IOc": 7721,
      "fqY": 7722,
      "fqt": 7723,
      "PEL": 7724,
      "4q!": 7725,
      "9qL": 7726,
      "9qX": 7727,
      "0or": 7728,
      "0wb": 7729,
      "0wi": 7730,
      "zcO": 7731,
      "zcb": 7732,
      "oqN": 7733,
      "oqs": 7734,
      "oqy": 7735,
      "YYi": 7736,
      "zBi": 7737,
      "owL": 7738,
      "zXL": 7739,
      "bwb": 7740,
      "iqy": 7741,
      "fwX": 7742,
      "0OO": 7743,
      "XEL": 7744,
      "PRK": 7745,
      "PRm": 7746,
      "oLQ": 7747,
      "RDs": 7748,
      "I0B": 7749,
      "RyY": 7750,
      "RBY": 7751,
      "I3y": 7752,
      "vwy": 7753,
      "oDg": 7754,
      "oDs": 7755,
      "nEY": 7756,
      "oby": 7757,
      "Bwc": 7758,
      "nyY": 7759,
      "BYb": 7760,
      "Wyc": 7761,
      "vy6": 7762,
      "ICy": 7763,
      "zNq": 7764,
      "nby": 7765,
      "9OnB": 7766,
      "ztw": 7767,
      "vLvL": 7768,
      "WLo": 7769,
      "dwy": 7770,
      "z2y": 7771,
      "Rmw": 7772,
      "DNq": 7773,
      "Cwy": 7774,
      "Rtw": 7775,
      "oN8": 7776,
      "Izzw": 7777,
      "IwEw": 7778,
      "Ct1S": 7779,
      "ZtdbA": 7780,
      "!C7nm": 7781,
      "u1Ct1S": 7782,
      "!hPOH": 7783,
      "uEwu1Ct1S": 7784,
      "dVtZZ": 7785,
      "ZtdbA0h": 7786,
      "!C7nmZtdbA0h": 7787,
      "!hPOHuEwu1Ct1S": 7788,
      "!hPOHuEwu1Ct1S6W": 7789,
      "!Dy": 7790,
      "!Io": 7791,
      "!zc": 7792,
      "!Ew": 7793,
      "!0i": 7794,
      "0Rc": 7795,
      "0WE": 7796,
      "0ee": 7797,
      "0zZ": 7798,
      "0z!": 7799,
      "0Pw": 7800,
      "0KK": 7801,
      "0ei": 7802,
      "0ME": 7803,
      "0FR": 7804,
      "1A": 7805,
      "1C": 7806,
      "1Z": 7807,
      "2p": 7808,
      "2xE": 7809,
      "3wE": 7810,
      "3DI": 7811,
      "3wI": 7812,
      "4S": 7813,
      "49I": 7814,
      "4Rw": 7815,
      "4oo": 7816,
      "4zL": 7817,
      "4WE": 7818,
      "4zs": 7819,
      "4Ow": 7820,
      "4Wq": 7821,
      "4Xq": 7822,
      "4cy": 7823,
      "4zm": 7824,
      "4vE": 7825,
      "40f": 7826,
      "4KK": 7827,
      "5H": 7828,
      "5ww": 7829,
      "61": 7830,
      "6zE": 7831,
      "6yE": 7832,
      "6Iy": 7833,
      "6yq": 7834,
      "78": 7835,
      "7Iy": 7836,
      "7zK": 7837,
      "9yE": 7838,
      "99I": 7839,
      "9YE": 7840,
      "9cc": 7841,
      "9DO": 7842,
      "90O": 7843,
      "9Rd": 7844,
      "94i": 7845,
      "9BY": 7846,
      "Au": 7847,
      "AII": 7848,
      "Bzf": 7849,
      "BzR": 7850,
      "BzL": 7851,
      "BOE": 7852,
      "C8": 7853,
      "CqE": 7854,
      "CqD": 7855,
      "Cbw": 7856,
      "DRf": 7857,
      "Dee": 7858,
      "DnY": 7859,
      "DzN": 7860,
      "Ddw": 7861,
      "DsE": 7862,
      "DZE": 7863,
      "F7": 7864,
      "FF": 7865,
      "FS": 7866,
      "Fzw": 7867,
      "FEy": 7868,
      "GIq": 7869,
      "Gqw": 7870,
      "GoE": 7871,
      "IFR": 7872,
      "JS": 7873,
      "KDb": 7874,
      "K00": 7875,
      "KPE": 7876,
      "KKq": 7877,
      "KIn": 7878,
      "Kcw": 7879,
      "Kii": 7880,
      "KbY": 7881,
      "L1": 7882,
      "LIz": 7883,
      "LDc": 7884,
      "Lzc": 7885,
      "Loc": 7886,
      "LIb": 7887,
      "LiE": 7888,
      "Mzw": 7889,
      "MRq": 7890,
      "NzE": 7891,
      "Nzo": 7892,
      "N00": 7893,
      "N0L": 7894,
      "NIc": 7895,
      "NWE": 7896,
      "N99": 7897,
      "ODO": 7898,
      "OI4": 7899,
      "O0b": 7900,
      "OOw": 7901,
      "Pk": 7902,
      "P4I": 7903,
      "PDD": 7904,
      "Pyq": 7905,
      "Pzc": 7906,
      "Pdy": 7907,
      "PIP": 7908,
      "Poi": 7909,
      "Pzs": 7910,
      "Pey": 7911,
      "Pcq": 7912,
      "Pvx": 7913,
      "QzI": 7914,
      "Qze": 7915,
      "R4q": 7916,
      "Row": 7917,
      "R0i": 7918,
      "Rz9": 7919,
      "RRd": 7920,
      "RPw": 7921,
      "Rii": 7922,
      "RIg": 7923,
      "SC": 7924,
      "Se": 7925,
      "TU": 7926,
      "TLw": 7927,
      "TXX": 7928,
      "VT": 7929,
      "Vt": 7930,
      "WIf": 7931,
      "W00": 7932,
      "W4Y": 7933,
      "Wdy": 7934,
      "W0y": 7935,
      "WIc": 7936,
      "Wz4": 7937,
      "WIi": 7938,
      "Wz!": 7939,
      "WRy": 7940,
      "Wzu": 7941,
      "WLy": 7942,
      "Xzb": 7943,
      "XIR": 7944,
      "X0q": 7945,
      "Xdq": 7946,
      "Yfw": 7947,
      "Zzi": 7948,
      "ZI4": 7949,
      "ah": 7950,
      "azO": 7951,
      "aIY": 7952,
      "byq": 7953,
      "bfq": 7954,
      "bzn": 7955,
      "bYq": 7956,
      "bKq": 7957,
      "b4D": 7958,
      "cIo": 7959,
      "c4w": 7960,
      "cEq": 7961,
      "cbE": 7962,
      "cbc": 7963,
      "dzL": 7964,
      "dzX": 7965,
      "dLy": 7966,
      "dzC": 7967,
      "e8": 7968,
      "eDO": 7969,
      "ePE": 7970,
      "ezX": 7971,
      "eEw": 7972,
      "ezd": 7973,
      "eLY": 7974,
      "eii": 7975,
      "fIx": 7976,
      "fID": 7977,
      "f0w": 7978,
      "fzn": 7979,
      "fzX": 7980,
      "f0y": 7981,
      "fxx": 7982,
      "foc": 7983,
      "fIb": 7984,
      "fdE": 7985,
      "fbE": 7986,
      "fDX": 7987,
      "fIe": 7988,
      "fRB": 7989,
      "gk": 7990,
      "gzo": 7991,
      "gbc": 7992,
      "gRy": 7993,
      "h!": 7994,
      "il": 7995,
      "iyE": 7996,
      "iRw": 7997,
      "izY": 7998,
      "izd": 7999,
      "j5": 8000,
      "jd": 8001,
      "jz": 8002,
      "jRE": 8003,
      "ld": 8004,
      "lu": 8005,
      "lww": 8006,
      "mzy": 8007,
      "mox": 8008,
      "mxx": 8009,
      "nIb": 8010,
      "nzr": 8011,
      "ngq": 8012,
      "nBw": 8013,
      "nfx": 8014,
      "nRi": 8015,
      "nfb": 8016,
      "nFE": 8017,
      "oDB": 8018,
      "oWq": 8019,
      "oIn": 8020,
      "oBq": 8021,
      "ovo": 8022,
      "rJ": 8023,
      "rIf": 8024,
      "ro0": 8025,
      "szf": 8026,
      "syq": 8027,
      "sIR": 8028,
      "sEq": 8029,
      "sdE": 8030,
      "so0": 8031,
      "ssq": 8032,
      "tF": 8033,
      "tIq": 8034,
      "tEE": 8035,
      "tzD": 8036,
      "tqw": 8037,
      "tDY": 8038,
      "uDq": 8039,
      "uzI": 8040,
      "uwf": 8041,
      "uIY": 8042,
      "vzE": 8043,
      "vzI": 8044,
      "vzY": 8045,
      "vEq": 8046,
      "vxq": 8047,
      "vfy": 8048,
      "vgw": 8049,
      "vfx": 8050,
      "vXX": 8051,
      "vOL": 8052,
      "vfO": 8053,
      "xDy": 8054,
      "xRw": 8055,
      "xwf": 8056,
      "xzB": 8057,
      "xDo": 8058,
      "xRc": 8059,
      "xeq": 8060,
      "xIv": 8061,
      "xo0": 8062,
      "xvx": 8063,
      "yzw": 8064,
      "yzE": 8065,
      "yDw": 8066,
      "zDqw": 8067,
      "zIfE": 8068,
      "zz4": 8069,
      "zzIz": 8070,
      "wwe": 8071,
      "wwx": 8072,
      "wwqE": 8073,
      "qqC": 8074,
      "IEm": 8075,
      "IEDq": 8076,
      "IEIy": 8077,
      "wz2": 8078,
      "zqo": 8079,
      "zqww": 8080,
      "IqC": 8081,
      "Iqa": 8082,
      "Iqww": 8083,
      "wEM": 8084,
      "wEs": 8085,
      "wqC": 8086,
      "wqK": 8087,
      "DqN": 8088,
      "Dqr": 8089,
      "Dqwq": 8090,
      "II5": 8091,
      "IIA": 8092,
      "IIB": 8093,
      "IIQ": 8094,
      "IIc": 8095,
      "IIe": 8096,
      "EEX": 8097,
      "EEr": 8098,
      "IwM": 8099,
      "IwN": 8100,
      "zDo": 8101,
      "zDqq": 8102,
      "zE6": 8103,
      "Ift": 8104,
      "DwG": 8105,
      "Dwr": 8106,
      "Dwu": 8107,
      "zIIE": 8108,
      "yEV": 8109,
      "DEZ": 8110,
      "DEd": 8111,
      "zoB": 8112,
      "zozz": 8113,
      "4I4I": 8114,
      "zfR": 8115,
      "zfd": 8116,
      "9IIz": 8117,
      "wIB": 8118,
      "wIi": 8119,
      "Dyg": 8120,
      "DDZ": 8121,
      "REZ": 8122,
      "xEB": 8123,
      "ziO": 8124,
      "ziy": 8125,
      "IyK": 8126,
      "zef": 8127,
      "ooO": 8128,
      "yqW": 8129,
      "Dbi": 8130,
      "zRY": 8131,
      "zK7": 8132,
      "ywB": 8133,
      "ywG": 8134,
      "ywM": 8135,
      "ywN": 8136,
      "fEb": 8137,
      "LEB": 8138,
      "LEY": 8139,
      "Rbi": 8140,
      "fqO": 8141,
      "fqW": 8142,
      "9qW": 8143,
      "0of": 8144,
      "4wIE": 8145,
      "zYX": 8146,
      "zLY": 8147,
      "Dxe": 8148,
      "DYb": 8149,
      "0LY": 8150,
      "ROM": 8151,
      "ROc": 8152,
      "znX": 8153,
      "zBL": 8154,
      "owx": 8155,
      "I9N": 8156,
      "0yv": 8157,
      "bOy": 8158,
      "EwY": 8159,
      "Dob": 8160,
      "Doc": 8161,
      "z9i": 8162,
      "Lwi": 8163,
      "Lwx": 8164,
      "ocHT": 8165,
      "ffb": 8166,
      "PRf": 8167,
      "RDX": 8168,
      "eew": 8169,
      "Xqi": 8170,
      "zgB": 8171,
      "Iey": 8172,
      "iYi": 8173,
      "Oyb": 8174,
      "IZy": 8175,
      "o0B": 8176,
      "zrzz": 8177,
      "4Dt": 8178,
      "f9B": 8179,
      "OO!": 8180,
      "OOb": 8181,
      "RYK": 8182,
      "ZwZw": 8183,
      "9DN": 8184,
      "40X": 8185,
      "IBy": 8186,
      "noN": 8187,
      "zQE": 8188,
      "D3w": 8189,
      "zUE": 8190,
      "bB!ocoK": 8191,
      "zwEw": 8192,
      "zlE": 8193,
      "nFq": 8194,
      "92oN8": 8195,
      "bdatk": 8196,
      "6vh": 8197,
      "vFjz": 8198,
      "0NoKw!!": 8199,
      "9OnBocHT": 8200,
      "bdatk9OnBocHT": 8201,
      "bdatk9OnBocHTBw": 8202,
      "!IY": 8203,
      "!ox": 8204,
      "!44": 8205,
      "!IP": 8206,
      "!Do": 8207,
      "!IX": 8208,
      "!9E": 8209,
      "!4i": 8210,
      "04Y": 8211,
      "0zd": 8212,
      "0eq": 8213,
      "0Id": 8214,
      "0Ry": 8215,
      "0IK": 8216,
      "04y": 8217,
      "0vq": 8218,
      "0aw": 8219,
      "03q": 8220,
      "04B": 8221,
      "0tq": 8222,
      "1M": 8223,
      "1W": 8224,
      "2j": 8225,
      "2If": 8226,
      "3zD": 8227,
      "3zx": 8228,
      "3Rq": 8229,
      "3oy": 8230,
      "3Yq": 8231,
      "3IL": 8232,
      "4p": 8233,
      "4OE": 8234,
      "4RD": 8235,
      "4Lq": 8236,
      "4ey": 8237,
      "4Po": 8238,
      "4XX": 8239,
      "40R": 8240,
      "4PL": 8241,
      "5r": 8242,
      "5zE": 8243,
      "6ww": 8244,
      "6qw": 8245,
      "6zb": 8246,
      "6Io": 8247,
      "6PE": 8248,
      "6I9": 8249,
      "7Iq": 8250,
      "7zI": 8251,
      "7IY": 8252,
      "7xK": 8253,
      "8A": 8254,
      "8i": 8255,
      "8v": 8256,
      "9yy": 8257,
      "9Di": 8258,
      "9ee": 8259,
      "9Oy": 8260,
      "9ey": 8261,
      "9Xw": 8262,
      "9Bw": 8263,
      "9ew": 8264,
      "940": 8265,
      "9zN": 8266,
      "9Ww": 8267,
      "AIz": 8268,
      "AIo": 8269,
      "AEy": 8270,
      "Bh": 8271,
      "BIx": 8272,
      "C@": 8273,
      "CIz": 8274,
      "CzI": 8275,
      "CyE": 8276,
      "CxY": 8277,
      "DRx": 8278,
      "Dey": 8279,
      "D9E": 8280,
      "Ddq": 8281,
      "D4c": 8282,
      "Dz7": 8283,
      "D3q": 8284,
      "DWw": 8285,
      "Dz2": 8286,
      "DMq": 8287,
      "Fzz": 8288,
      "FzD": 8289,
      "FIP": 8290,
      "FRx": 8291,
      "FRy": 8292,
      "Gp": 8293,
      "GwI": 8294,
      "Iqqw": 8295,
      "Iwzq": 8296,
      "J7": 8297,
      "JM": 8298,
      "JY": 8299,
      "JZ": 8300,
      "KDc": 8301,
      "Kox": 8302,
      "Kbw": 8303,
      "Kfw": 8304,
      "Kff": 8305,
      "KgE": 8306,
      "KRx": 8307,
      "KOx": 8308,
      "LoE": 8309,
      "LzK": 8310,
      "Lnq": 8311,
      "LRO": 8312,
      "LzX": 8313,
      "Liq": 8314,
      "LDB": 8315,
      "L09": 8316,
      "LOL": 8317,
      "Mzf": 8318,
      "MDc": 8319,
      "NF": 8320,
      "NIq": 8321,
      "Ncc": 8322,
      "Oz0": 8323,
      "Ooo": 8324,
      "OID": 8325,
      "Onw": 8326,
      "OXE": 8327,
      "Obc": 8328,
      "OIZ": 8329,
      "PyE": 8330,
      "PI4": 8331,
      "Pf9": 8332,
      "QIE": 8333,
      "QIz": 8334,
      "QEE": 8335,
      "Qzw": 8336,
      "QDI": 8337,
      "Qzy": 8338,
      "QzL": 8339,
      "QEy": 8340,
      "Qbw": 8341,
      "R@": 8342,
      "RzB": 8343,
      "R44": 8344,
      "RzW": 8345,
      "RYw": 8346,
      "RiY": 8347,
      "RIn": 8348,
      "RRB": 8349,
      "Rzm": 8350,
      "RLD": 8351,
      "R0R": 8352,
      "Tn": 8353,
      "Tyy": 8354,
      "U1": 8355,
      "U5": 8356,
      "US": 8357,
      "VDq": 8358,
      "W4q": 8359,
      "W4w": 8360,
      "Wzc": 8361,
      "Wee": 8362,
      "WnE": 8363,
      "WLD": 8364,
      "XzI": 8365,
      "XDI": 8366,
      "XDD": 8367,
      "Xyq": 8368,
      "XPE": 8369,
      "X9w": 8370,
      "XDo": 8371,
      "Xz9": 8372,
      "Xff": 8373,
      "XOE": 8374,
      "YzK": 8375,
      "YRb": 8376,
      "Ybc": 8377,
      "YoD": 8378,
      "ZDE": 8379,
      "Zz0": 8380,
      "ZIb": 8381,
      "ZIW": 8382,
      "ZPf": 8383,
      "a5": 8384,
      "aRE": 8385,
      "aqD": 8386,
      "bzx": 8387,
      "b4q": 8388,
      "cIq": 8389,
      "coo": 8390,
      "cDL": 8391,
      "c0y": 8392,
      "cBE": 8393,
      "dzi": 8394,
      "dPE": 8395,
      "dI9": 8396,
      "d44": 8397,
      "dEw": 8398,
      "dWE": 8399,
      "dCE": 8400,
      "eDb": 8401,
      "eEq": 8402,
      "eI4": 8403,
      "eI3": 8404,
      "eLD": 8405,
      "fIo": 8406,
      "fzP": 8407,
      "fzB": 8408,
      "fow": 8409,
      "fDo": 8410,
      "fxq": 8411,
      "fzs": 8412,
      "fzv": 8413,
      "fOy": 8414,
      "fob": 8415,
      "fdq": 8416,
      "fFE": 8417,
      "g9I": 8418,
      "goo": 8419,
      "g9w": 8420,
      "hF": 8421,
      "hb": 8422,
      "ize": 8423,
      "iYw": 8424,
      "jt": 8425,
      "lG": 8426,
      "lr": 8427,
      "mwE": 8428,
      "mqE": 8429,
      "mzi": 8430,
      "mEy": 8431,
      "mEw": 8432,
      "nDD": 8433,
      "n9q": 8434,
      "nYq": 8435,
      "nRc": 8436,
      "nXE": 8437,
      "nIZ": 8438,
      "nzm": 8439,
      "n4y": 8440,
      "nvw": 8441,
      "nKK": 8442,
      "n09": 8443,
      "nfo": 8444,
      "nIG": 8445,
      "nPy": 8446,
      "nsy": 8447,
      "oIb": 8448,
      "oCE": 8449,
      "oz3": 8450,
      "ovq": 8451,
      "oKK": 8452,
      "py": 8453,
      "rIy": 8454,
      "roE": 8455,
      "rzK": 8456,
      "rzL": 8457,
      "szz": 8458,
      "sIw": 8459,
      "szx": 8460,
      "szK": 8461,
      "sbq": 8462,
      "tRN": 8463,
      "uwz": 8464,
      "uIf": 8465,
      "uzf": 8466,
      "uz0": 8467,
      "uxE": 8468,
      "uYE": 8469,
      "ufE": 8470,
      "ubq": 8471,
      "uEq": 8472,
      "uIn": 8473,
      "vIw": 8474,
      "vfE": 8475,
      "viq": 8476,
      "vvE": 8477,
      "vii": 8478,
      "v6y": 8479,
      "xII": 8480,
      "xzY": 8481,
      "x0L": 8482,
      "xow": 8483,
      "xDB": 8484,
      "xoO": 8485,
      "zz2": 8486,
      "ww7": 8487,
      "qqe": 8488,
      "qqm": 8489,
      "qqqD": 8490,
      "qqEy": 8491,
      "IES": 8492,
      "wzIz": 8493,
      "zqR": 8494,
      "wEN": 8495,
      "wqA": 8496,
      "DqF": 8497,
      "DqM": 8498,
      "DqQ": 8499,
      "Dqzw": 8500,
      "IIH": 8501,
      "IIzz": 8502,
      "EE3": 8503,
      "EEf": 8504,
      "Iw5": 8505,
      "Iwzz": 8506,
      "IwIw": 8507,
      "zw7": 8508,
      "zwB": 8509,
      "zEV": 8510,
      "zEh": 8511,
      "IfM": 8512,
      "Ifg": 8513,
      "Ifn": 8514,
      "Dw4": 8515,
      "DwA": 8516,
      "yyB": 8517,
      "yyt": 8518,
      "yyyyy": 8519,
      "yEP": 8520,
      "DEr": 8521,
      "DI7": 8522,
      "DIN": 8523,
      "zoN": 8524,
      "zozx": 8525,
      "qEZ": 8526,
      "qEb": 8527,
      "4I!": 8528,
      "4I5": 8529,
      "4IG": 8530,
      "RqK": 8531,
      "9Izz": 8532,
      "Dy7": 8533,
      "DyA": 8534,
      "0Ee": 8535,
      "0Et": 8536,
      "zyr": 8537,
      "zyzz": 8538,
      "Rwt": 8539,
      "RwIE": 8540,
      "Iys": 8541,
      "qDc": 8542,
      "qDg": 8543,
      "bbL": 8544,
      "bbt": 8545,
      "zez0": 8546,
      "wft": 8547,
      "fEs": 8548,
      "LEQ": 8549,
      "Ioi": 8550,
      "zPh": 8551,
      "Rb2": 8552,
      "IDs": 8553,
      "IYP": 8554,
      "0qg": 8555,
      "9qM": 8556,
      "9qY": 8557,
      "zLzq": 8558,
      "Dcg": 8559,
      "0xZ": 8560,
      "oyi": 8561,
      "zci": 8562,
      "DxL": 8563,
      "oxy": 8564,
      "nqL": 8565,
      "nqs": 8566,
      "dyb": 8567,
      "dyi": 8568,
      "DYi": 8569,
      "DYs": 8570,
      "EyY": 8571,
      "bqb": 8572,
      "oqx": 8573,
      "oqww": 8574,
      "9w!": 8575,
      "9wd": 8576,
      "9wr": 8577,
      "9ws": 8578,
      "ROB": 8579,
      "ROK": 8580,
      "ROi": 8581,
      "ROm": 8582,
      "zn3": 8583,
      "zni": 8584,
      "znzn": 8585,
      "zBg": 8586,
      "owi": 8587,
      "zXi": 8588,
      "4444": 8589,
      "YqG": 8590,
      "fwx": 8591,
      "ILi": 8592,
      "0cx": 8593,
      "0i7": 8594,
      "zdd": 8595,
      "KqA": 8596,
      "Kqi": 8597,
      "YwK": 8598,
      "XEc": 8599,
      "PqL": 8600,
      "iE3": 8601,
      "0bB": 8602,
      "Rfx": 8603,
      "y9e": 8604,
      "OwY": 8605,
      "bcL!": 8606,
      "cEc": 8607,
      "RdX": 8608,
      "iYy": 8609,
      "OyY": 8610,
      "cwN": 8611,
      "gqx": 8612,
      "xwc": 8613,
      "vw9": 8614,
      "vwO": 8615,
      "z3y": 8616,
      "0DN": 8617,
      "oXX": 8618,
      "Bqb": 8619,
      "nOb": 8620,
      "0RW": 8621,
      "I!w": 8622,
      "eiei": 8623,
      "KxK": 8624,
      "ObB": 8625,
      "niy": 8626,
      "0ri": 8627,
      "0r40w": 8628,
      "zAw": 8629,
      "swy": 8630,
      "4BAS": 8631,
      "aqy": 8632,
      "RKB": 8633,
      "rqOO": 8634,
      "Dsy": 8635,
      "zIzw": 8636,
      "I5q": 8637,
      "wqwqq": 8638,
      "Ijq": 8639,
      "Fq6": 8640,
      "c5e": 8641,
      "HH8": 8642,
      "69O4BAS": 8643,
      "FOydVtZZ": 8644,
      "!hPOHuEwu1Ct1S6WFOydVtZZ": 8645,
      "6vhiM": 8646,
      "bdatk9OnBocHTBwGV": 8647,
      "69O4BASHH8": 8648,
      "!xE": 8649,
      "!zB": 8650,
      "!zW": 8651,
      "!0c": 8652,
      "!zd": 8653,
      "!Iv": 8654,
      "!oK": 8655,
      "!eb": 8656,
      "0@": 8657,
      "04E": 8658,
      "0IM": 8659,
      "0Is": 8660,
      "0uw": 8661,
      "1Q": 8662,
      "1yA": 8663,
      "2oo": 8664,
      "2y9": 8665,
      "3DE": 8666,
      "39I": 8667,
      "3YE": 8668,
      "4k": 8669,
      "40x": 8670,
      "4Oq": 8671,
      "4ff": 8672,
      "4zZ": 8673,
      "4z3": 8674,
      "4bD": 8675,
      "51": 8676,
      "5S": 8677,
      "5zD": 8678,
      "5I9": 8679,
      "6H": 8680,
      "6zo": 8681,
      "6wI": 8682,
      "6Ey": 8683,
      "6I4": 8684,
      "7J": 8685,
      "7zf": 8686,
      "8M": 8687,
      "8d": 8688,
      "9zB": 8689,
      "9zX": 8690,
      "9Yq": 8691,
      "9XE": 8692,
      "9z!": 8693,
      "9z3": 8694,
      "9uO": 8695,
      "A1": 8696,
      "Azq": 8697,
      "AIR": 8698,
      "AIO": 8699,
      "Bcc": 8700,
      "BbD": 8701,
      "C4": 8702,
      "Cp": 8703,
      "CIw": 8704,
      "Cox": 8705,
      "Coc": 8706,
      "Cxq": 8707,
      "D4D": 8708,
      "D4i": 8709,
      "Dny": 8710,
      "Dnb": 8711,
      "D4X": 8712,
      "D4e": 8713,
      "DIzq": 8714,
      "FIx": 8715,
      "FID": 8716,
      "FdE": 8717,
      "FRf": 8718,
      "G6": 8719,
      "GDE": 8720,
      "G0E": 8721,
      "GbO": 8722,
      "GYw": 8723,
      "Hp3": 8724,
      "I7E": 8725,
      "Iwwq": 8726,
      "Jt": 8727,
      "Kzy": 8728,
      "Kze": 8729,
      "KYE": 8730,
      "KfE": 8731,
      "Knq": 8732,
      "Kdy": 8733,
      "KIc": 8734,
      "KiE": 8735,
      "Kz!": 8736,
      "KOc": 8737,
      "L4Y": 8738,
      "LLq": 8739,
      "LOw": 8740,
      "LDX": 8741,
      "Lzg": 8742,
      "Lzr": 8743,
      "Ley": 8744,
      "LOO": 8745,
      "MzD": 8746,
      "Mwf": 8747,
      "MzX": 8748,
      "MIb": 8749,
      "NIO": 8750,
      "NI4": 8751,
      "Ozb": 8752,
      "OzO": 8753,
      "ODx": 8754,
      "O9w": 8755,
      "O0y": 8756,
      "ObO": 8757,
      "Oiq": 8758,
      "OIi": 8759,
      "OXw": 8760,
      "Ovy": 8761,
      "Odd": 8762,
      "Poo": 8763,
      "Pyw": 8764,
      "PID": 8765,
      "P4Y": 8766,
      "PDc": 8767,
      "Pxx": 8768,
      "PIZ": 8769,
      "PIK": 8770,
      "Pvq": 8771,
      "PLi": 8772,
      "Qzq": 8773,
      "Qwq": 8774,
      "QfE": 8775,
      "Qoq": 8776,
      "Qzs": 8777,
      "Roo": 8778,
      "R0x": 8779,
      "Roi": 8780,
      "RRD": 8781,
      "Rzg": 8782,
      "RRy": 8783,
      "RoX": 8784,
      "R2y": 8785,
      "RI2": 8786,
      "S5": 8787,
      "S7": 8788,
      "SH": 8789,
      "SZ": 8790,
      "Sg": 8791,
      "Sl": 8792,
      "T3": 8793,
      "TB": 8794,
      "TR": 8795,
      "Tl": 8796,
      "U6": 8797,
      "Vzz": 8798,
      "Vc5e": 8799,
      "WzD": 8800,
      "WoE": 8801,
      "W0q": 8802,
      "WzL": 8803,
      "WI9": 8804,
      "WIP": 8805,
      "WKq": 8806,
      "W0O": 8807,
      "WIb": 8808,
      "WXE": 8809,
      "WI4": 8810,
      "Woi": 8811,
      "WWE": 8812,
      "Wyf": 8813,
      "WWq": 8814,
      "WOy": 8815,
      "W0f": 8816,
      "WRY": 8817,
      "WPo": 8818,
      "Xoo": 8819,
      "Xyw": 8820,
      "Xbw": 8821,
      "XRD": 8822,
      "Xf9": 8823,
      "YzO": 8824,
      "Y44": 8825,
      "YBE": 8826,
      "YxY": 8827,
      "YcE": 8828,
      "ZzI": 8829,
      "Z4I": 8830,
      "Z9I": 8831,
      "Zzy": 8832,
      "Zfw": 8833,
      "ZEw": 8834,
      "aG": 8835,
      "aqE": 8836,
      "az0": 8837,
      "aIb": 8838,
      "aOy": 8839,
      "bzi": 8840,
      "bzY": 8841,
      "bzL": 8842,
      "cRq": 8843,
      "czy": 8844,
      "czb": 8845,
      "cIy": 8846,
      "cwf": 8847,
      "c9w": 8848,
      "cRc": 8849,
      "cxY": 8850,
      "dqE": 8851,
      "d4I": 8852,
      "dfE": 8853,
      "d0o": 8854,
      "ddy": 8855,
      "dxq": 8856,
      "d0b": 8857,
      "dWq": 8858,
      "dI3": 8859,
      "dLL": 8860,
      "d0f": 8861,
      "dzM": 8862,
      "d3q": 8863,
      "ek": 8864,
      "exE": 8865,
      "eID": 8866,
      "e0x": 8867,
      "eI9": 8868,
      "eXE": 8869,
      "eiE": 8870,
      "e0b": 8871,
      "evy": 8872,
      "e9c": 8873,
      "ezA": 8874,
      "fDD": 8875,
      "fYE": 8876,
      "fyw": 8877,
      "fDf": 8878,
      "fI9": 8879,
      "fbO": 8880,
      "fOq": 8881,
      "fIc": 8882,
      "fYw": 8883,
      "fiE": 8884,
      "fBE": 8885,
      "fy9": 8886,
      "fPx": 8887,
      "fRi": 8888,
      "f09": 8889,
      "fRo": 8890,
      "g4I": 8891,
      "gzi": 8892,
      "g9q": 8893,
      "gfw": 8894,
      "gOq": 8895,
      "g9c": 8896,
      "hP": 8897,
      "hU": 8898,
      "hEE": 8899,
      "iDD": 8900,
      "iDx": 8901,
      "izg": 8902,
      "iob": 8903,
      "j6": 8904,
      "ja": 8905,
      "jb": 8906,
      "jo": 8907,
      "l1": 8908,
      "le": 8909,
      "lIq": 8910,
      "lII": 8911,
      "mIE": 8912,
      "mzw": 8913,
      "mqw": 8914,
      "mDI": 8915,
      "m0E": 8916,
      "mzR": 8917,
      "m0L": 8918,
      "moO": 8919,
      "nbw": 8920,
      "nLq": 8921,
      "nIe": 8922,
      "nCE": 8923,
      "n0f": 8924,
      "nIg": 8925,
      "nzC": 8926,
      "nvc": 8927,
      "ntq": 8928,
      "oRb": 8929,
      "ozr": 8930,
      "oI3": 8931,
      "oeE": 8932,
      "oRY": 8933,
      "oew": 8934,
      "ovy": 8935,
      "o9O": 8936,
      "oIB": 8937,
      "oCw": 8938,
      "pd": 8939,
      "rDD": 8940,
      "rIR": 8941,
      "r0L": 8942,
      "rzn": 8943,
      "sDI": 8944,
      "sDD": 8945,
      "sIx": 8946,
      "szO": 8947,
      "sID": 8948,
      "szs": 8949,
      "t4I": 8950,
      "toE": 8951,
      "tDf": 8952,
      "tRc": 8953,
      "uDw": 8954,
      "uDE": 8955,
      "uDI": 8956,
      "uRq": 8957,
      "uDf": 8958,
      "uRO": 8959,
      "uIP": 8960,
      "uIc": 8961,
      "uI0": 8962,
      "uzv": 8963,
      "uME": 8964,
      "vS": 8965,
      "vIq": 8966,
      "vDq": 8967,
      "vzo": 8968,
      "vIR": 8969,
      "vfq": 8970,
      "vbw": 8971,
      "v0c": 8972,
      "vI4": 8973,
      "vOw": 8974,
      "vOy": 8975,
      "vo0": 8976,
      "vgq": 8977,
      "xbb": 8978,
      "x0y": 8979,
      "xff": 8980,
      "xKw": 8981,
      "xiY": 8982,
      "yh": 8983,
      "ywz": 8984,
      "y0E": 8985,
      "zzM": 8986,
      "zzT": 8987,
      "zzwI": 8988,
      "zzzr": 8989,
      "ww6": 8990,
      "qq7": 8991,
      "qqwE": 8992,
      "qqqqq": 8993,
      "IEC": 8994,
      "IEZ": 8995,
      "IzG": 8996,
      "IzH": 8997,
      "Iza": 8998,
      "IzII": 8999,
      "IqDq": 9000,
      "IqRq": 9001,
      "wEww": 9002,
      "wEzw": 9003,
      "DqR": 9004,
      "Dqu": 9005,
      "IIL": 9006,
      "IwQ": 9007,
      "Iw9w": 9008,
      "zwD": 9009,
      "zwt": 9010,
      "zwIz": 9011,
      "zDG": 9012,
      "zDK": 9013,
      "zEQ": 9014,
      "IfL": 9015,
      "DwB": 9016,
      "yy3": 9017,
      "yyL": 9018,
      "yyO": 9019,
      "yyyE": 9020,
      "zIa": 9021,
      "zIo": 9022,
      "zIt": 9023,
      "yEb": 9024,
      "zxP": 9025,
      "zxIE": 9026,
      "zxzy": 9027,
      "zoK": 9028,
      "qEf": 9029,
      "Rqm": 9030,
      "zfC": 9031,
      "9Ia": 9032,
      "DyzE": 9033,
      "z0!": 9034,
      "z03": 9035,
      "0E!": 9036,
      "0EV": 9037,
      "DDg": 9038,
      "DDr": 9039,
      "Rwb": 9040,
      "RwIf": 9041,
      "REs": 9042,
      "REzq": 9043,
      "xEY": 9044,
      "qD!": 9045,
      "bbQ": 9046,
      "YEO": 9047,
      "yqu": 9048,
      "IRg": 9049,
      "IRr": 9050,
      "IxP": 9051,
      "zKP": 9052,
      "zKt": 9053,
      "LEx": 9054,
      "zOu": 9055,
      "IoL": 9056,
      "zPA": 9057,
      "IOt": 9058,
      "0qy": 9059,
      "0oc": 9060,
      "4Yt": 9061,
      "4Y4y": 9062,
      "DcG": 9063,
      "oye": 9064,
      "oxe": 9065,
      "EyX": 9066,
      "Eyi": 9067,
      "bqW": 9068,
      "bqY": 9069,
      "9wZ": 9070,
      "ROx": 9071,
      "ROLw": 9072,
      "YYN": 9073,
      "zBb": 9074,
      "owow": 9075,
      "I9B": 9076,
      "Eqb": 9077,
      "IPP": 9078,
      "bOL": 9079,
      "iqO": 9080,
      "fwM": 9081,
      "DoL": 9082,
      "DoX": 9083,
      "Kqx": 9084,
      "Kqy": 9085,
      "nws": 9086,
      "ocL": 9087,
      "ffx": 9088,
      "Pqi": 9089,
      "oiY": 9090,
      "oiZ": 9091,
      "oim": 9092,
      "KEi": 9093,
      "Lqi": 9094,
      "IXy": 9095,
      "Owe": 9096,
      "xYx": 9097,
      "eqy": 9098,
      "z!r": 9099,
      "gEX": 9100,
      "Xqy": 9101,
      "Iex": 9102,
      "Pxy": 9103,
      "iwb": 9104,
      "4DN": 9105,
      "f9y": 9106,
      "xwi": 9107,
      "vwY": 9108,
      "LLg": 9109,
      "LLm": 9110,
      "LLLL": 9111,
      "oDC": 9112,
      "oDZ": 9113,
      "Ly6": 9114,
      "9Ei": 9115,
      "Iu3": 9116,
      "fxi": 9117,
      "bDu": 9118,
      "Ro!": 9119,
      "ZqO": 9120,
      "PoB": 9121,
      "WyM": 9122,
      "0RN": 9123,
      "z7q": 9124,
      "zCy": 9125,
      "PPv": 9126,
      "dXy": 9127,
      "zFq": 9128,
      "zQw": 9129,
      "Dvc": 9130,
      "ZyZy": 9131,
      "Itq": 9132,
      "xXTc": 9133,
      "9N69O4BASHH8": 9134,
      "!qPa": 9135,
      "zUq": 9136,
      "9IIw": 9137,
      "gOt": 9138,
      "draZ": 9139,
      "Bi5": 9140,
      "zzKzz": 9141,
      "362": 9142,
      "gAZ": 9143,
      "2e9N": 9144,
      "ococococ": 9145,
      "pdqVc5e": 9146,
      "6dqvFjz": 9147,
      "!C7nmZtdbA0hsA!": 9148,
      "Fq6pdqVc5e": 9149,
      "bdatk9OnBocHTBwGV6dqvFjz": 9150,
      "xXTcdraZ": 9151,
      "!0q": 9152,
      "!RO": 9153,
      "!oc": 9154,
      "!Ii": 9155,
      "!zg": 9156,
      "!z3": 9157,
      "!4c": 9158,
      "!WD": 9159,
      "!ri": 9160,
      "0k": 9161,
      "0In": 9162,
      "0Ig": 9163,
      "0zzzz": 9164,
      "0Wy": 9165,
      "0zC": 9166,
      "0Cq": 9167,
      "03w": 9168,
      "0WR": 9169,
      "0zwz": 9170,
      "0www": 9171,
      "13": 9172,
      "1V": 9173,
      "2zq": 9174,
      "2Dq": 9175,
      "3If": 9176,
      "3xE": 9177,
      "3oq": 9178,
      "3Yw": 9179,
      "4oq": 9180,
      "4DB": 9181,
      "4Ry": 9182,
      "4eE": 9183,
      "40B": 9184,
      "4fb": 9185,
      "4Zw": 9186,
      "4zN": 9187,
      "4z2": 9188,
      "4ZE": 9189,
      "4zIz": 9190,
      "5wE": 9191,
      "6qE": 9192,
      "6Ew": 9193,
      "63E": 9194,
      "6yf": 9195,
      "7yE": 9196,
      "7zc": 9197,
      "7Px": 9198,
      "87": 9199,
      "8S": 9200,
      "8j": 9201,
      "9DB": 9202,
      "9Lw": 9203,
      "9ff": 9204,
      "9bc": 9205,
      "9zv": 9206,
      "9Xq": 9207,
      "9oO": 9208,
      "9eE": 9209,
      "90f": 9210,
      "9sq": 9211,
      "9WD": 9212,
      "9aq": 9213,
      "9rq": 9214,
      "AJ": 9215,
      "Aww": 9216,
      "AIq": 9217,
      "APE": 9218,
      "ADv": 9219,
      "BH": 9220,
      "Bz0": 9221,
      "Bfw": 9222,
      "BDB": 9223,
      "BRD": 9224,
      "Czw": 9225,
      "Cze": 9226,
      "CoE": 9227,
      "Cyq": 9228,
      "COw": 9229,
      "Cgw": 9230,
      "Cxy": 9231,
      "D44": 9232,
      "D0c": 9233,
      "D0D": 9234,
      "DKK": 9235,
      "D09": 9236,
      "DPo": 9237,
      "D9b": 9238,
      "DKx": 9239,
      "DeL": 9240,
      "DME": 9241,
      "D9e": 9242,
      "Dzwz": 9243,
      "Dzzq": 9244,
      "DzIz": 9245,
      "DwwE": 9246,
      "F2": 9247,
      "FDb": 9248,
      "FIo": 9249,
      "Ffq": 9250,
      "FDB": 9251,
      "FRB": 9252,
      "FRN": 9253,
      "Gzz": 9254,
      "GIy": 9255,
      "G4Y": 9256,
      "H@": 9257,
      "Kyq": 9258,
      "KzX": 9259,
      "KOE": 9260,
      "Kf9": 9261,
      "KIg": 9262,
      "KbD": 9263,
      "KmE": 9264,
      "L8": 9265,
      "LIR": 9266,
      "LLE": 9267,
      "Lbw": 9268,
      "LvE": 9269,
      "LOf": 9270,
      "MDO": 9271,
      "Mdy": 9272,
      "MOb": 9273,
      "NJ": 9274,
      "NII": 9275,
      "NDI": 9276,
      "NDy": 9277,
      "NDB": 9278,
      "NDg": 9279,
      "Ncb": 9280,
      "ODy": 9281,
      "OPE": 9282,
      "ODL": 9283,
      "Ozn": 9284,
      "OLq": 9285,
      "OgE": 9286,
      "PYE": 9287,
      "PDO": 9288,
      "PIL": 9289,
      "POq": 9290,
      "PLy": 9291,
      "Pii": 9292,
      "PZw": 9293,
      "Qey": 9294,
      "R00": 9295,
      "RzX": 9296,
      "Roc": 9297,
      "RRf": 9298,
      "RKw": 9299,
      "RLq": 9300,
      "Ryf": 9301,
      "RCE": 9302,
      "Rzu": 9303,
      "RzM": 9304,
      "R4E": 9305,
      "Ruw": 9306,
      "Raq": 9307,
      "Sj": 9308,
      "TN": 9309,
      "Twq": 9310,
      "TzE": 9311,
      "UII": 9312,
      "VJ": 9313,
      "VIw": 9314,
      "V0E": 9315,
      "VIx": 9316,
      "V7A": 9317,
      "Wze": 9318,
      "WDO": 9319,
      "Woy": 9320,
      "Wnq": 9321,
      "W0i": 9322,
      "WOq": 9323,
      "Woc": 9324,
      "WoL": 9325,
      "WLq": 9326,
      "WXq": 9327,
      "WLY": 9328,
      "WIK": 9329,
      "Wxw": 9330,
      "W40": 9331,
      "W9e": 9332,
      "XIq": 9333,
      "XxE": 9334,
      "XIy": 9335,
      "Xwf": 9336,
      "XDO": 9337,
      "XDY": 9338,
      "Xoq": 9339,
      "XbO": 9340,
      "XYq": 9341,
      "XdE": 9342,
      "YRq": 9343,
      "Yoq": 9344,
      "YbE": 9345,
      "YI3": 9346,
      "YRY": 9347,
      "YIW": 9348,
      "Z8": 9349,
      "ZRq": 9350,
      "ZxE": 9351,
      "ZLE": 9352,
      "Zzs": 9353,
      "aIE": 9354,
      "aRq": 9355,
      "aDy": 9356,
      "aZw": 9357,
      "bwI": 9358,
      "biE": 9359,
      "bDX": 9360,
      "bIv": 9361,
      "bzg": 9362,
      "bFE": 9363,
      "cDD": 9364,
      "c0w": 9365,
      "cdy": 9366,
      "cOc": 9367,
      "cfY": 9368,
      "cBb": 9369,
      "doo": 9370,
      "doE": 9371,
      "dwf": 9372,
      "dzO": 9373,
      "d0q": 9374,
      "dDc": 9375,
      "d0x": 9376,
      "dDL": 9377,
      "dDo": 9378,
      "dxx": 9379,
      "dOq": 9380,
      "doL": 9381,
      "deq": 9382,
      "dzv": 9383,
      "eRb": 9384,
      "e4w": 9385,
      "eYq": 9386,
      "e0O": 9387,
      "ey9": 9388,
      "eIi": 9389,
      "eOw": 9390,
      "eId": 9391,
      "eIe": 9392,
      "eIZ": 9393,
      "evw": 9394,
      "e0R": 9395,
      "eo!": 9396,
      "fRc": 9397,
      "foL": 9398,
      "feq": 9399,
      "fyf": 9400,
      "fME": 9401,
      "fcL": 9402,
      "gyy": 9403,
      "gIy": 9404,
      "gyq": 9405,
      "gPE": 9406,
      "giq": 9407,
      "gxx": 9408,
      "gnw": 9409,
      "gRx": 9410,
      "h2": 9411,
      "hJ": 9412,
      "hc": 9413,
      "hp": 9414,
      "ioo": 9415,
      "iwf": 9416,
      "izO": 9417,
      "i0i": 9418,
      "iDi": 9419,
      "iz9": 9420,
      "ixo": 9421,
      "j7": 9422,
      "jwE": 9423,
      "jEE": 9424,
      "kDY": 9425,
      "lR": 9426,
      "mzx": 9427,
      "mzf": 9428,
      "mzK": 9429,
      "moy": 9430,
      "miE": 9431,
      "n4w": 9432,
      "nzs": 9433,
      "nDX": 9434,
      "nzg": 9435,
      "ney": 9436,
      "nz3": 9437,
      "nBq": 9438,
      "nvy": 9439,
      "nex": 9440,
      "nPP": 9441,
      "nzN": 9442,
      "n9b": 9443,
      "nIs": 9444,
      "nME": 9445,
      "nfY": 9446,
      "n0!": 9447,
      "nnf": 9448,
      "nZy": 9449,
      "nz6": 9450,
      "oOy": 9451,
      "ovw": 9452,
      "o3q": 9453,
      "oWL": 9454,
      "omq": 9455,
      "rzE": 9456,
      "ryy": 9457,
      "rze": 9458,
      "rIx": 9459,
      "rDO": 9460,
      "rIO": 9461,
      "rDY": 9462,
      "r44": 9463,
      "sDw": 9464,
      "szi": 9465,
      "sow": 9466,
      "sxq": 9467,
      "soi": 9468,
      "sIX": 9469,
      "t5": 9470,
      "tH": 9471,
      "th": 9472,
      "tzE": 9473,
      "tzf": 9474,
      "tLE": 9475,
      "tDB": 9476,
      "toc": 9477,
      "t0f": 9478,
      "uww": 9479,
      "uzo": 9480,
      "uzy": 9481,
      "uzd": 9482,
      "uIu": 9483,
      "uyY": 9484,
      "vzy": 9485,
      "v00": 9486,
      "vIx": 9487,
      "vID": 9488,
      "v0L": 9489,
      "vOq": 9490,
      "vdE": 9491,
      "viE": 9492,
      "vbE": 9493,
      "vyf": 9494,
      "voO": 9495,
      "vob": 9496,
      "vBw": 9497,
      "xH": 9498,
      "x4I": 9499,
      "xRb": 9500,
      "xzW": 9501,
      "xz3": 9502,
      "yww": 9503,
      "yzq": 9504,
      "zlq": 9505,
      "z6q": 9506,
      "zVE": 9507,
      "zzzW": 9508,
      "zzne": 9509,
      "wwa": 9510,
      "wwd": 9511,
      "wwDI": 9512,
      "wwcw": 9513,
      "qqa": 9514,
      "qqo": 9515,
      "qqzq": 9516,
      "IEzz": 9517,
      "IEEw": 9518,
      "IzU": 9519,
      "zqN": 9520,
      "zqzz": 9521,
      "zqDw": 9522,
      "Iq!": 9523,
      "IqA": 9524,
      "IqDI": 9525,
      "wE!": 9526,
      "wEP": 9527,
      "wEt": 9528,
      "wqY": 9529,
      "Dqo": 9530,
      "EEP": 9531,
      "IwU": 9532,
      "zw5": 9533,
      "zwIE": 9534,
      "zDV": 9535,
      "zDwI": 9536,
      "zEDI": 9537,
      "IfG": 9538,
      "Ifr": 9539,
      "Dw3": 9540,
      "Dw7": 9541,
      "Dwg": 9542,
      "Dwzz": 9543,
      "zIG": 9544,
      "qwX": 9545,
      "zxzq": 9546,
      "zxzi": 9547,
      "DE5": 9548,
      "DEzw": 9549,
      "DIr": 9550,
      "DIIz": 9551,
      "zoe": 9552,
      "qEo": 9553,
      "4IM": 9554,
      "4Izz": 9555,
      "RqL": 9556,
      "RqP": 9557,
      "Rqr": 9558,
      "zfM": 9559,
      "9I9": 9560,
      "9IC": 9561,
      "wIZ": 9562,
      "z0t": 9563,
      "0EM": 9564,
      "zyt": 9565,
      "zbF": 9566,
      "zbzb": 9567,
      "ziL": 9568,
      "qDC": 9569,
      "qDd": 9570,
      "qDm": 9571,
      "bbB": 9572,
      "zezq": 9573,
      "YEB": 9574,
      "YEQ": 9575,
      "oEm": 9576,
      "DbB": 9577,
      "DbO": 9578,
      "00b": 9579,
      "IxO": 9580,
      "Ixi": 9581,
      "yw6": 9582,
      "ywX": 9583,
      "ywe": 9584,
      "ywg": 9585,
      "ywi": 9586,
      "ccL": 9587,
      "zPV": 9588,
      "Rbu": 9589,
      "IDC": 9590,
      "IDIz": 9591,
      "IYg": 9592,
      "IYx": 9593,
      "fqf": 9594,
      "fqo": 9595,
      "PEZ": 9596,
      "4qC": 9597,
      "4qc": 9598,
      "9qF": 9599,
      "0og": 9600,
      "4w3": 9601,
      "4wu": 9602,
      "0w!": 9603,
      "zYy": 9604,
      "4YQ": 9605,
      "zLzz": 9606,
      "DcB": 9607,
      "oy3": 9608,
      "oyc": 9609,
      "zcP": 9610,
      "zczz": 9611,
      "nqZ": 9612,
      "nqc": 9613,
      "dyc": 9614,
      "bqX": 9615,
      "oqW": 9616,
      "9wIE": 9617,
      "znB": 9618,
      "YYc": 9619,
      "owY": 9620,
      "I9O": 9621,
      "I9y": 9622,
      "44c": 9623,
      "0yc": 9624,
      "0yi": 9625,
      "bwN": 9626,
      "bwO": 9627,
      "bwx": 9628,
      "iqB": 9629,
      "Yqx": 9630,
      "DoG": 9631,
      "0cY": 9632,
      "0iY": 9633,
      "DiB": 9634,
      "Ici": 9635,
      "z9B": 9636,
      "Lwc": 9637,
      "xqB": 9638,
      "xqC": 9639,
      "xqxq": 9640,
      "YwB": 9641,
      "Ywg": 9642,
      "Ib2": 9643,
      "RcB": 9644,
      "I45": 9645,
      "PqX": 9646,
      "Pqr": 9647,
      "0by": 9648,
      "OEB": 9649,
      "oiy": 9650,
      "Rfd": 9651,
      "RDr": 9652,
      "Kwt": 9653,
      "WEv": 9654,
      "y9B": 9655,
      "y9Y": 9656,
      "zsy": 9657,
      "Lqr": 9658,
      "Lqy": 9659,
      "eei": 9660,
      "IXX": 9661,
      "OwZ": 9662,
      "eqX": 9663,
      "z!w": 9664,
      "I0K": 9665,
      "WqB": 9666,
      "CEL": 9667,
      "oOO": 9668,
      "4D!": 9669,
      "fy6": 9670,
      "0BK": 9671,
      "cy6": 9672,
      "zmy": 9673,
      "oDu": 9674,
      "obe": 9675,
      "Igs": 9676,
      "BwY": 9677,
      "RiL": 9678,
      "Riy": 9679,
      "fbi": 9680,
      "09b": 9681,
      "nO!": 9682,
      "bDr": 9683,
      "ZqZ": 9684,
      "mEx": 9685,
      "nDN": 9686,
      "3qx": 9687,
      "0XL": 9688,
      "9by": 9689,
      "WDM": 9690,
      "WDqq": 9691,
      "RgY": 9692,
      "CqL": 9693,
      "zFw": 9694,
      "0rr": 9695,
      "0Yi": 9696,
      "Bbt": 9697,
      "FR!": 9698,
      "Qwa": 9699,
      "0CzT": 9700,
      "I5w": 9701,
      "vvvv": 9702,
      "oAoA": 9703,
      "02Q0L": 9704,
      "zEEq": 9705,
      "n702Q0L": 9706,
      "b!9N69O4BASHH8": 9707,
      "OjJV": 9708,
      "3CJ": 9709,
      "Ga0CzT": 9710,
      "g1Ga0CzT": 9711,
      "akuE": 9712,
      "AzvgOt": 9713,
      "ZuE5jkDY": 9714,
      "FGa1k9g18!C7nmZtdbA0hsA!": 9715,
      "N991yA": 9716,
      "Hp3xXTcdraZ": 9717,
      "!qPaHp3xXTcdraZ": 9718,
      "2e9NZuE5jkDY": 9719,
      "g1Ga0CzT4O": 9720,
      "N991yAg1Ga0CzT4O": 9721,
      "2e9NZuE5jkDYzJ": 9722,
      "!wf": 9723,
      "!DO": 9724,
      "!IO": 9725,
      "!DY": 9726,
      "!iE": 9727,
      "!Ie": 9728,
      "!0B": 9729,
      "!nE": 9730,
      "!0f": 9731,
      "!ei": 9732,
      "!0v": 9733,
      "0Yq": 9734,
      "0Iu": 9735,
      "0Po": 9736,
      "0eo": 9737,
      "04X": 9738,
      "0Pi": 9739,
      "1K": 9740,
      "21": 9741,
      "2IE": 9742,
      "2zD": 9743,
      "2Ew": 9744,
      "2Xq": 9745,
      "34I": 9746,
      "34q": 9747,
      "34w": 9748,
      "4Rf": 9749,
      "4gE": 9750,
      "4o0": 9751,
      "4vq": 9752,
      "49E": 9753,
      "4ny": 9754,
      "4vx": 9755,
      "4nc": 9756,
      "4Li": 9757,
      "4eo": 9758,
      "4sw": 9759,
      "58T": 9760,
      "6D": 9761,
      "6p": 9762,
      "6qq": 9763,
      "6EE": 9764,
      "6zI": 9765,
      "6IY": 9766,
      "7EE": 9767,
      "7zx": 9768,
      "7zO": 9769,
      "7zP": 9770,
      "8Q": 9771,
      "90i": 9772,
      "9y9": 9773,
      "9OO": 9774,
      "9nE": 9775,
      "9vq": 9776,
      "9Po": 9777,
      "9z7": 9778,
      "9OL": 9779,
      "90X": 9780,
      "94L": 9781,
      "9zQ": 9782,
      "9nK": 9783,
      "9IEE": 9784,
      "9zzE": 9785,
      "Awq": 9786,
      "ADq": 9787,
      "AzK": 9788,
      "BwI": 9789,
      "BDO": 9790,
      "Bfq": 9791,
      "B4w": 9792,
      "BBE": 9793,
      "Bf9": 9794,
      "Bcq": 9795,
      "Bnb": 9796,
      "BfR": 9797,
      "CzD": 9798,
      "CbE": 9799,
      "CBq": 9800,
      "CfY": 9801,
      "DZw": 9802,
      "DRo": 9803,
      "DzA": 9804,
      "DzQ": 9805,
      "DWW": 9806,
      "DtE": 9807,
      "DGw": 9808,
      "FT": 9809,
      "FIz": 9810,
      "FzE": 9811,
      "FqE": 9812,
      "FPE": 9813,
      "FRO": 9814,
      "GIw": 9815,
      "GxE": 9816,
      "Gbq": 9817,
      "Iwzw": 9818,
      "KIy": 9819,
      "KzR": 9820,
      "KDO": 9821,
      "KzO": 9822,
      "KRb": 9823,
      "KIY": 9824,
      "K0x": 9825,
      "KbO": 9826,
      "KOq": 9827,
      "KbE": 9828,
      "KXq": 9829,
      "Kfy": 9830,
      "KIs": 9831,
      "K0K": 9832,
      "KDm": 9833,
      "LfE": 9834,
      "LID": 9835,
      "Lox": 9836,
      "Lz4": 9837,
      "L0O": 9838,
      "Loi": 9839,
      "LLY": 9840,
      "Lcy": 9841,
      "LIu": 9842,
      "LeL": 9843,
      "M@": 9844,
      "M9I": 9845,
      "M0E": 9846,
      "MxE": 9847,
      "MfE": 9848,
      "MDx": 9849,
      "Mnq": 9850,
      "MDf": 9851,
      "MOq": 9852,
      "MLw": 9853,
      "N2": 9854,
      "N5": 9855,
      "Nh": 9856,
      "Nzq": 9857,
      "NDD": 9858,
      "NLE": 9859,
      "N0o": 9860,
      "NI9": 9861,
      "NEw": 9862,
      "NIZ": 9863,
      "NbN": 9864,
      "OIR": 9865,
      "O0o": 9866,
      "OzL": 9867,
      "O0O": 9868,
      "OKw": 9869,
      "Oiw": 9870,
      "OIK": 9871,
      "OmE": 9872,
      "P8": 9873,
      "PDf": 9874,
      "PKq": 9875,
      "PRc": 9876,
      "POE": 9877,
      "PxY": 9878,
      "PDX": 9879,
      "Pzr": 9880,
      "PI3": 9881,
      "PLY": 9882,
      "P4y": 9883,
      "PPw": 9884,
      "P9E": 9885,
      "Pdq": 9886,
      "PBq": 9887,
      "PI!": 9888,
      "PYy": 9889,
      "PDe": 9890,
      "QwE": 9891,
      "Q4I": 9892,
      "Qzf": 9893,
      "Qzb": 9894,
      "QIy": 9895,
      "Q00": 9896,
      "Qeq": 9897,
      "Q40": 9898,
      "RRO": 9899,
      "R0c": 9900,
      "Rz!": 9901,
      "RXq": 9902,
      "Riw": 9903,
      "Rzr": 9904,
      "Rvq": 9905,
      "RnO": 9906,
      "Raw": 9907,
      "R3q": 9908,
      "R9y": 9909,
      "RIs": 9910,
      "Rqqq": 9911,
      "Tzq": 9912,
      "TDq": 9913,
      "TzD": 9914,
      "T4I": 9915,
      "UH": 9916,
      "Vm": 9917,
      "VII": 9918,
      "Vzo": 9919,
      "W2": 9920,
      "W9I": 9921,
      "WzO": 9922,
      "Wox": 9923,
      "WDL": 9924,
      "W0L": 9925,
      "W0c": 9926,
      "Wxx": 9927,
      "Wzv": 9928,
      "Wew": 9929,
      "W9c": 9930,
      "Wnb": 9931,
      "WXx": 9932,
      "Wnf": 9933,
      "Xzw": 9934,
      "Xzo": 9935,
      "XLE": 9936,
      "XDL": 9937,
      "XRc": 9938,
      "XDX": 9939,
      "XIe": 9940,
      "Xcq": 9941,
      "XvE": 9942,
      "XOb": 9943,
      "Ywq": 9944,
      "YDI": 9945,
      "Yzf": 9946,
      "YPE": 9947,
      "Y0x": 9948,
      "YDX": 9949,
      "ZDI": 9950,
      "ZqD": 9951,
      "ZDO": 9952,
      "ZRb": 9953,
      "Z0q": 9954,
      "ZDY": 9955,
      "ZDf": 9956,
      "ZIc": 9957,
      "ZYw": 9958,
      "ZRf": 9959,
      "ZRy": 9960,
      "aT": 9961,
      "aoo": 9962,
      "aBE": 9963,
      "bzy": 9964,
      "bxE": 9965,
      "bLE": 9966,
      "b0q": 9967,
      "bow": 9968,
      "bzW": 9969,
      "b0i": 9970,
      "bWE": 9971,
      "bnE": 9972,
      "buq": 9973,
      "cIf": 9974,
      "czI": 9975,
      "cxE": 9976,
      "czY": 9977,
      "czc": 9978,
      "ciw": 9979,
      "dRw": 9980,
      "dzb": 9981,
      "dzP": 9982,
      "d4Y": 9983,
      "dnq": 9984,
      "dfw": 9985,
      "dDB": 9986,
      "dRD": 9987,
      "dz!": 9988,
      "dId": 9989,
      "diw": 9990,
      "dzu": 9991,
      "dIg": 9992,
      "dew": 9993,
      "dzN": 9994,
      "dDu": 9995,
      "eLE": 9996,
      "e0o": 9997,
      "e4Y": 9998,
      "e0L": 9999,
      "efw": 10000,
      "edE": 10001,
      "ePR": 10002,
      "eOE": 10003,
      "ecE": 10004,
      "ezr": 10005,
      "ef9": 10006,
      "ez3": 10007,
      "evq": 10008,
      "eIW": 10009,
      "e40": 10010,
      "eIQ": 10011,
      "eXx": 10012,
      "eOb": 10013,
      "eD!": 10014,
      "f@": 10015,
      "fz0": 10016,
      "fRE": 10017,
      "fPE": 10018,
      "fz9": 10019,
      "fId": 10020,
      "fRx": 10021,
      "fRy": 10022,
      "foO": 10023,
      "fXw": 10024,
      "fLy": 10025,
      "fBq": 10026,
      "fOx": 10027,
      "f!i": 10028,
      "gIq": 10029,
      "gIf": 10030,
      "gyw": 10031,
      "gfq": 10032,
      "gox": 10033,
      "gDL": 10034,
      "gBE": 10035,
      "gRf": 10036,
      "gxw": 10037,
      "gRm": 10038,
      "h9": 10039,
      "hC": 10040,
      "iyy": 10041,
      "ixE": 10042,
      "ibq": 10043,
      "iiq": 10044,
      "inw": 10045,
      "iRf": 10046,
      "ibE": 10047,
      "iz3": 10048,
      "iLi": 10049,
      "l8": 10050,
      "lqq": 10051,
      "lIY": 10052,
      "lcL": 10053,
      "mzI": 10054,
      "m9I": 10055,
      "mDD": 10056,
      "mzb": 10057,
      "mRb": 10058,
      "mPE": 10059,
      "moq": 10060,
      "mYY": 10061,
      "mRo": 10062,
      "n8": 10063,
      "n@": 10064,
      "nk": 10065,
      "ndE": 10066,
      "n0b": 10067,
      "nWq": 10068,
      "n4D": 10069,
      "neE": 10070,
      "n0B": 10071,
      "nLL": 10072,
      "nnE": 10073,
      "n0D": 10074,
      "nLy": 10075,
      "nRo": 10076,
      "nDg": 10077,
      "nI!": 10078,
      "nRN": 10079,
      "nXx": 10080,
      "nnB": 10081,
      "naq": 10082,
      "n0Y": 10083,
      "oKq": 10084,
      "oPR": 10085,
      "oee": 10086,
      "ogE": 10087,
      "oId": 10088,
      "oBw": 10089,
      "o4i": 10090,
      "ony": 10091,
      "ofb": 10092,
      "oZw": 10093,
      "o9c": 10094,
      "omE": 10095,
      "oI!": 10096,
      "ofd": 10097,
      "on3": 10098,
      "oIww": 10099,
      "pY": 10100,
      "rzO": 10101,
      "rox": 10102,
      "row": 10103,
      "rEq": 10104,
      "rIn": 10105,
      "r0r": 10106,
      "r0K": 10107,
      "rog": 10108,
      "sS": 10109,
      "sz0": 10110,
      "sIy": 10111,
      "szP": 10112,
      "sDf": 10113,
      "sIP": 10114,
      "sfx": 10115,
      "soe": 10116,
      "t9I": 10117,
      "t9q": 10118,
      "tDc": 10119,
      "t0x": 10120,
      "t9w": 10121,
      "tDi": 10122,
      "uj": 10123,
      "uRb": 10124,
      "ubO": 10125,
      "uIL": 10126,
      "uz4": 10127,
      "uff": 10128,
      "uI4": 10129,
      "uRD": 10130,
      "ugE": 10131,
      "uzr": 10132,
      "vzf": 10133,
      "vcc": 10134,
      "vDY": 10135,
      "vzB": 10136,
      "vLw": 10137,
      "vPR": 10138,
      "voD": 10139,
      "vo!": 10140,
      "xIY": 10141,
      "x9q": 10142,
      "xDc": 10143,
      "xDf": 10144,
      "xnw": 10145,
      "xKE": 10146,
      "xIX": 10147,
      "xzg": 10148,
      "xzr": 10149,
      "xI3": 10150,
      "xRi": 10151,
      "xKx": 10152,
      "xIG": 10153,
      "x!i": 10154,
      "yJ": 10155,
      "yIq": 10156,
      "zzzi": 10157,
      "zzID": 10158,
      "zzzX": 10159,
      "wwG": 10160,
      "wwIq": 10161,
      "wwzw": 10162,
      "qq3": 10163,
      "qqF": 10164,
      "qql": 10165,
      "IEyw": 10166,
      "Iz6": 10167,
      "IzEy": 10168,
      "wzC": 10169,
      "wzn": 10170,
      "wzIw": 10171,
      "wzDE": 10172,
      "zqwE": 10173,
      "zqwq": 10174,
      "Iq6": 10175,
      "IqIq": 10176,
      "IqwE": 10177,
      "IqDE": 10178,
      "wE3": 10179,
      "wEwz": 10180,
      "wEzq": 10181,
      "wq7": 10182,
      "wqG": 10183,
      "wqwf": 10184,
      "Dqzz": 10185,
      "Dqww": 10186,
      "Dqwz": 10187,
      "II6": 10188,
      "IIN": 10189,
      "IIS": 10190,
      "IIa": 10191,
      "IIo": 10192,
      "IIDq": 10193,
      "IIDI": 10194,
      "EE5": 10195,
      "EEN": 10196,
      "EEV": 10197,
      "Iwv": 10198,
      "zD6": 10199,
      "zDF": 10200,
      "zDM": 10201,
      "zDt": 10202,
      "zDzq": 10203,
      "zDwq": 10204,
      "zDzw": 10205,
      "IfA": 10206,
      "IfO": 10207,
      "Dw!": 10208,
      "Dwj": 10209,
      "yyN": 10210,
      "yyx": 10211,
      "zI3": 10212,
      "zIm": 10213,
      "qwa": 10214,
      "qwr": 10215,
      "yE3": 10216,
      "zxW": 10217,
      "DE7": 10218,
      "DIIE": 10219,
      "zo3": 10220,
      "zoU": 10221,
      "zozq": 10222,
      "qE!": 10223,
      "4IIE": 10224,
      "zfA": 10225,
      "zfi": 10226,
      "9I7": 10227,
      "9IO": 10228,
      "wIs": 10229,
      "wIDw": 10230,
      "Dyb": 10231,
      "0EB": 10232,
      "0Eo": 10233,
      "DD!": 10234,
      "DDG": 10235,
      "Rwm": 10236,
      "xEA": 10237,
      "xEc": 10238,
      "Iy6": 10239,
      "IyB": 10240,
      "Iyu": 10241,
      "YEG": 10242,
      "YEb": 10243,
      "oEv": 10244,
      "wfB": 10245,
      "yqwq": 10246,
      "yqEE": 10247,
      "Dbs": 10248,
      "00X": 10249,
      "Ixx": 10250,
      "zKb": 10251,
      "ywZ": 10252,
      "fEc": 10253,
      "IDDw": 10254,
      "IOW": 10255,
      "fqc": 10256,
      "4qO": 10257,
      "4qr": 10258,
      "0ot": 10259,
      "0wB": 10260,
      "0wr": 10261,
      "0wx": 10262,
      "zY5": 10263,
      "4YG": 10264,
      "DcW": 10265,
      "0xzx": 10266,
      "DxK": 10267,
      "nqC": 10268,
      "dy!": 10269,
      "dye": 10270,
      "bqG": 10271,
      "0Ly": 10272,
      "9wB": 10273,
      "Dfe": 10274,
      "YYO": 10275,
      "zBy": 10276,
      "owQ": 10277,
      "owKm": 10278,
      "IPi": 10279,
      "IPj": 10280,
      "bON": 10281,
      "bOf": 10282,
      "iqX": 10283,
      "iqc": 10284,
      "iqt": 10285,
      "YqL": 10286,
      "YqX": 10287,
      "YqZ": 10288,
      "fwb": 10289,
      "Ewc": 10290,
      "0cr": 10291,
      "0i0i": 10292,
      "zd3": 10293,
      "Dii": 10294,
      "KqG": 10295,
      "Kqwq": 10296,
      "OqB": 10297,
      "Oqs": 10298,
      "nw6": 10299,
      "nwi": 10300,
      "z9e": 10301,
      "z9r": 10302,
      "z4Iz": 10303,
      "DBy": 10304,
      "xqc": 10305,
      "xqm": 10306,
      "Ywb": 10307,
      "IbP": 10308,
      "Iby": 10309,
      "I4K": 10310,
      "I4b": 10311,
      "Pqy": 10312,
      "PRs": 10313,
      "oLe": 10314,
      "OE6": 10315,
      "OEO": 10316,
      "oiK": 10317,
      "oiL": 10318,
      "RDF": 10319,
      "RDIE": 10320,
      "KE3": 10321,
      "y9b": 10322,
      "eqP": 10323,
      "zvL": 10324,
      "RxM": 10325,
      "Ryx": 10326,
      "4DF": 10327,
      "fyX": 10328,
      "f9Iq": 10329,
      "IKi": 10330,
      "cyO": 10331,
      "cqY": 10332,
      "vwu": 10333,
      "XwO": 10334,
      "XwX": 10335,
      "LLh": 10336,
      "LLi": 10337,
      "oD3": 10338,
      "OOL": 10339,
      "nEZ": 10340,
      "Pwx": 10341,
      "vqy": 10342,
      "Bwy": 10343,
      "oXy": 10344,
      "IuF": 10345,
      "nye": 10346,
      "KK7": 10347,
      "KKi": 10348,
      "fbY": 10349,
      "09c": 10350,
      "09y": 10351,
      "LDN": 10352,
      "LDs": 10353,
      "LDt": 10354,
      "bDM": 10355,
      "Zqs": 10356,
      "ewO": 10357,
      "Pom": 10358,
      "vyb": 10359,
      "XXy": 10360,
      "z7r": 10361,
      "zCx": 10362,
      "I!W": 10363,
      "OLor": 10364,
      "IMw": 10365,
      "RNq": 10366,
      "6yv": 10367,
      "oBb": 10368,
      "oBi": 10369,
      "byOy": 10370,
      "byWy": 10371,
      "nRm": 10372,
      "Mqy": 10373,
      "oKnKx": 10374,
      "DPv": 10375,
      "DNy": 10376,
      "Itw": 10377,
      "0Nw": 10378,
      "of2": 10379,
      "4Og": 10380,
      "ibAzvgOt": 10381,
      "9Nq": 10382,
      "9NZu": 10383,
      "zqqE": 10384,
      "zwEq": 10385,
      "LOe0w": 10386,
      "nN49g": 10387,
      "IIEq": 10388,
      "zIEq": 10389,
      "o2o2": 10390,
      "o2AA": 10391,
      "zVq": 10392,
      "9Izw": 10393,
      "zJE": 10394,
      "ssss": 10395,
      "z1q": 10396,
      "IyEw": 10397,
      "zzzzzzzzzzzz": 10398,
      "IREw": 10399,
      "WV362": 10400,
      "cdnN49g": 10401,
      "0oqoKnKx": 10402,
      "ByByByBy": 10403,
      "rFOjJV": 10404,
      "ocNo!": 10405,
      "oc!Koc!K": 10406,
      "oc!7o2": 10407,
      "5bAWV362": 10408,
      "WLo0oqoKnKx": 10409,
      "b!9N69O4BASHH8Fq6pdqVc5e": 10410,
      "N991yAg1Ga0CzT4O5bAWV362": 10411,
      "2e9NZuE5jkDYzJ92oN8": 10412,
      "58T0K": 10413,
      "cdnN49g58T0K": 10414,
      "!wE": 10415,
      "!zy": 10416,
      "!Rw": 10417,
      "!yq": 10418,
      "!Rb": 10419,
      "!0y": 10420,
      "!IL": 10421,
      "!nw": 10422,
      "!I4": 10423,
      "!eq": 10424,
      "!Id": 10425,
      "!iw": 10426,
      "!zr": 10427,
      "!0D": 10428,
      "!zM": 10429,
      "!nD": 10430,
      "!DN": 10431,
      "0p": 10432,
      "0eE": 10433,
      "0ey": 10434,
      "0zm": 10435,
      "0vw": 10436,
      "0dq": 10437,
      "0ew": 10438,
      "0vy": 10439,
      "0Pf": 10440,
      "0sq": 10441,
      "0zN": 10442,
      "0nb": 10443,
      "0Kx": 10444,
      "0zt": 10445,
      "0PL": 10446,
      "0aq": 10447,
      "04e": 10448,
      "0Gq": 10449,
      "0eK": 10450,
      "0uY": 10451,
      "0IN": 10452,
      "1t": 10453,
      "2qq": 10454,
      "2yy": 10455,
      "2yq": 10456,
      "2Eq": 10457,
      "2fw": 10458,
      "2ob": 10459,
      "3p": 10460,
      "3II": 10461,
      "3yE": 10462,
      "3zo": 10463,
      "3Rw": 10464,
      "3fE": 10465,
      "39q": 10466,
      "3z4": 10467,
      "3cE": 10468,
      "4@": 10469,
      "4fE": 10470,
      "4dy": 10471,
      "4CE": 10472,
      "4vw": 10473,
      "4Xw": 10474,
      "4Ly": 10475,
      "4fx": 10476,
      "4Ri": 10477,
      "4fD": 10478,
      "4Ww": 10479,
      "4Xx": 10480,
      "4WL": 10481,
      "4sE": 10482,
      "5Iq": 10483,
      "5z0": 10484,
      "5ID": 10485,
      "5Ii": 10486,
      "5In": 10487,
      "6Iq": 10488,
      "6Rq": 10489,
      "6zf": 10490,
      "6XE": 10491,
      "7qq": 10492,
      "7zq": 10493,
      "7Dq": 10494,
      "7zw": 10495,
      "7zE": 10496,
      "7If": 10497,
      "7RE": 10498,
      "700": 10499,
      "7Ix": 10500,
      "7iE": 10501,
      "7zr": 10502,
      "8J": 10503,
      "9Rb": 10504,
      "9oy": 10505,
      "90L": 10506,
      "9gE": 10507,
      "9zg": 10508,
      "9iw": 10509,
      "9LY": 10510,
      "9fy": 10511,
      "9LL": 10512,
      "9Ly": 10513,
      "9fx": 10514,
      "9bD": 10515,
      "9Pf": 10516,
      "9eo": 10517,
      "9Kx": 10518,
      "94X": 10519,
      "9Kb": 10520,
      "9za": 10521,
      "@C3": 10522,
      "Azw": 10523,
      "AzP": 10524,
      "A4q": 10525,
      "Az!": 10526,
      "BzE": 10527,
      "B0x": 10528,
      "BIP": 10529,
      "BzW": 10530,
      "B0i": 10531,
      "Bzs": 10532,
      "BRB": 10533,
      "Bgq": 10534,
      "BRY": 10535,
      "BRo": 10536,
      "C7": 10537,
      "CRq": 10538,
      "CRw": 10539,
      "CIY": 10540,
      "Coy": 10541,
      "Coi": 10542,
      "CgE": 10543,
      "Co0": 10544,
      "Cgq": 10545,
[...]
