{
  "version": "1.0",
  "truncation": null,
  "padding": null,
  "added_tokens": [
    {
      "id": 0,
      "content": "[UNK]",
      "single_word": false,
      "lstrip": false,
      "rstrip": false,
      "normalized": false,
      "special": true
    },
    {
      "id": 1,
      "content": "[CLS]",
      "single_word": false,
      "lstrip": false,
      "rstrip": false,
      "normalized": false,
      "special": true
    },
    {
      "id": 2,
      "content": "[SEP]",
      "single_word": false,
      "lstrip": false,
      "rstrip": false,
      "normalized": false,
      "special": true
    },
    {
      "id": 3,
      "content": "[PAD]",
      "single_word": false,
      "lstrip": false,
      "rstrip": false,
      "normalized": false,
      "special": true
    },
    {
      "id": 4,
      "content": "[MASK]",
      "single_word": false,
      "lstrip": false,
      "rstrip": false,
      "normalized": false,
      "special": true
    },
    {
      "id": 5,
      "content": "[BOS]",
      "single_word": false,
      "lstrip": false,
      "rstrip": false,
      "normalized": false,
      "special": true
    },
    {
      "id": 6,
      "content": "[EOS]",
      "single_word": false,
      "lstrip": false,
      "rstrip": false,
      "normalized": false,
      "special": true
    }
  ],
  "normalizer": null,
  "pre_tokenizer": {
    "type": "Digits",
    "individual_digits": false
  },
  "post_processor": {
    "type": "TemplateProcessing",
    "single": [
      {
        "SpecialToken": {
          "id": "[BOS]",
          "type_id": 0
        }
      },
      {
        "Sequence": {
          "id": "A",
          "type_id": 0
        }
      },
      {
        "SpecialToken": {
          "id": "[EOS]",
          "type_id": 0
        }
      }
    ],
    "pair": [
      {
        "Sequence": {
          "id": "A",
          "type_id": 0
        }
      },
      {
        "Sequence": {
          "id": "B",
          "type_id": 1
        }
      }
    ],
    "special_tokens": {
      "[BOS]": {
        "id": "[BOS]",
        "ids": [
          5
        ],
        "tokens": [
          "[BOS]"
        ]
      },
      "[EOS]": {
        "id": "[EOS]",
        "ids": [
          6
        ],
        "tokens": [
          "[EOS]"
        ]
      }
    }
  },
  "decoder": {
    "type": "ByteLevel",
    "add_prefix_space": true,
    "trim_offsets": true,
    "use_regex": true
  },
  "model": {
    "type": "BPE",
    "dropout": null,
    "unk_token": "[UNK]",
    "continuing_subword_prefix": null,
    "end_of_word_suffix": null,
    "fuse_unk": false,
    "byte_fallback": false,
    "vocab": {
      "[UNK]": 0,
      "[CLS]": 1,
      "[SEP]": 2,
      "[PAD]": 3,
      "[MASK]": 4,
      "[BOS]": 5,
      "[EOS]": 6,
      "!": 7,
      "0": 8,
      "1": 9,
      "2": 10,
      "3": 11,
      "4": 12,
      "5": 13,
      "6": 14,
      "7": 15,
      "8": 16,
      "9": 17,
      "@": 18,
      "A": 19,
      "B": 20,
      "C": 21,
      "D": 22,
      "E": 23,
      "F": 24,
      "G": 25,
      "H": 26,
      "I": 27,
      "J": 28,
      "K": 29,
      "L": 30,
      "M": 31,
      "N": 32,
      "O": 33,
      "P": 34,
      "Q": 35,
      "R": 36,
      "S": 37,
      "T": 38,
      "U": 39,
      "V": 40,
      "W": 41,
      "X": 42,
      "Y": 43,
      "Z": 44,
      "a": 45,
      "b": 46,
      "c": 47,
      "d": 48,
      "e": 49,
      "f": 50,
      "g": 51,
      "h": 52,
      "i": 53,
      "j": 54,
      "k": 55,
      "l": 56,
      "m": 57,
      "n": 58,
      "o": 59,
      "p": 60,
      "q": 61,
      "r": 62,
      "s": 63,
      "t": 64,
      "u": 65,
      "v": 66,
      "w": 67,
      "x": 68,
      "y": 69,
      "z": 70,
      "NN": 71,
      "22": 72,
      "Js": 73,
      "WW": 74,
      "24": 75,
      "ll": 76,
      "Wt": 77,
      "NZ": 78,
      "Nn": 79,
      "sW": 80,
      "Ws": 81,
      "re": 82,
      "wI": 83,
      "Ne": 84,
      "lJ": 85,
      "ah": 86,
      "Ns": 87,
      "Nd": 88,
      "21": 89,
      "tr": 90,
      "WN": 91,
      "qD": 92,
      "84": 93,
      "nZ": 94,
      "tt": 95,
      "ls": 96,
      "aa": 97,
      "ww": 98,
      "WZ": 99,
      "Iw": 100,
      "11": 101,
      "nI": 102,
      "tZ": 103,
      "bn": 104,
      "We": 105,
      "Wa": 106,
      "26": 107,
      "82": 108,
      "Nw": 109,
      "ss": 110,
      "44": 111,
      "al": 112,
      "bO": 113,
      "tN": 114,
      "nw": 115,
      "bD": 116,
      "nO": 117,
      "tW": 118,
      "aW": 119,
      "42": 120,
      "nr": 121,
      "Iq": 122,
      "cw": 123,
      "II": 124,
      "lh": 125,
      "Jq": 126,
      "Nr": 127,
      "Wh": 128,
      "bc": 129,
      "su": 130,
      "nN": 131,
      "lq": 132,
      "62": 133,
      "lW": 134,
      "Cq": 135,
      "bB": 136,
      "ds": 137,
      "12": 138,
      "Nq": 139,
      "mn": 140,
      "DD": 141,
      "rz": 142,
      "Nb": 143,
      "OO": 144,
      "eh": 145,
      "Is": 146,
      "wZ": 147,
      "Iz": 148,
      "na": 149,
      "lV": 150,
      "sa": 151,
      "78": 152,
      "nB": 153,
      "Wd": 154,
      "WO": 155,
      "Wb": 156,
      "dh": 157,
      "DO": 158,
      "cc": 159,
      "ts": 160,
      "nq": 161,
      "Wr": 162,
      "nc": 163,
      "eN": 164,
      "mD": 165,
      "at": 166,
      "Eq": 167,
      "16": 168,
      "27": 169,
      "nt": 170,
      "JN": 171,
      "Zl": 172,
      "bw": 173,
      "18": 174,
      "AN": 175,
      "rN": 176,
      "Ie": 177,
      "Bw": 178,
      "eT": 179,
      "aN": 180,
      "lN": 181,
      "qO": 182,
      "Vs": 183,
      "Te": 184,
      "Db": 185,
      "41": 186,
      "Ww": 187,
      "ar": 188,
      "JZ": 189,
      "Nz": 190,
      "lr": 191,
      "sr": 192,
      "qq": 193,
      "lw": 194,
      "IB": 195,
      "sZ": 196,
      "an": 197,
      "64": 198,
      "gI": 199,
      "st": 200,
      "Ow": 201,
      "BB": 202,
      "lZ": 203,
      "aJ": 204,
      "bR": 205,
      "ID": 206,
      "cN": 207,
      "JW": 208,
      "dr": 209,
      "te": 210,
      "mB": 211,
      "la": 212,
      "ZZ": 213,
      "WD": 214,
      "68": 215,
      "zB": 216,
      "DN": 217,
      "QN": 218,
      "bN": 219,
      "IZ": 220,
      "ba": 221,
      "Dh": 222,
      "qW": 223,
      "ZQ": 224,
      "cB": 225,
      "624": 226,
      "qg": 227,
      "Zd": 228,
      "wl": 229,
      "sq": 230,
      "!s": 231,
      "Nl": 232,
      "Dc": 233,
      "WV": 234,
      "bb": 235,
      "tw": 236,
      "qa": 237,
      "NQ": 238,
      "fc": 239,
      "sS": 240,
      "Cw": 241,
      "fB": 242,
      "Ig": 243,
      "ng": 244,
      "ns": 245,
      "Jr": 246,
      "61": 247,
      "bg": 248,
      "Dw": 249,
      "ON": 250,
      "Wq": 251,
      "DB": 252,
      "IN": 253,
      "Cs": 254,
      "aV": 255,
      "Je": 256,
      "Jt": 257,
      "nU": 258,
      "Aa": 259,
      "lt": 260,
      "cd": 261,
      "zq": 262,
      "14": 263,
      "ld": 264,
      "zh": 265,
      "qt": 266,
      "zN": 267,
      "wQ": 268,
      "Dg": 269,
      "Ic": 270,
      "Jw": 271,
      "IO": 272,
      "Un": 273,
      "Wc": 274,
      "et": 275,
      "qs": 276,
      "ZN": 277,
      "Da": 278,
      "oB": 279,
      "!N": 280,
      "48": 281,
      "Dq": 282,
      "At": 283,
      "Gd": 284,
      "zc": 285,
      "wN": 286,
      "EE": 287,
      "es": 288,
      "fN": 289,
      "Wu": 290,
      "mO": 291,
      "81": 292,
      "Fn": 293,
      "72": 294,
      "WB": 295,
      "rr": 296,
      "hs": 297,
      "bm": 298,
      "lA": 299,
      "Oc": 300,
      "nl": 301,
      "QZ": 302,
      "qB": 303,
      "OB": 304,
      "SW": 305,
      "dV": 306,
      "eW": 307,
      "OD": 308,
      "gg": 309,
      "oc": 310,
      "ta": 311,
      "eV": 312,
      "mR": 313,
      "YI": 314,
      "bZ": 315,
      "yI": 316,
      "Dv": 317,
      "Og": 318,
      "Bb": 319,
      "ha": 320,
      "BN": 321,
      "GI": 322,
      "Ir": 323,
      "wd": 324,
      "qN": 325,
      "nn": 326,
      "71": 327,
      "wJ": 328,
      "mz": 329,
      "le": 330,
      "qr": 331,
      "Ew": 332,
      "ZJ": 333,
      "DV": 334,
      "wf": 335,
      "Ii": 336,
      "Oq": 337,
      "ni": 338,
      "Nc": 339,
      "Or": 340,
      "reh": 341,
      "Wz": 342,
      "Nf": 343,
      "!Q": 344,
      "If": 345,
      "Ib": 346,
      "Nt": 347,
      "Ez": 348,
      "Dt": 349,
      "qi": 350,
      "aZ": 351,
      "NF": 352,
      "Nu": 353,
      "Wg": 354,
      "94": 355,
      "ht": 356,
      "cR": 357,
      "OZ": 358,
      "Na": 359,
      "gD": 360,
      "wB": 361,
      "mc": 362,
      "66": 363,
      "rt": 364,
      "IP": 365,
      "aD": 366,
      "zv": 367,
      "Oo": 368,
      "zL": 369,
      "rn": 370,
      "Bd": 371,
      "19": 372,
      "ra": 373,
      "cZ": 374,
      "qE": 375,
      "VZ": 376,
      "sn": 377,
      "bC": 378,
      "76": 379,
      "BR": 380,
      "As": 381,
      "by": 382,
      "tn": 383,
      "OW": 384,
      "Tn": 385,
      "92": 386,
      "Ul": 387,
      "qw": 388,
      "Bc": 389,
      "rG": 390,
      "ly": 391,
      "aw": 392,
      "87": 393,
      "AA": 394,
      "DZ": 395,
      "JJ": 396,
      "UN": 397,
      "Ue": 398,
      "qf": 399,
      "BZ": 400,
      "nah": 401,
      "Vt": 402,
      "bs": 403,
      "cs": 404,
      "ae": 405,
      "bt": 406,
      "ne": 407,
      "ft": 408,
      "VS": 409,
      "eL": 410,
      "Im": 411,
      "bd": 412,
      "wz": 413,
      "!A": 414,
      "Nere": 415,
      "qZ": 416,
      "sd": 417,
      "we": 418,
      "cf": 419,
      "my": 420,
      "CZ": 421,
      "GR": 422,
      "rd": 423,
      "DL": 424,
      "WU": 425,
      "28": 426,
      "WJ": 427,
      "ev": 428,
      "99": 429,
      "NR": 430,
      "DE": 431,
      "mP": 432,
      "bT": 433,
      "QB": 434,
      "rs": 435,
      "Ds": 436,
      "OE": 437,
      "qC": 438,
      "nW": 439,
      "46": 440,
      "bA": 441,
      "aU": 442,
      "Os": 443,
      "wE": 444,
      "DW": 445,
      "Qs": 446,
      "Bz": 447,
      "f!": 448,
      "he": 449,
      "nb": 450,
      "67": 451,
      "Ot": 452,
      "mi": 453,
      "ws": 454,
      "nz": 455,
      "bx": 456,
      "gi": 457,
      "cq": 458,
      "rZ": 459,
      "IQ": 460,
      "O!": 461,
      "nd": 462,
      "wC": 463,
      "29": 464,
      "bq": 465,
      "AB": 466,
      "Ua": 467,
      "Wl": 468,
      "wc": 469,
      "TN": 470,
      "47": 471,
      "IE": 472,
      "ZWt": 473,
      "6241": 474,
      "tA": 475,
      "Td": 476,
      "nJ": 477,
      "cy": 478,
      "wa": 479,
      "Ox": 480,
      "ny": 481,
      "NJ": 482,
      "Zp": 483,
      "iB": 484,
      "NB": 485,
      "wg": 486,
      "lU": 487,
      "WWZ": 488,
      "RE": 489,
      "lC": 490,
      "hq": 491,
      "N!": 492,
      "mg": 493,
      "sU": 494,
      "vg": 495,
      "lI": 496,
      "ea": 497,
      "cQ": 498,
      "vO": 499,
      "ZC": 500,
      "zg": 501,
      "Es": 502,
      "Nm": 503,
      "qu": 504,
      "Ut": 505,
      "sQ": 506,
      "Vq": 507,
      "Fa": 508,
      "IW": 509,
      "Dr": 510,
      "Fl": 511,
      "OC": 512,
      "20": 513,
      "bX": 514,
      "bW": 515,
      "t!": 516,
      "NA": 517,
      "fA": 518,
      "bo": 519,
      "ic": 520,
      "fE": 521,
      "as": 522,
      "!q": 523,
      "!e": 524,
      "Zu": 525,
      "bE": 526,
      "wq": 527,
      "WNn": 528,
      "Qc": 529,
      "bl": 530,
      "nh": 531,
      "Q!": 532,
      "mI": 533,
      "xB": 534,
      "Oh": 535,
      "74": 536,
      "tU": 537,
      "lsTe": 538,
      "CN": 539,
      "rU": 540,
      "ED": 541,
      "sJ": 542,
      "qc": 543,
      "Ze": 544,
      "Ndh": 545,
      "Oy": 546,
      "mX": 547,
      "Cv": 548,
      "sl": 549,
      "tJ": 550,
      "SWreh": 551,
      "Ac": 552,
      "Ve": 553,
      "FX": 554,
      "bI": 555,
      "QA": 556,
      "fo": 557,
      "wy": 558,
      "TJ": 559,
      "!!": 560,
      "co": 561,
      "Dd": 562,
      "gr": 563,
      "vB": 564,
      "qP": 565,
      "Do": 566,
      "wR": 567,
      "Ta": 568,
      "nG": 569,
      "Ei": 570,
      "ZW": 571,
      "za": 572,
      "ZI": 573,
      "Ql": 574,
      "CB": 575,
      "OI": 576,
      "fx": 577,
      "Ol": 578,
      "Oi": 579,
      "Di": 580,
      "rB": 581,
      "NW": 582,
      "th": 583,
      "gw": 584,
      "zV": 585,
      "tu": 586,
      "Zy": 587,
      "eTA": 588,
      "mT": 589,
      "eg": 590,
      "OJ": 591,
      "tS": 592,
      "gW": 593,
      "zt": 594,
      "qQ": 595,
      "dA": 596,
      "NU": 597,
      "222": 598,
      "NS": 599,
      "FT": 600,
      "Ih": 601,
      "aC": 602,
      "dG": 603,
      "mK": 604,
      "sD": 605,
      "aA": 606,
      "dl": 607,
      "RB": 608,
      "Wn": 609,
      "mZ": 610,
      "llZ": 611,
      "tq": 612,
      "gE": 613,
      "IF": 614,
      "d!": 615,
      "NNZ": 616,
      "aB": 617,
      "mw": 618,
      "Iy": 619,
      "ie": 620,
      "lJZ": 621,
      "DP": 622,
      "69": 623,
      "OV": 624,
      "lc": 625,
      "DC": 626,
      "DR": 627,
      "nK": 628,
      "wF": 629,
      "rc": 630,
      "zO": 631,
      "ox": 632,
      "02": 633,
      "UB": 634,
      "sw": 635,
      "ac": 636,
      "oL": 637,
      "CC": 638,
      "Ix": 639,
      "KB": 640,
      "Np": 641,
      "ec": 642,
      "241": 643,
      "Rc": 644,
      "lB": 645,
      "ANN": 646,
      "bP": 647,
      "IV": 648,
      "Wv": 649,
      "86": 650,
      "Uh": 651,
      "YR": 652,
      "gO": 653,
      "dZ": 654,
      "UJ": 655,
      "OG": 656,
      "sN": 657,
      "ln": 658,
      "rA": 659,
      "gB": 660,
      "Gh": 661,
      "GZ": 662,
      "nD": 663,
      "vM": 664,
      "ehNere": 665,
      "aJs": 666,
      "mN": 667,
      "FJ": 668,
      "rtN": 669,
      "EI": 670,
      "dJ": 671,
      "17": 672,
      "OA": 673,
      "CJ": 674,
      "wP": 675,
      "Tt": 676,
      "FR": 677,
      "oo": 678,
      "wY": 679,
      "Dl": 680,
      "eB": 681,
      "Dz": 682,
      "aI": 683,
      "md": 684,
      "eX": 685,
      "91": 686,
      "QS": 687,
      "!t": 688,
      "eS": 689,
      "eu": 690,
      "lld": 691,
      "zW": 692,
      "eb": 693,
      "CL": 694,
      "Uc": 695,
      "mE": 696,
      "CE": 697,
      "JsTe": 698,
      "gP": 699,
      "qd": 700,
      "Oa": 701,
      "Wes": 702,
      "Co": 703,
      "iz": 704,
      "MB": 705,
      "Dx": 706,
      "yB": 707,
      "WtZ": 708,
      "01": 709,
      "FB": 710,
      "wu": 711,
      "WL": 712,
      "fJ": 713,
      "fZ": 714,
      "qJ": 715,
      "hN": 716,
      "wn": 717,
      "Dm": 718,
      "zT": 719,
      "vS": 720,
      "ql": 721,
      "wb": 722,
      "211": 723,
      "Dy": 724,
      "qR": 725,
      "pl": 726,
      "aL": 727,
      "96": 728,
      "llt": 729,
      "CW": 730,
      "nm": 731,
      "Ov": 732,
      "qU": 733,
      "ru": 734,
      "!B": 735,
      "Cc": 736,
      "hB": 737,
      "ii": 738,
      "qx": 739,
      "Yz": 740,
      "nV": 741,
      "QJ": 742,
      "ad": 743,
      "00": 744,
      "Fy": 745,
      "zX": 746,
      "qy": 747,
      "DJ": 748,
      "drNn": 749,
      "cu": 750,
      "b!": 751,
      "bJ": 752,
      "OP": 753,
      "au": 754,
      "tl": 755,
      "cE": 756,
      "av": 757,
      "VN": 758,
      "WeJ": 759,
      "wW": 760,
      "Il": 761,
      "gd": 762,
      "rS": 763,
      "bbc": 764,
      "IJ": 765,
      "In": 766,
      "tB": 767,
      "fl": 768,
      "nOh": 769,
      "os": 770,
      "NT": 771,
      "Fh": 772,
      "ntu": 773,
      "zs": 774,
      "bi": 775,
      "fs": 776,
      "UU": 777,
      "og": 778,
      "aq": 779,
      "qS": 780,
      "oO": 781,
      "!Z": 782,
      "88": 783,
      "vc": 784,
      "648": 785,
      "aO": 786,
      "WN!": 787,
      "CV": 788,
      "Cx": 789,
      "wm": 790,
      "40": 791,
      "hZ": 792,
      "dt": 793,
      "IR": 794,
      "wr": 795,
      "Wm": 796,
      "cA": 797,
      "FN": 798,
      "IA": 799,
      "Ch": 800,
      "bwf": 801,
      "sSNdh": 802,
      "PP": 803,
      "!NN": 804,
      "It": 805,
      "gh": 806,
      "gc": 807,
      "oq": 808,
      "pd": 809,
      "eNN": 810,
      "FW": 811,
      "Se": 812,
      "nR": 813,
      "Ft": 814,
      "I!": 815,
      "LG": 816,
      "Fc": 817,
      "gZ": 818,
      "448": 819,
      "yb": 820,
      "r!": 821,
      "nx": 822,
      "eJ": 823,
      "gq": 824,
      "D!": 825,
      "rO": 826,
      "rl": 827,
      "08": 828,
      "Cm": 829,
      "nA": 830,
      "dW": 831,
      "Eb": 832,
      "ZG": 833,
      "Bl": 834,
      "Lbn": 835,
      "FO": 836,
      "wt": 837,
      "wG": 838,
      "UV": 839,
      "nNZ": 840,
      "Unah": 841,
      "Be": 842,
      "qh": 843,
      "rp": 844,
      "sll": 845,
      "TW": 846,
      "Cb": 847,
      "IX": 848,
      "nP": 849,
      "Qh": 850,
      "By": 851,
      "AT": 852,
      "ap": 853,
      "SWrehJs": 854,
      "fw": 855,
      "iY": 856,
      "lv": 857,
      "Rh": 858,
      "ZR": 859,
      "lb": 860,
      "Lg": 861,
      "rR": 862,
      "fS": 863,
      "nNw": 864,
      "90": 865,
      "zb": 866,
      "Ja": 867,
      "97": 868,
      "eT!": 869,
      "lVS": 870,
      "GQ": 871,
      "gn": 872,
      "uZ": 873,
      "tD": 874,
      "C!": 875,
      "zE": 876,
      "Ia": 877,
      "Qw": 878,
      "Ae": 879,
      "Ci": 880,
      "LM": 881,
      "oy": 882,
      "Zf": 883,
      "uw": 884,
      "Jd": 885,
      "gN": 886,
      "lD": 887,
      "n!": 888,
      "Rs": 889,
      "Qt": 890,
      "49": 891,
      "Zc": 892,
      "mq": 893,
      "Ay": 894,
      "ZF": 895,
      "182": 896,
      "Cr": 897,
      "Io": 898,
      "W!": 899,
      "zD": 900,
      "zw": 901,
      "c!": 902,
      "06": 903,
      "ms": 904,
      "nOL": 905,
      "q!": 906,
      "mr": 907,
      "mW": 908,
      "ov": 909,
      "td": 910,
      "Bn": 911,
      "ag": 912,
      "zR": 913,
      "hl": 914,
      "Kq": 915,
      "tc": 916,
      "fa": 917,
      "JU": 918,
      "vE": 919,
      "Jb": 920,
      "Aq": 921,
      "oE": 922,
      "VG": 923,
      "LB": 924,
      "IG": 925,
      "yN": 926,
      "eO": 927,
      "ul": 928,
      "iG": 929,
      "mx": 930,
      "Cl": 931,
      "dN": 932,
      "J!": 933,
      "wi": 934,
      "yc": 935,
      "WF": 936,
      "Va": 937,
      "WA": 938,
      "EB": 939,
      "WtrN": 940,
      "qo": 941,
      "rb": 942,
      "13": 943,
      "sWd": 944,
      "Zw": 945,
      "Wi": 946,
      "xx": 947,
      "gU": 948,
      "bwQ": 949,
      "NZWt": 950,
      "Ec": 951,
      "IH": 952,
      "nZG": 953,
      "rq": 954,
      "bDv": 955,
      "Tl": 956,
      "ZB": 957,
      "WsN": 958,
      "!a": 959,
      "cb": 960,
      "yf": 961,
      "Tz": 962,
      "mU": 963,
      "Lmn": 964,
      "lL": 965,
      "slJ": 966,
      "pN": 967,
      "WNN": 968,
      "yy": 969,
      "cO": 970,
      "lG": 971,
      "Pg": 972,
      "10": 973,
      "rQ": 974,
      "JA": 975,
      "bf": 976,
      "lO": 977,
      "oN": 978,
      "IC": 979,
      "OL": 980,
      "nv": 981,
      "Fg": 982,
      "l!": 983,
      "ph": 984,
      "NWW": 985,
      "in": 986,
      "rzh": 987,
      "221": 988,
      "VO": 989,
      "WP": 990,
      "wD": 991,
      "de": 992,
      "80": 993,
      "llN": 994,
      "Kc": 995,
      "WsTn": 996,
      "fC": 997,
      "PB": 998,
      "gR": 999,
      "Vw": 1000,
      "Gs": 1001,
      "XN": 1002,
      "zx": 1003,
      "ga": 1004,
      "lp": 1005,
      "Zn": 1006,
      "sf": 1007,
      "98": 1008,
      "iR": 1009,
      "Mc": 1010,
      "vbn": 1011,
      "Ob": 1012,
      "FD": 1013,
      "Ny": 1014,
      "qn": 1015,
      "FP": 1016,
      "gt": 1017,
      "OR": 1018,
      "str": 1019,
      "el": 1020,
      "mA": 1021,
      "Jz": 1022,
      "rw": 1023,
      "IU": 1024,
      "srnah": 1025,
      "dU": 1026,
      "bh": 1027,
      "lJt": 1028,
      "ma": 1029,
      "dWh": 1030,
      "tV": 1031,
      "gz": 1032,
      "Jl": 1033,
      "JB": 1034,
      "ge": 1035,
      "yE": 1036,
      "dp": 1037,
      "mf": 1038,
      "77": 1039,
      "93": 1040,
      "JF": 1041,
      "qA": 1042,
      "vs": 1043,
      "JsW": 1044,
      "TS": 1045,
      "IL": 1046,
      "XB": 1047,
      "Qx": 1048,
      "rf": 1049,
      "sWt": 1050,
      "ufc": 1051,
      "ZP": 1052,
      "hbn": 1053,
      "QNh": 1054,
      "EP": 1055,
      "NG": 1056,
      "IK": 1057,
      "Zt": 1058,
      "aG": 1059,
      "qG": 1060,
      "yw": 1061,
      "On": 1062,
      "AV": 1063,
      "ci": 1064,
      "gK": 1065,
      "bNN": 1066,
      "yY": 1067,
      "Bs": 1068,
      "WI": 1069,
      "dd": 1070,
      "gx": 1071,
      "Ah": 1072,
      "Oe": 1073,
      "WR": 1074,
      "rF": 1075,
      "Ee": 1076,
      "ER": 1077,
      "Al": 1078,
      "Ss": 1079,
      "VB": 1080,
      "ua": 1081,
      "wWt": 1082,
      "rh": 1083,
      "wp": 1084,
      "Ye": 1085,
      "ZT": 1086,
      "sUnah": 1087,
      "Id": 1088,
      "cJ": 1089,
      "cl": 1090,
      "wK": 1091,
      "trtr": 1092,
      "alat": 1093,
      "RN": 1094,
      "cx": 1095,
      "sM": 1096,
      "naV": 1097,
      "54": 1098,
      "w!": 1099,
      "QVs": 1100,
      "NsQ": 1101,
      "nth": 1102,
      "ce": 1103,
      "reN": 1104,
      "mwf": 1105,
      "bbX": 1106,
      "fBL": 1107,
      "Uz": 1108,
      "sF": 1109,
      "cC": 1110,
      "An": 1111,
      "Rx": 1112,
      "aht": 1113,
      "qI": 1114,
      "Ur": 1115,
      "lT": 1116,
      "Qr": 1117,
      "cg": 1118,
      "sh": 1119,
      "WWw": 1120,
      "Oz": 1121,
      "xe": 1122,
      "nrf": 1123,
      "tz": 1124,
      "DU": 1125,
      "iN": 1126,
      "se": 1127,
      "Bm": 1128,
      "yz": 1129,
      "Fd": 1130,
      "UJN": 1131,
      "!b": 1132,
      "Bi": 1133,
      "Ra": 1134,
      "09": 1135,
      "hFn": 1136,
      "ti": 1137,
      "ANd": 1138,
      "nZJs": 1139,
      "IqD": 1140,
      "Du": 1141,
      "Tsu": 1142,
      "ue": 1143,
      "yl": 1144,
      "gl": 1145,
      "sp": 1146,
      "89": 1147,
      "BE": 1148,
      "cz": 1149,
      "AO": 1150,
      "Iv": 1151,
      "VW": 1152,
      "Xe": 1153,
      "nOv": 1154,
      "LE": 1155,
      "Ct": 1156,
      "Qq": 1157,
      "Xx": 1158,
      "ai": 1159,
      "LY": 1160,
      "lR": 1161,
      "TF": 1162,
      "cn": 1163,
      "224": 1164,
      "bDh": 1165,
      "ZWa": 1166,
      "da": 1167,
      "rm": 1168,
      "BK": 1169,
      "AJ": 1170,
      "yZ": 1171,
      "go": 1172,
      "WC": 1173,
      "LYI": 1174,
      "bF": 1175,
      "DG": 1176,
      "YE": 1177,
      "UG": 1178,
      "CR": 1179,
      "XJ": 1180,
      "s!": 1181,
      "a!": 1182,
      "Od": 1183,
      "Xd": 1184,
      "gy": 1185,
      "np": 1186,
      "Qo": 1187,
      "Nds": 1188,
      "Qe": 1189,
      "bK": 1190,
      "Gqq": 1191,
      "184": 1192,
      "si": 1193,
      "ri": 1194,
      "DA": 1195,
      "stt": 1196,
      "tI": 1197,
      "04": 1198,
      "Pi": 1199,
      "gs": 1200,
      "rJ": 1201,
      "vN": 1202,
      "az": 1203,
      "gA": 1204,
      "lsW": 1205,
      "CO": 1206,
      "vG": 1207,
      "nS": 1208,
      "Nerz": 1209,
      "g!": 1210,
      "pJ": 1211,
      "NnZ": 1212,
      "ay": 1213,
      "rW": 1214,
      "MD": 1215,
      "60": 1216,
      "IY": 1217,
      "ehJs": 1218,
      "!z": 1219,
      "FC": 1220,
      "llw": 1221,
      "htW": 1222,
      "RD": 1223,
      "qDIw": 1224,
      "34": 1225,
      "yJ": 1226,
      "Ex": 1227,
      "QQ": 1228,
      "lz": 1229,
      "pa": 1230,
      "no": 1231,
      "NX": 1232,
      "OS": 1233,
      "WWZN": 1234,
      "Vu": 1235,
      "wx": 1236,
      "br": 1237,
      "hG": 1238,
      "nF": 1239,
      "vt": 1240,
      "cr": 1241,
      "ym": 1242,
      "ye": 1243,
      "ntZ": 1244,
      "GE": 1245,
      "Rq": 1246,
      "Za": 1247,
      "rnQ": 1248,
      "Pz": 1249,
      "ix": 1250,
      "gC": 1251,
      "mt": 1252,
      "yQ": 1253,
      "32": 1254,
      "OU": 1255,
      "482": 1256,
      "VM": 1257,
      "lF": 1258,
      "vq": 1259,
      "Ce": 1260,
      "yW": 1261,
      "KX": 1262,
      "Ud": 1263,
      "BA": 1264,
      "De": 1265,
      "BJ": 1266,
      "o!": 1267,
      "Cz": 1268,
      "pZ": 1269,
      "vmn": 1270,
      "bQ": 1271,
      "fO": 1272,
      "39": 1273,
      "Br": 1274,
      "CD": 1275,
      "TNZ": 1276,
      "zf": 1277,
      "25": 1278,
      "Rw": 1279,
      "bS": 1280,
      "PO": 1281,
      "nY": 1282,
      "Kx": 1283,
      "RO": 1284,
      "trn": 1285,
      "GN": 1286,
      "yF": 1287,
      "248": 1288,
      "bU": 1289,
      "li": 1290,
      "nUWu": 1291,
      "Le": 1292,
      "TA": 1293,
      "iE": 1294,
      "uf": 1295,
      "mh": 1296,
      "nL": 1297,
      "wIB": 1298,
      "bbB": 1299,
      "tNtr": 1300,
      "dq": 1301,
      "Sl": 1302,
      "mm": 1303,
      "ncw": 1304,
      "sC": 1305,
      "ct": 1306,
      "dQ": 1307,
      "hmn": 1308,
      "oV": 1309,
      "wO": 1310,
      "2482": 1311,
      "NdtW": 1312,
      "bmX": 1313,
      "pW": 1314,
      "NZZ": 1315,
      "bbT": 1316,
      "ml": 1317,
      "ut": 1318,
      "BF": 1319,
      "NO": 1320,
      "ND": 1321,
      "yx": 1322,
      "nOV": 1323,
      "CA": 1324,
      "T!": 1325,
      "Zz": 1326,
      "nrQ": 1327,
      "Rt": 1328,
      "Em": 1329,
      "y!": 1330,
      "Lz": 1331,
      "wU": 1332,
      "LS": 1333,
      "aP": 1334,
      "sO": 1335,
      "CI": 1336,
      "gY": 1337,
      "SJ": 1338,
      "qM": 1339,
      "FA": 1340,
      "lds": 1341,
      "sB": 1342,
      "844": 1343,
      "bnc": 1344,
      "ZE": 1345,
      "ssh": 1346,
      "ca": 1347,
      "VsW": 1348,
      "pt": 1349,
      "Tu": 1350,
      "WK": 1351,
      "ldsW": 1352,
      "Gb": 1353,
      "als": 1354,
      "Xn": 1355,
      "Zb": 1356,
      "ZX": 1357,
      "xq": 1358,
      "Pq": 1359,
      "UO": 1360,
      "oA": 1361,
      "43": 1362,
      "mJ": 1363,
      "dhtr": 1364,
      "vw": 1365,
      "xc": 1366,
      "sI": 1367,
      "hA": 1368,
      "WsTa": 1369,
      "Gf": 1370,
      "zJ": 1371,
      "wX": 1372,
      "rV": 1373,
      "BI": 1374,
      "Yqq": 1375,
      "db": 1376,
      "hg": 1377,
      "!c": 1378,
      "LO": 1379,
      "aS": 1380,
      "yD": 1381,
      "BC": 1382,
      "Ro": 1383,
      "eF": 1384,
      "bZf": 1385,
      "eZ": 1386,
      "wA": 1387,
      "75": 1388,
      "Rz": 1389,
      "sy": 1390,
      "WsTt": 1391,
      "WS": 1392,
      "gJ": 1393,
      "aJq": 1394,
      "tO": 1395,
      "UA": 1396,
      "ZD": 1397,
      "NdaJ": 1398,
      "Wel": 1399,
      "lNZ": 1400,
      "212": 1401,
      "RV": 1402,
      "Tll": 1403,
      "Yd": 1404,
      "Ey": 1405,
      "hJ": 1406,
      "KN": 1407,
      "urU": 1408,
      "Nntu": 1409,
      "aT": 1410,
      "lla": 1411,
      "naL": 1412,
      "rI": 1413,
      "vZ": 1414,
      "Li": 1415,
      "fQ": 1416,
      "Wo": 1417,
      "Rb": 1418,
      "WsW": 1419,
      "sslJ": 1420,
      "VA": 1421,
      "Xa": 1422,
      "uQ": 1423,
      "Bq": 1424,
      "nds": 1425,
      "yG": 1426,
      "IT": 1427,
      "cG": 1428,
      "vx": 1429,
      "ssW": 1430,
      "CS": 1431,
      "PD": 1432,
      "fq": 1433,
      "Zd!": 1434,
      "rGs": 1435,
      "edrNn": 1436,
      "ow": 1437,
      "em": 1438,
      "!r": 1439,
      "bah": 1440,
      "ot": 1441,
      "ub": 1442,
      "23": 1443,
      "hO": 1444,
      "lW@": 1445,
      "sg": 1446,
      "QF": 1447,
      "eq": 1448,
      "WNA": 1449,
      "NI": 1450,
      "Qa": 1451,
      "pU": 1452,
      "zP": 1453,
      "B!": 1454,
      "fBh": 1455,
      "Vg": 1456,
      "wT": 1457,
      "JS": 1458,
      "JNZ": 1459,
      "oe": 1460,
      "eVNere": 1461,
      "Ph": 1462,
      "ep": 1463,
      "cT": 1464,
      "FU": 1465,
      "bu": 1466,
      "xy": 1467,
      "Cd": 1468,
      "Cy": 1469,
      "Xc": 1470,
      "aaW": 1471,
      "YV": 1472,
      "ere": 1473,
      "lJd": 1474,
      "JI": 1475,
      "mQ": 1476,
      "rNb": 1477,
      "wIP": 1478,
      "BG": 1479,
      "oh": 1480,
      "Jh": 1481,
      "im": 1482,
      "cX": 1483,
      "Pt": 1484,
      "annw": 1485,
      "NK": 1486,
      "rM": 1487,
      "bOv": 1488,
      "EK": 1489,
      "Zm": 1490,
      "CF": 1491,
      "zi": 1492,
      "Pc": 1493,
      "Vm": 1494,
      "zm": 1495,
      "lJw": 1496,
      "MW": 1497,
      "fi": 1498,
      "!d": 1499,
      "Cg": 1500,
      "WNZ": 1501,
      "ew": 1502,
      "Gx": 1503,
      "haW": 1504,
      "Yq": 1505,
      "NQWNn": 1506,
      "Gsu": 1507,
      "gv": 1508,
      "qaa": 1509,
      "ur": 1510,
      "xN": 1511,
      "Zq": 1512,
      "Zs": 1513,
      "NdaW": 1514,
      "DI": 1515,
      "Jm": 1516,
      "TT": 1517,
      "144": 1518,
      "Eo": 1519,
      "lm": 1520,
      "pr": 1521,
      "wnl": 1522,
      "aha": 1523,
      "!F": 1524,
      "70": 1525,
      "dNr": 1526,
      "ssll": 1527,
      "Ag": 1528,
      "668": 1529,
      "lg": 1530,
      "bDL": 1531,
      "UtN": 1532,
      "Rg": 1533,
      "reV": 1534,
      "eLnq": 1535,
      "ps": 1536,
      "Ls": 1537,
      "hS": 1538,
      "Ge": 1539,
      "Bu": 1540,
      "saa": 1541,
      "sWN": 1542,
      "alaa": 1543,
      "DK": 1544,
      "uA": 1545,
      "NZl": 1546,
      "nau": 1547,
      "JV": 1548,
      "EL": 1549,
      "FZ": 1550,
      "UW": 1551,
      "ed": 1552,
      "EO": 1553,
      "Gl": 1554,
      "TI": 1555,
      "Xz": 1556,
      "nrWu": 1557,
      "Gqs": 1558,
      "wwI": 1559,
      "Cf": 1560,
      "TZ": 1561,
      "hW": 1562,
      "fcL": 1563,
      "VtW": 1564,
      "nj": 1565,
      "QNV": 1566,
      "Ba": 1567,
      "Sr": 1568,
      "eD": 1569,
      "va": 1570,
      "Bx": 1571,
      "lZWs": 1572,
      "Qb": 1573,
      "!ANN": 1574,
      "fBv": 1575,
      "R!": 1576,
      "JW@": 1577,
      "TJS": 1578,
      "AQ": 1579,
      "Iu": 1580,
      "JO": 1581,
      "Rr": 1582,
      "ir": 1583,
      "nC": 1584,
      "Vr": 1585,
      "zZ": 1586,
      "Jc": 1587,
      "KM": 1588,
      "uN": 1589,
      "aK": 1590,
      "QC": 1591,
      "wOO": 1592,
      "dhll": 1593,
      "BO": 1594,
      "RZ": 1595,
      "ud": 1596,
      "Tb": 1597,
      "bIB": 1598,
      "zd": 1599,
      "Wdr": 1600,
      "Ab": 1601,
      "Eg": 1602,
      "Gq": 1603,
      "Ad": 1604,
      "FnZ": 1605,
      "tQ": 1606,
      "NsZ": 1607,
      "lS": 1608,
      "nav": 1609,
      "Jn": 1610,
      "QV": 1611,
      "fR": 1612,
      "mo": 1613,
      "yi": 1614,
      "CH": 1615,
      "Vbn": 1616,
      "ee": 1617,
      "hc": 1618,
      "yo": 1619,
      "111": 1620,
      "EZ": 1621,
      "X!": 1622,
      "Yi": 1623,
      "A!": 1624,
      "DNn": 1625,
      "tg": 1626,
      "ssnah": 1627,
      "PZ": 1628,
      "Vd": 1629,
      "Ca": 1630,
      "Ks": 1631,
      "bZQ": 1632,
      "e!": 1633,
      "ttZ": 1634,
      "xz": 1635,
      "xm": 1636,
      "NNN": 1637,
      "sG": 1638,
      "lJN": 1639,
      "nIgi": 1640,
      "KO": 1641,
      "bOL": 1642,
      "dsN": 1643,
      "WbQN": 1644,
      "xg": 1645,
      "hw": 1646,
      "Wtw": 1647,
      "mwQ": 1648,
      "CP": 1649,
      "RG": 1650,
      "qz": 1651,
      "wo": 1652,
      "io": 1653,
      "Pr": 1654,
      "NNWW": 1655,
      "qDM": 1656,
      "bOh": 1657,
      "Ar": 1658,
      "ff": 1659,
      "jd": 1660,
      "Bo": 1661,
      "gL": 1662,
      "Ui": 1663,
      "SN": 1664,
      "Ts": 1665,
      "xO": 1666,
      "WG": 1667,
      "nrG": 1668,
      "mnc": 1669,
      "QZWt": 1670,
      "zLnq": 1671,
      "Tx": 1672,
      "Bg": 1673,
      "Kf": 1674,
      "mzO": 1675,
      "Ev": 1676,
      "fM": 1677,
      "yA": 1678,
      "Nst": 1679,
      "Wrh": 1680,
      "nIg": 1681,
      "Lq": 1682,
      "Vz": 1683,
      "Vc": 1684,
      "raN": 1685,
      "dv": 1686,
      "NZWa": 1687,
      "PN": 1688,
      "UR": 1689,
      "bDV": 1690,
      "BU": 1691,
      "Ps": 1692,
      "do": 1693,
      "lo": 1694,
      "rK": 1695,
      "gDb": 1696,
      "vA": 1697,
      "rzN": 1698,
      "SA": 1699,
      "lJs": 1700,
      "mzg": 1701,
      "!O": 1702,
      "dx": 1703,
      "eG": 1704,
      "SZ": 1705,
      "iK": 1706,
      "!m": 1707,
      "XR": 1708,
      "ib": 1709,
      "sA": 1710,
      "eT!Nr": 1711,
      "Rv": 1712,
      "Xt": 1713,
      "xs": 1714,
      "fb": 1715,
      "fNh": 1716,
      "Pw": 1717,
      "824": 1718,
      "pV": 1719,
      "zu": 1720,
      "NNe": 1721,
      "bnB": 1722,
      "iQ": 1723,
      "nQ": 1724,
      "tZZ": 1725,
      "NeN": 1726,
      "Px": 1727,
      "Lm": 1728,
      "tWZ": 1729,
      "mDv": 1730,
      "fcv": 1731,
      "eTAV": 1732,
      "Sh": 1733,
      "dF": 1734,
      "mnB": 1735,
      "lH": 1736,
      "tF": 1737,
      "CqD": 1738,
      "30": 1739,
      "Ko": 1740,
      "Up": 1741,
      "lX": 1742,
      "rT": 1743,
      "ys": 1744,
      "DWw": 1745,
      "NJs": 1746,
      "261": 1747,
      "IeG": 1748,
      "eU": 1749,
      "iO": 1750,
      "jR": 1751,
      "AF": 1752,
      "Fq": 1753,
      "fg": 1754,
      "hm": 1755,
      "bNb": 1756,
      "z!": 1757,
      "aF": 1758,
      "tNZ": 1759,
      "Lc": 1760,
      "fh": 1761,
      "QW": 1762,
      "nDv": 1763,
      "Gw": 1764,
      "NWd": 1765,
      "XI": 1766,
      "aR": 1767,
      "bcN": 1768,
      "WeN": 1769,
      "lsN": 1770,
      "WhrtN": 1771,
      "Kw": 1772,
      "Zh": 1773,
      "b!Q": 1774,
      "gIw": 1775,
      "iI": 1776,
      "eNNZ": 1777,
      "XE": 1778,
      "Xm": 1779,
      "iU": 1780,
      "cm": 1781,
      "33": 1782,
      "RL": 1783,
      "DM": 1784,
      "GB": 1785,
      "PI": 1786,
      "AW": 1787,
      "QT": 1788,
      "SS": 1789,
      "dz": 1790,
      "GW": 1791,
      "aNZ": 1792,
      "dL": 1793,
      "DNZ": 1794,
      "eI": 1795,
      "UnQ": 1796,
      "hy": 1797,
      "718": 1798,
      "NC": 1799,
      "PV": 1800,
      "xE": 1801,
      "Gz": 1802,
      "Pv": 1803,
      "nNYV": 1804,
      "PE": 1805,
      "en": 1806,
      "ob": 1807,
      "37": 1808,
      "Bt": 1809,
      "Tm": 1810,
      "gV": 1811,
      "WsN!": 1812,
      "lWN": 1813,
      "uy": 1814,
      "nZJssS": 1815,
      "822": 1816,
      "BY": 1817,
      "Dn": 1818,
      "Pm": 1819,
      "XA": 1820,
      "JsN": 1821,
      "Ndal": 1822,
      "OM": 1823,
      "oZ": 1824,
      "sb": 1825,
      "zF": 1826,
      "84222": 1827,
      "Uy": 1828,
      "sc": 1829,
      "lNN": 1830,
      "JNN": 1831,
      "alVS": 1832,
      "Pa": 1833,
      "oa": 1834,
      "xi": 1835,
      "GdG": 1836,
      "!w": 1837,
      "ZU": 1838,
      "QhsWd": 1839,
      "NeNN": 1840,
      "qV": 1841,
      "uB": 1842,
      "nIOr": 1843,
      "Wp": 1844,
      "id": 1845,
      "tnI": 1846,
      "IwE": 1847,
      "GV": 1848,
      "rbA": 1849,
      "Nh": 1850,
      "sNs": 1851,
      "Fah": 1852,
      "Z!": 1853,
      "cV": 1854,
      "EW": 1855,
      "tb": 1856,
      "mZf": 1857,
      "nf": 1858,
      "xb": 1859,
      "annZ": 1860,
      "BQ": 1861,
      "QU": 1862,
      "Ly": 1863,
      "OWb": 1864,
      "Po": 1865,
      "mDh": 1866,
      "Zr": 1867,
      "uJ": 1868,
      "JH": 1869,
      "mIB": 1870,
      "15": 1871,
      "821": 1872,
      "Yw": 1873,
      "Gsq": 1874,
      "Mx": 1875,
      "hU": 1876,
      "tK": 1877,
      "Nnr": 1878,
      "alq": 1879,
      "DwI": 1880,
      "JlZ": 1881,
      "cF": 1882,
      "hF": 1883,
      "sV": 1884,
      "v!": 1885,
      "zo": 1886,
      "eTANr": 1887,
      "cI": 1888,
      "Gr": 1889,
      "DX": 1890,
      "Qd": 1891,
      "ro": 1892,
      "yK": 1893,
      "ehnq": 1894,
      "dVtr": 1895,
      "sd!": 1896,
      "Ri": 1897,
      "TB": 1898,
      "WWtr": 1899,
      "NWes": 1900,
      "cU": 1901,
      "yV": 1902,
      "fd": 1903,
      "wWO": 1904,
      "nZp": 1905,
      "DgI": 1906,
      "bV": 1907,
      "nM": 1908,
      "eK": 1909,
      "mC": 1910,
      "vd": 1911,
      "Xl": 1912,
      "qL": 1913,
      "qtt": 1914,
      "zqf": 1915,
      "Qch": 1916,
      "Om": 1917,
      "NNf": 1918,
      "mDL": 1919,
      "Sz": 1920,
      "urr": 1921,
      "ig": 1922,
      "444": 1923,
      "SWrzh": 1924,
      "Xw": 1925,
      "btZ": 1926,
      "oI": 1927,
      "Sere": 1928,
      "tp": 1929,
      "zI": 1930,
      "FQ": 1931,
      "YDD": 1932,
      "NNA": 1933,
      "NdV": 1934,
      "bsu": 1935,
      "wj": 1936,
      "Ng": 1937,
      "rg": 1938,
      "UF": 1939,
      "eR": 1940,
      "yO": 1941,
      "llZNe": 1942,
      "hz": 1943,
      "mF": 1944,
      "wDO": 1945,
      "Lt": 1946,
      "Pd": 1947,
      "Vsa": 1948,
      "JD": 1949,
      "RW": 1950,
      "Xb": 1951,
      "ntV": 1952,
      "79": 1953,
      "nwG": 1954,
      "SD": 1955,
      "Zj": 1956,
      "llIr": 1957,
      "dhar": 1958,
      "Ip": 1959,
      "RA": 1960,
      "ZA": 1961,
      "ab": 1962,
      "218": 1963,
      "WhlV": 1964,
      "Igr": 1965,
      "ONtr": 1966,
      "MP": 1967,
      "UC": 1968,
      "dsW": 1969,
      "oQ": 1970,
      "snl": 1971,
      "XJN": 1972,
      "m!": 1973,
      "utrn": 1974,
      "52": 1975,
      "dWV": 1976,
      "gWb": 1977,
      "nE": 1978,
      "XF": 1979,
      "rss": 1980,
      "sWZ": 1981,
      "424": 1982,
      "WsTW": 1983,
      "Bf": 1984,
      "Tc": 1985,
      "oz": 1986,
      "tnw": 1987,
      "aVZ": 1988,
      "of": 1989,
      "sQN": 1990,
      "tlVS": 1991,
      "JsNn": 1992,
      "lhTe": 1993,
      "Ji": 1994,
      "Ou": 1995,
      "SQ": 1996,
      "TlJ": 1997,
      "Yf": 1998,
      "wS": 1999,
      "yq": 2000,
      "DNw": 2001,
      "Of": 2002,
      "PR": 2003,
      "xw": 2004,
      "zC": 2005,
      "edrNnl": 2006,
      "bmB": 2007,
      "rzqf": 2008,
      "CQ": 2009,
      "WQ": 2010,
      "WT": 2011,
      "jI": 2012,
      "51": 2013,
      "mu": 2014,
      "resQ": 2015,
      "Er": 2016,
      "Gm": 2017,
      "xI": 2018,
      "ANNeNN": 2019,
      "EC": 2020,
      "G!": 2021,
      "wWa": 2022,
      "EH": 2023,
      "Ni": 2024,
      "UaN": 2025,
      "Xu": 2026,
      "GA": 2027,
      "ODb": 2028,
      "PL": 2029,
      "Qhs": 2030,
      "cEq": 2031,
      "pR": 2032,
      "qb": 2033,
      "vy": 2034,
      "llZWh": 2035,
      "45": 2036,
      "No": 2037,
      "eM": 2038,
      "U!": 2039,
      "XS": 2040,
      "qOO": 2041,
      "sWW": 2042,
      "wwZ": 2043,
      "FI": 2044,
      "tAn": 2045,
      "Vb": 2046,
      "Vmn": 2047,
      "er": 2048,
      "pp": 2049,
      "Nsll": 2050,
      "lN@": 2051,
      "WE": 2052,
      "bIc": 2053,
      "bBB": 2054,
      "VF": 2055,
      "dS": 2056,
      "xo": 2057,
      "Jsn": 2058,
      "lsNn": 2059,
      "qll": 2060,
      "nwJs": 2061,
      "UZ": 2062,
      "cL": 2063,
      "raW": 2064,
      "164": 2065,
      "lqTe": 2066,
      "WbQ": 2067,
      "snft": 2068,
      "QBL": 2069,
      "tC": 2070,
      "yR": 2071,
      "Bh": 2072,
      "DIw": 2073,
      "Fp": 2074,
      "aX": 2075,
      "IqW": 2076,
      "NQW": 2077,
      "AtZ": 2078,
      "To": 2079,
      "zr": 2080,
      "esQ": 2081,
      "!f": 2082,
      "JJZ": 2083,
      "Tq": 2084,
      "YP": 2085,
      "vo": 2086,
      "zz": 2087,
      "Tr": 2088,
      "nJs": 2089,
      "wwd": 2090,
      "bcc": 2091,
      "Ap": 2092,
      "DF": 2093,
      "JQ": 2094,
      "rzV": 2095,
      "lJZNe": 2096,
      "!g": 2097,
      "KQ": 2098,
      "Tru": 2099,
      "iC": 2100,
      "NqtS": 2101,
      "fch": 2102,
      "htw": 2103,
      "oqg": 2104,
      "ssJ": 2105,
      "63": 2106,
      "WWs": 2107,
      "EqD": 2108,
      "Lw": 2109,
      "Xq": 2110,
      "rNZ": 2111,
      "NdtWSWrehJs": 2112,
      "Ug": 2113,
      "Wx": 2114,
      "yC": 2115,
      "elJ": 2116,
      "WNw": 2117,
      "271": 2118,
      "zvnq": 2119,
      "atZ": 2120,
      "jV": 2121,
      "qv": 2122,
      "aAn": 2123,
      "aE": 2124,
      "Weq": 2125,
      "htZ": 2126,
      "pw": 2127,
      "qF": 2128,
      "qWt": 2129,
      "yP": 2130,
      "bcB": 2131,
      "Sc": 2132,
      "Iqy": 2133,
      "sar": 2134,
      "IEE": 2135,
      "Jo": 2136,
      "OQ": 2137,
      "Sf": 2138,
      "aWZ": 2139,
      "rx": 2140,
      "sP": 2141,
      "226": 2142,
      "sWIw": 2143,
      "RNn": 2144,
      "cv": 2145,
      "iw": 2146,
      "nsr": 2147,
      "J@": 2148,
      "SU": 2149,
      "XW": 2150,
      "ih": 2151,
      "mNN": 2152,
      "rNe": 2153,
      "WWd": 2154,
      "Iwl": 2155,
      "eTAh": 2156,
      "OK": 2157,
      "wll": 2158,
      "wIN": 2159,
      "NwZ": 2160,
      "Igi": 2161,
      "ngh": 2162,
      "mOv": 2163,
      "Rf": 2164,
      "eC": 2165,
      "nny": 2166,
      "FnN": 2167,
      "ch": 2168,
      "od": 2169,
      "Isy": 2170,
      "Eny": 2171,
      "Gt": 2172,
      "ex": 2173,
      "!U": 2174,
      "BT": 2175,
      "NdQ": 2176,
      "nIOi": 2177,
      "ngL": 2178,
      "!K": 2179,
      "!W": 2180,
      "65": 2181,
      "Gww": 2182,
      "ehNerz": 2183,
      "BX": 2184,
      "TR": 2185,
      "tnZ": 2186,
      "nIOB": 2187,
      "bBi": 2188,
      "GILbn": 2189,
      "GD": 2190,
      "LZ": 2191,
      "PW": 2192,
      "Xo": 2193,
      "cD": 2194,
      "vu": 2195,
      "NwWt": 2196,
      "bIz": 2197,
      "iA": 2198,
      "qm": 2199,
      "sm": 2200,
      "wnJ": 2201,
      "!n": 2202,
      "VNr": 2203,
      "TK": 2204,
      "hWZ": 2205,
      "!S": 2206,
      "LN": 2207,
      "VFn": 2208,
      "di": 2209,
      "om": 2210,
      "pn": 2211,
      "WhAs": 2212,
      "!V": 2213,
      "Wlh": 2214,
      "Nnw": 2215,
      "NstS": 2216,
      "bnN": 2217,
      "121": 2218,
      "yn": 2219,
      "641": 2220,
      "nIB": 2221,
      "Uw": 2222,
      "rON": 2223,
      "xcu": 2224,
      "aanZ": 2225,
      "rnf": 2226,
      "La": 2227,
      "ry": 2228,
      "xF": 2229,
      "lZWe": 2230,
      "Nfl": 2231,
      "QE": 2232,
      "hp": 2233,
      "Jes": 2234,
      "JsTep": 2235,
      "RF": 2236,
      "zl": 2237,
      "lJa": 2238,
      "ANQ": 2239,
      "KG": 2240,
      "LFn": 2241,
      "Mz": 2242,
      "OX": 2243,
      "lssS": 2244,
      "WdrN": 2245,
      "aAa": 2246,
      "if": 2247,
      "zNN": 2248,
      "IwI": 2249,
      "QWW": 2250,
      "lAA": 2251,
      "KE": 2252,
      "Qm": 2253,
      "bds": 2254,
      "ya": 2255,
      "JsZ": 2256,
      "reqf": 2257,
      "Um": 2258,
      "bIe": 2259,
      "lK": 2260,
      "on": 2261,
      "122": 2262,
      "Mv": 2263,
      "Ocw": 2264,
      "UT": 2265,
      "YB": 2266,
      "Df": 2267,
      "hll": 2268,
      "sSNdhll": 2269,
      "85": 2270,
      "hr": 2271,
      "NZp": 2272,
      "lsTep": 2273,
      "!x": 2274,
      "JC": 2275,
      "NNQ": 2276,
      "bBb": 2277,
      "Bp": 2278,
      "KD": 2279,
      "Kg": 2280,
      "Rm": 2281,
      "KY": 2282,
      "eA": 2283,
      "sz": 2284,
      "gb": 2285,
      "bWh": 2286,
      "eQ": 2287,
      "hd": 2288,
      "tP": 2289,
      "JN@": 2290,
      "UL": 2291,
      "Ub": 2292,
      "mDgI": 2293,
      "NQQ": 2294,
      "ML": 2295,
      "NGh": 2296,
      "VNN": 2297,
      "XC": 2298,
      "eNe": 2299,
      "NV": 2300,
      "ia": 2301,
      "yIw": 2302,
      "pqq": 2303,
      "NNss": 2304,
      "JZWs": 2305,
      "Fs": 2306,
      "Wy": 2307,
      "bBN": 2308,
      "DS": 2309,
      "Jts": 2310,
      "aWW": 2311,
      "NsZd": 2312,
      "bOc": 2313,
      "lhN": 2314,
      "JqTe": 2315,
      "dhlJ": 2316,
      "QBh": 2317,
      "rnQNsQ": 2318,
      "Fr": 2319,
      "lWZ": 2320,
      "to": 2321,
      "DOw": 2322,
      "GwZ": 2323,
      "tWW": 2324,
      "vm": 2325,
      "DDw": 2326,
      "Ff": 2327,
      "Lx": 2328,
      "Nx": 2329,
      "wd!": 2330,
      "nif": 2331,
      "AU": 2332,
      "Ij": 2333,
      "Qp": 2334,
      "XoL": 2335,
      "eUe": 2336,
      "Yr": 2337,
      "ZO": 2338,
      "iV": 2339,
      "Ea": 2340,
      "sfN": 2341,
      "Nnl": 2342,
      "WOw": 2343,
      "36": 2344,
      "Jx": 2345,
      "me": 2346,
      "mnN": 2347,
      "yg": 2348,
      "yu": 2349,
      "bnb": 2350,
      "!l": 2351,
      "IsW": 2352,
      "dw": 2353,
      "sJt": 2354,
      "sNt": 2355,
      "tf": 2356,
      "CM": 2357,
      "FZQ": 2358,
      "pe": 2359,
      "Am": 2360,
      "SlW": 2361,
      "bqi": 2362,
      "cW": 2363,
      "www": 2364,
      "48211": 2365,
      "SB": 2366,
      "UeN": 2367,
      "WIw": 2368,
      "hh": 2369,
      "tR": 2370,
      "tWt": 2371,
      "sslW": 2372,
      "nOu": 2373,
      "ntw": 2374,
      "ANf": 2375,
      "bRNw": 2376,
      "!o": 2377,
      "56": 2378,
      "EF": 2379,
      "YZ": 2380,
      "dK": 2381,
      "nrp": 2382,
      "Cqn": 2383,
      "PJ": 2384,
      "zn": 2385,
      "NfJ": 2386,
      "Sw": 2387,
      "zG": 2388,
      "Wts": 2389,
      "OJs": 2390,
      "qK": 2391,
      "xV": 2392,
      "Nzrz": 2393,
      "WDw": 2394,
      "471": 2395,
      "je": 2396,
      "168": 2397,
      "qWIw": 2398,
      "PK": 2399,
      "sWr": 2400,
      "rzv": 2401,
      "DcM": 2402,
      "Wc!": 2403,
      "GIhbn": 2404,
      "Vp": 2405,
      "anZ": 2406,
      "sad": 2407,
      "LIz": 2408,
      "MN": 2409,
      "P!": 2410,
      "cS": 2411,
      "fF": 2412,
      "sR": 2413,
      "VsZ": 2414,
      "Dlh": 2415,
      "lx": 2416,
      "tx": 2417,
      "WZn": 2418,
      "oBu": 2419,
      "tAtZ": 2420,
      "CWb": 2421,
      "Ju": 2422,
      "Us": 2423,
      "WwI": 2424,
      "bz": 2425,
      "qwI": 2426,
      "qNs": 2427,
      "ssd": 2428,
      "wNS": 2429,
      "dWhrtN": 2430,
      "yd": 2431,
      "altt": 2432,
      "OT": 2433,
      "izq": 2434,
      "SWrehls": 2435,
      "ao": 2436,
      "fm": 2437,
      "nft": 2438,
      "ve": 2439,
      "qOg": 2440,
      "DNN": 2441,
      "ZdA": 2442,
      "ocu": 2443,
      "2122": 2444,
      "ehls": 2445,
      "IsI": 2446,
      "GdIf": 2447,
      "IDD": 2448,
      "bWZ": 2449,
      "i!": 2450,
      "Fw": 2451,
      "JG": 2452,
      "iZ": 2453,
      "ug": 2454,
      "Jld": 2455,
      "edr": 2456,
      "oX": 2457,
      "dhllN": 2458,
      "421": 2459,
      "uW": 2460,
      "wID": 2461,
      "bOV": 2462,
      "stS": 2463,
      "utUn": 2464,
      "31": 2465,
      "En": 2466,
      "YY": 2467,
      "BD": 2468,
      "Gc": 2469,
      "WNe": 2470,
      "jz": 2471,
      "mDV": 2472,
      "!T": 2473,
      "Lb": 2474,
      "XT": 2475,
      "Zg": 2476,
      "lts": 2477,
      "oNu": 2478,
      "qX": 2479,
      "tm": 2480,
      "evnq": 2481,
      "ZWO": 2482,
      "iJ": 2483,
      "NNb": 2484,
      "snJ": 2485,
      "!J": 2486,
      "Nls": 2487,
      "Uv": 2488,
      "xd": 2489,
      "Ed": 2490,
      "bv": 2491,
      "mqi": 2492,
      "qlt": 2493,
      "uU": 2494,
      "xL": 2495,
      "nIO": 2496,
      "JK": 2497,
      "ZS": 2498,
      "vIz": 2499,
      "sqh": 2500,
      "Qrr": 2501,
      "NZJ": 2502,
      "IDi": 2503,
      "baL": 2504,
      "NWt": 2505,
      "OY": 2506,
      "SC": 2507,
      "Tw": 2508,
      "WlVS": 2509,
      "QI": 2510,
      "vIe": 2511,
      "sqlJ": 2512,
      "AX": 2513,
      "xqg": 2514,
      "zS": 2515,
      "saU": 2516,
      "418": 2517,
      "711": 2518,
      "AZ": 2519,
      "Fi": 2520,
      "NdaWSWrehJs": 2521,
      "WJs": 2522,
      "XZ": 2523,
      "yj": 2524,
      "DT": 2525,
      "hV": 2526,
      "hts": 2527,
      "qlJ": 2528,
      "wIg": 2529,
      "!p": 2530,
      "611": 2531,
      "EV": 2532,
      "S!": 2533,
      "Sa": 2534,
      "Swe": 2535,
      "Znr": 2536,
      "Znl": 2537,
      "fV": 2538,
      "hb": 2539,
      "Wtr": 2540,
      "tWSWrehJs": 2541,
      "bRq": 2542,
      "416": 2543,
      "Pb": 2544,
      "TU": 2545,
      "ahaaW": 2546,
      "aanw": 2547,
      "IsD": 2548,
      "N@": 2549,
      "Nsl": 2550,
      "aVS": 2551,
      "REx": 2552,
      "FV": 2553,
      "wgg": 2554,
      "Nsaa": 2555,
      "lwsS": 2556,
      "BV": 2557,
      "FDh": 2558,
      "Pe": 2559,
      "tT": 2560,
      "xA": 2561,
      "Bv": 2562,
      "Ka": 2563,
      "VaW": 2564,
      "atW": 2565,
      "oi": 2566,
      "bcb": 2567,
      "bci": 2568,
      "FWZ": 2569,
      "Kh": 2570,
      "NlJ": 2571,
      "nlw": 2572,
      "sE": 2573,
      "yt": 2574,
      "wdA": 2575,
      "nnNn": 2576,
      "124": 2577,
      "MC": 2578,
      "Re": 2579,
      "WgI": 2580,
      "qp": 2581,
      "ngv": 2582,
      "6682": 2583,
      "tJtt": 2584,
      "FwQ": 2585,
      "vi": 2586,
      "byDb": 2587,
      "Ml": 2588,
      "uz": 2589,
      "wwY": 2590,
      "PC": 2591,
      "bOB": 2592,
      "IqE": 2593,
      "rzL": 2594,
      "wZd": 2595,
      "bmT": 2596,
      "us": 2597,
      "NnZJs": 2598,
      "KR": 2599,
      "les": 2600,
      "nBw": 2601,
      "reL": 2602,
      "03": 2603,
      "GU": 2604,
      "mZQ": 2605,
      "wlJ": 2606,
      "sae": 2607,
      "YILmn": 2608,
      "Dj": 2609,
      "F!": 2610,
      "Gu": 2611,
      "Jg": 2612,
      "fz": 2613,
      "hst": 2614,
      "il": 2615,
      "esf": 2616,
      "rGl": 2617,
      "boB": 2618,
      "nWb": 2619,
      "vR": 2620,
      "yr": 2621,
      "NZW": 2622,
      "aWSWrehJs": 2623,
      "suNl": 2624,
      "lqNn": 2625,
      "rzB": 2626,
      "zhJs": 2627,
      "mOL": 2628,
      "BnO": 2629,
      "DWZ": 2630,
      "GC": 2631,
      "Gss": 2632,
      "JWN": 2633,
      "Zx": 2634,
      "it": 2635,
      "qY": 2636,
      "114": 2637,
      "JJd": 2638,
      "Fx": 2639,
      "Pn": 2640,
      "am": 2641,
      "jh": 2642,
      "pB": 2643,
      "NeUe": 2644,
      "112": 2645,
      "NlWN": 2646,
      "RK": 2647,
      "eWW": 2648,
      "fv": 2649,
      "nWZ": 2650,
      "zQ": 2651,
      "Net": 2652,
      "WNJW": 2653,
      "dVS": 2654,
      "cH": 2655,
      "lNw": 2656,
      "qww": 2657,
      "yp": 2658,
      "aaD": 2659,
      "fBV": 2660,
      "83": 2661,
      "OIw": 2662,
      "Xr": 2663,
      "sK": 2664,
      "llh": 2665,
      "wIc": 2666,
      "mBi": 2667,
      "Trute": 2668,
      "BL": 2669,
      "EU": 2670,
      "XNn": 2671,
      "daJ": 2672,
      "rVZ": 2673,
      "slW": 2674,
      "Js!": 2675,
      "WWu": 2676,
      "242": 2677,
      "bDgI": 2678,
      "bNc": 2679,
      "Pl": 2680,
      "Yn": 2681,
      "anI": 2682,
      "iy": 2683,
      "tNN": 2684,
      "JsWN": 2685,
      "BW": 2686,
      "NlW": 2687,
      "Waa": 2688,
      "Xsu": 2689,
      "dm": 2690,
      "lWs": 2691,
      "oJ": 2692,
      "WtrNb": 2693,
      "bOZ": 2694,
      "Xs": 2695,
      "ol": 2696,
      "zA": 2697,
      "zcR": 2698,
      "YD": 2699,
      "gbB": 2700,
      "mG": 2701,
      "reqQ": 2702,
      "aaw": 2703,
      "ZNt": 2704,
      "Wub": 2705,
      "422": 2706,
      "ME": 2707,
      "Py": 2708,
      "is": 2709,
      "DIz": 2710,
      "NE": 2711,
      "NWa": 2712,
      "OqD": 2713,
      "VJ": 2714,
      "be": 2715,
      "fe": 2716,
      "pA": 2717,
      "qtr": 2718,
      "rC": 2719,
      "yWb": 2720,
      "NnU": 2721,
      "lwWs": 2722,
      "htWl": 2723,
      "WWZNG": 2724,
      "644": 2725,
      "hNZ": 2726,
      "hNn": 2727,
      "mnm": 2728,
      "MA": 2729,
      "PU": 2730,
      "oC": 2731,
      "trsW": 2732,
      "tttW": 2733,
      "LIe": 2734,
      "NJe": 2735,
      "RC": 2736,
      "Rl": 2737,
      "dc": 2738,
      "bRcw": 2739,
      "GRIf": 2740,
      "TdJ": 2741,
      "RJ": 2742,
      "YC": 2743,
      "esZ": 2744,
      "zy": 2745,
      "rev": 2746,
      "WZV": 2747,
      "118": 2748,
      "bBc": 2749,
      "6242": 2750,
      "DtZ": 2751,
      "Eh": 2752,
      "Lu": 2753,
      "rj": 2754,
      "IID": 2755,
      "nawN": 2756,
      "WqTn": 2757,
      "IDO": 2758,
      "Sq": 2759,
      "St": 2760,
      "Zbn": 2761,
      "xC": 2762,
      "xv": 2763,
      "yDb": 2764,
      "228": 2765,
      "sur": 2766,
      "ANe": 2767,
      "Fwf": 2768,
      "Tg": 2769,
      "UlN": 2770,
      "df": 2771,
      "fqD": 2772,
      "pO": 2773,
      "pq": 2774,
      "qtS": 2775,
      "FF": 2776,
      "IOO": 2777,
      "JWZ": 2778,
      "Nll": 2779,
      "NWs": 2780,
      "dI": 2781,
      "ahZ": 2782,
      "tNA": 2783,
      "WzJ": 2784,
      "MJ": 2785,
      "QsW": 2786,
      "V!": 2787,
      "JqW": 2788,
      "sur!": 2789,
      "bRh": 2790,
      "ocufc": 2791,
      "rGq": 2792,
      "BP": 2793,
      "QY": 2794,
      "TC": 2795,
      "iq": 2796,
      "oqO": 2797,
      "xa": 2798,
      "nIgr": 2799,
      "IqP": 2800,
      "248211": 2801,
      "KZ": 2802,
      "nCw": 2803,
      "llR": 2804,
      "aaZ": 2805,
      "Ms": 2806,
      "RH": 2807,
      "dy": 2808,
      "h!": 2809,
      "cco": 2810,
      "sDIw": 2811,
      "59": 2812,
      "Nj": 2813,
      "RP": 2814,
      "ZDt": 2815,
      "iv": 2816,
      "lqD": 2817,
      "tZW": 2818,
      "QNlld": 2819,
      "nUf": 2820,
      "aJsA": 2821,
      "GG": 2822,
      "fW": 2823,
      "xK": 2824,
      "zVS": 2825,
      "sat": 2826,
      "Nzre": 2827,
      "baV": 2828,
      "waOw": 2829,
      "162": 2830,
      "bev": 2831,
      "fL": 2832,
      "lP": 2833,
      "pns": 2834,
      "JsZe": 2835,
      "rNz": 2836,
      "std": 2837,
      "NQJ": 2838,
      "qrnah": 2839,
      "622": 2840,
      "OF": 2841,
      "RI": 2842,
      "fCw": 2843,
      "hsW": 2844,
      "yh": 2845,
      "Nsr": 2846,
      "842": 2847,
      "nbu": 2848,
      "lUWu": 2849,
      "Lo": 2850,
      "NM": 2851,
      "NNs": 2852,
      "lls": 2853,
      "bnDb": 2854,
      "sut": 2855,
      "ANc": 2856,
      "mzt": 2857,
      "Kt": 2858,
      "NY": 2859,
      "Sv": 2860,
      "nDb": 2861,
      "tht": 2862,
      "Nsa": 2863,
      "bnbbc": 2864,
      "arn": 2865,
      "QZTJS": 2866,
      "!QJ": 2867,
      "QcV": 2868,
      "sSNdhlJ": 2869,
      "Kb": 2870,
      "Uq": 2871,
      "ZY": 2872,
      "eY": 2873,
      "ltZ": 2874,
      "AG": 2875,
      "Vn": 2876,
      "ZDO": 2877,
      "QZWa": 2878,
      "SWrehJq": 2879,
      "Fm": 2880,
      "Fds": 2881,
      "JR": 2882,
      "KI": 2883,
      "Lr": 2884,
      "fr": 2885,
      "nlq": 2886,
      "llVS": 2887,
      "sshet": 2888,
      "FWd": 2889,
      "lj": 2890,
      "sllZNe": 2891,
      "IIB": 2892,
      "IIP": 2893,
      "atw": 2894,
      "QVsld": 2895,
      "QVsWd": 2896,
      "814": 2897,
      "RNr": 2898,
      "TNu": 2899,
      "boc": 2900,
      "pC": 2901,
      "yS": 2902,
      "WZnNZ": 2903,
      "aJtt": 2904,
      "fNV": 2905,
      "niQ": 2906,
      "zvEq": 2907,
      "DIq": 2908,
      "LU": 2909,
      "bIN": 2910,
      "IwC": 2911,
      "strNd": 2912,
      "UnQNsQ": 2913,
      "LF": 2914,
      "dn": 2915,
      "fY": 2916,
      "fVs": 2917,
      "tJs": 2918,
      "zY": 2919,
      "NNeN": 2920,
      "wwE": 2921,
      "262": 2922,
      "eT!N": 2923,
      "WVw": 2924,
      "CsTe": 2925,
      "fNv": 2926,
      "TllH": 2927,
      "!I": 2928,
      "CG": 2929,
      "Mh": 2930,
      "TNr": 2931,
      "UWW": 2932,
      "hu": 2933,
      "pF": 2934,
      "lVra": 2935,
      "161": 2936,
      "WNnNZ": 2937,
      "lsTeG": 2938,
      "WsN!t": 2939,
      "411": 2940,
      "Vl": 2941,
      "tAa": 2942,
      "sua": 2943,
      "naZ": 2944,
      "ANU": 2945,
      "Wnnc": 2946,
      "82222": 2947,
      "Aw": 2948,
      "RY": 2949,
      "ZDa": 2950,
      "WZh": 2951,
      "dhS": 2952,
      "DQ": 2953,
      "TQ": 2954,
      "NsU": 2955,
      "Ndf": 2956,
      "nZJ": 2957,
      "NrZ": 2958,
      "sSNdhllN": 2959,
      "WsNAt": 2960,
      "strNdaJ": 2961,
      "GF": 2962,
      "Nlq": 2963,
      "Wds": 2964,
      "dB": 2965,
      "mY": 2966,
      "oqD": 2967,
      "qQN": 2968,
      "trZ": 2969,
      "828": 2970,
      "aJat": 2971,
      "tnnw": 2972,
      "!sW": 2973,
      "4241": 2974,
      "Cn": 2975,
      "EY": 2976,
      "GO": 2977,
      "JWb": 2978,
      "Kj": 2979,
      "Mw": 2980,
      "blh": 2981,
      "oD": 2982,
      "pqs": 2983,
      "xZ": 2984,
      "wIw": 2985,
      "Wh!s": 2986,
      "wZG": 2987,
      "JWNn": 2988,
      "ggmB": 2989,
      "sUnth": 2990,
      "!u": 2991,
      "KYqq": 2992,
      "ez": 2993,
      "psq": 2994,
      "qla": 2995,
      "tv": 2996,
      "Jso": 2997,
      "ssl": 2998,
      "RyI": 2999,
      "gu": 3000,
      "vz": 3001,
      "wDa": 3002,
      "xP": 3003,
      "yIY": 3004,
      "GJ": 3005,
      "IWO": 3006,
      "NP": 3007,
      "dC": 3008,
      "ef": 3009,
      "eqf": 3010,
      "mS": 3011,
      "pQ": 3012,
      "tVt": 3013,
      "lldG": 3014,
      "ahS": 3015,
      "NsJ": 3016,
      "TNZt": 3017,
      "744": 3018,
      "Rn": 3019,
      "TM": 3020,
      "iF": 3021,
      "ij": 3022,
      "mIc": 3023,
      "nls": 3024,
      "pD": 3025,
      "uwI": 3026,
      "nrNd": 3027,
      "naJ": 3028,
      "Zla": 3029,
      "Ats": 3030,
      "Ols": 3031,
      "UX": 3032,
      "XX": 3033,
      "gG": 3034,
      "IqI": 3035,
      "zBb": 3036,
      "bav": 3037,
      "bgh": 3038,
      "zLCq": 3039,
      "ieqf": 3040,
      "mIz": 3041,
      "rE": 3042,
      "swI": 3043,
      "xY": 3044,
      "xh": 3045,
      "BwQ": 3046,
      "!sWt": 3047,
      "REo": 3048,
      "Jft": 3049,
      "aj": 3050,
      "bNe": 3051,
      "cK": 3052,
      "lE": 3053,
      "rNs": 3054,
      "wOg": 3055,
      "NqQ": 3056,
      "YIvmn": 3057,
      "Ihbn": 3058,
      "RQ": 3059,
      "Sn": 3060,
      "VU": 3061,
      "aDb": 3062,
      "jN": 3063,
      "qT": 3064,
      "wDt": 3065,
      "x!": 3066,
      "WaZ": 3067,
      "nqEny": 3068,
      "NQl": 3069,
      "eVSere": 3070,
      "mza": 3071,
      "KA": 3072,
      "rX": 3073,
      "zDN": 3074,
      "bDZ": 3075,
      "WDZ": 3076,
      "ldsWNZ": 3077,
      "VtWly": 3078,
      "07": 3079,
      "WNs": 3080,
      "tG": 3081,
      "tVZ": 3082,
      "yv": 3083,
      "841": 3084,
      "nZl": 3085,
      "lhrt": 3086,
      "atnw": 3087,
      "IDr": 3088,
      "688": 3089,
      "Flh": 3090,
      "IWN": 3091,
      "JJt": 3092,
      "ell": 3093,
      "slJZNe": 3094,
      "bnm": 3095,
      "aVt": 3096,
      "Ma": 3097,
      "Oj": 3098,
      "mV": 3099,
      "JsJ": 3100,
      "NnJ": 3101,
      "GdIQ": 3102,
      "EEw": 3103,
      "!NNeNN": 3104,
      "50": 3105,
      "BH": 3106,
      "INb": 3107,
      "KT": 3108,
      "qe": 3109,
      "rJN": 3110,
      "sT": 3111,
      "llO": 3112,
      "nBZ": 3113,
      "IhFn": 3114,
      "24821": 3115,
      "AL": 3116,
      "MZ": 3117,
      "QO": 3118,
      "YU": 3119,
      "bnZ": 3120,
      "gm": 3121,
      "urA": 3122,
      "vJ": 3123,
      "xt": 3124,
      "IwJ": 3125,
      "FtZ": 3126,
      "Mq": 3127,
      "Si": 3128,
      "ZWW": 3129,
      "bqq": 3130,
      "saht": 3131,
      "IIE": 3132,
      "IZC": 3133,
      "hsgh": 3134,
      "ggbB": 3135,
      "Dub": 3136,
      "Go": 3137,
      "Sd": 3138,
      "qfN": 3139,
      "Nqaa": 3140,
      "zhCq": 3141,
      "zhnq": 3142,
      "4821": 3143,
      "zLEq": 3144,
      "oxd": 3145,
      "Jp": 3146,
      "Op": 3147,
      "ONw": 3148,
      "UK": 3149,
      "jE": 3150,
      "nnc": 3151,
      "bDB": 3152,
      "tWw": 3153,
      "eTd": 3154,
      "NsW": 3155,
      "QK": 3156,
      "anw": 3157,
      "hC": 3158,
      "mmX": 3159,
      "Iwg": 3160,
      "nIOc": 3161,
      "bDD": 3162,
      "dsr": 3163,
      "WwnNw": 3164,
      "sZd": 3165,
      "WVZ": 3166,
      "rehJs": 3167,
      "Av": 3168,
      "LR": 3169,
      "Mo": 3170,
      "nNn": 3171,
      "116": 3172,
      "bRqr": 3173,
      "zvCq": 3174,
      "BdL": 3175,
      "73": 3176,
      "922": 3177,
      "LA": 3178,
      "Tp": 3179,
      "bOw": 3180,
      "aWd": 3181,
      "stU": 3182,
      "bgv": 3183,
      "bCv": 3184,
      "!h": 3185,
      "Ind": 3186,
      "Ky": 3187,
      "aQ": 3188,
      "bG": 3189,
      "erz": 3190,
      "flw": 3191,
      "fEw": 3192,
      "oNN": 3193,
      "WWQ": 3194,
      "Nstt": 3195,
      "JqD": 3196,
      "OwI": 3197,
      "XnG": 3198,
      "eo": 3199,
      "hD": 3200,
      "iP": 3201,
      "uc": 3202,
      "NNd": 3203,
      "ANu": 3204,
      "aNtr": 3205,
      "las": 3206,
      "IOx": 3207,
      "snW": 3208,
      "294": 3209,
      "FNZ": 3210,
      "LK": 3211,
      "VNZ": 3212,
      "cM": 3213,
      "hn": 3214,
      "lk": 3215,
      "mnw": 3216,
      "uR": 3217,
      "Nnt": 3218,
      "Neu": 3219,
      "WNz": 3220,
      "ssV": 3221,
      "NzN": 3222,
      "srnth": 3223,
      "GILmn": 3224,
      "drNnl": 3225,
      "haWl": 3226,
      "SE": 3227,
      "fy": 3228,
      "vFn": 3229,
      "NNssW": 3230,
      "ssZ": 3231,
      "nOw": 3232,
      "cwZ": 3233,
      "Nqt": 3234,
      "ehJq": 3235,
      "WWtrN": 3236,
      "VI": 3237,
      "Wtt": 3238,
      "Bwf": 3239,
      "bRs": 3240,
      "dlNZ": 3241,
      "gOmB": 3242,
      "CU": 3243,
      "PIw": 3244,
      "RR": 3245,
      "Xg": 3246,
      "Xll": 3247,
      "nX": 3248,
      "wDg": 3249,
      "lqW": 3250,
      "bgL": 3251,
      "rZe": 3252,
      "SWrzhJs": 3253,
      "Ax": 3254,
      "Qf": 3255,
      "ST": 3256,
      "Vy": 3257,
      "wNe": 3258,
      "244": 3259,
      "tt!s": 3260,
      "628": 3261,
      "mDB": 3262,
      "qOs": 3263,
      "qOt": 3264,
      "CDb": 3265,
      "JwZ": 3266,
      "WDD": 3267,
      "cwI": 3268,
      "dVs": 3269,
      "qbn": 3270,
      "ah!s": 3271,
      "NslJ": 3272,
      "lrp": 3273,
      "srnOh": 3274,
      "rdWh": 3275,
      "ubeT": 3276,
      "Et": 3277,
      "FK": 3278,
      "IWr": 3279,
      "MNq": 3280,
      "hT": 3281,
      "izB": 3282,
      "rD": 3283,
      "ssS": 3284,
      "EN": 3285,
      "Kqg": 3286,
      "VD": 3287,
      "fG": 3288,
      "mbX": 3289,
      "vC": 3290,
      "WWWa": 3291,
      "sual": 3292,
      "OOw": 3293,
      "rNF": 3294,
      "arS": 3295,
      "ONOr": 3296,
      "ImIc": 3297,
      "GRIQ": 3298,
      "GII": 3299,
      "N!ANN": 3300,
      "UON": 3301,
      "oR": 3302,
      "lJq": 3303,
      "DDZ": 3304,
      "Tdl": 3305,
      "Ym": 3306,
      "fqW": 3307,
      "qUnah": 3308,
      "sNa": 3309,
      "trar": 3310,
      "nZC": 3311,
      "Jqn": 3312,
      "naw": 3313,
      "lVM": 3314,
      "ldsWNw": 3315,
      "Kz": 3316,
      "LC": 3317,
      "Yc": 3318,
      "Ys": 3319,
      "dR": 3320,
      "NNt": 3321,
      "214": 3322,
      "lW!!": 3323,
      "thZ": 3324,
      "FWh": 3325,
      "NWN": 3326,
      "SNu": 3327,
      "dY": 3328,
      "rte": 3329,
      "uZWt": 3330,
      "yng": 3331,
      "bON": 3332,
      "tsZ": 3333,
      "ANfQ": 3334,
      "sUnOh": 3335,
      "WsNAa": 3336,
      "ANdQ": 3337,
      "Daa": 3338,
      "LD": 3339,
      "ZnJ": 3340,
      "dO": 3341,
      "jr": 3342,
      "oP": 3343,
      "rWs": 3344,
      "sTe": 3345,
      "tM": 3346,
      "bOwI": 3347,
      "166": 3348,
      "JW!!": 3349,
      "!Nc": 3350,
      "QM": 3351,
      "SP": 3352,
      "gQ": 3353,
      "qWa": 3354,
      "vY": 3355,
      "llA": 3356,
      "1824": 3357,
      "NzNN": 3358,
      "Sx": 3359,
      "jl": 3360,
      "sla": 3361,
      "WZI": 3362,
      "mDwI": 3363,
      "stal": 3364,
      "sdA": 3365,
      "K!": 3366,
      "Kn": 3367,
      "cww": 3368,
      "eE": 3369,
      "pI": 3370,
      "vl": 3371,
      "Nnds": 3372,
      "BBx": 3373,
      "ZQF": 3374,
      "sSNR": 3375,
      "zhJq": 3376,
      "lJZWh": 3377,
      "dZr": 3378,
      "BJs": 3379,
      "VeN": 3380,
      "fU": 3381,
      "NNWWZ": 3382,
      "bDN": 3383,
      "aWr": 3384,
      "yIG": 3385,
      "!!NN": 3386,
      "Ihmn": 3387,
      "JdsW": 3388,
      "MO": 3389,
      "QG": 3390,
      "RqD": 3391,
      "TWL": 3392,
      "Uj": 3393,
      "ax": 3394,
      "bNZ": 3395,
      "blV": 3396,
      "hI": 3397,
      "WsJ": 3398,
      "resf": 3399
    },
    "merges": [
      "N N",
      "2 2",
      "J s",
      "W W",
      "2 4",
      "l l",
      "W t",
      "N Z",
      "N n",
      "s W",
      "W s",
      "r e",
      "w I",
      "N e",
      "l J",
      "a h",
      "N s",
      "N d",
      "2 1",
      "t r",
      "W N",
      "q D",
      "8 4",
      "n Z",
      "t t",
      "l s",
      "a a",
      "w w",
      "W Z",
      "I w",
      "1 1",
      "n I",
      "t Z",
      "b n",
      "W e",
      "W a",
      "2 6",
      "8 2",
      "N w",
      "s s",
      "4 4",
      "a l",
      "b O",
      "t N",
      "n w",
      "b D",
      "n O",
      "t W",
      "a W",
      "4 2",
      "n r",
      "I q",
      "c w",
      "I I",
      "l h",
      "J q",
      "N r",
      "W h",
      "b c",
      "s u",
      "n N",
      "l q",
      "6 2",
      "l W",
      "C q",
      "b B",
      "d s",
      "1 2",
      "N q",
      "m n",
      "D D",
      "r z",
      "N b",
      "O O",
      "e h",
      "I s",
      "w Z",
      "I z",
      "n a",
      "l V",
      "s a",
      "7 8",
      "n B",
      "W d",
      "W O",
      "W b",
      "d h",
      "D O",
      "c c",
      "t s",
      "n q",
      "W r",
      "n c",
      "e N",
      "m D",
      "a t",
      "E q",
      "1 6",
      "2 7",
      "n t",
      "J N",
      "Z l",
      "b w",
      "1 8",
      "A N",
      "r N",
      "I e",
      "B w",
      "e T",
      "a N",
      "l N",
      "q O",
      "V s",
      "T e",
      "D b",
      "4 1",
      "W w",
      "a r",
      "J Z",
      "N z",
      "l r",
      "s r",
      "q q",
      "l w",
      "I B",
      "s Z",
      "a n",
      "6 4",
      "g I",
      "s t",
      "O w",
      "B B",
      "l Z",
      "a J",
      "b R",
      "I D",
      "c N",
      "J W",
      "d r",
      "t e",
      "m B",
      "l a",
      "Z Z",
      "W D",
      "6 8",
      "z B",
      "D N",
      "Q N",
      "b N",
      "I Z",
      "b a",
      "D h",
      "q W",
      "Z Q",
      "c B",
      "6 24",
      "q g",
      "Z d",
      "w l",
      "s q",
      "! s",
      "N l",
      "D c",
      "W V",
      "b b",
      "t w",
      "q a",
      "N Q",
      "f c",
      "s S",
      "C w",
      "f B",
      "I g",
      "n g",
      "n s",
      "J r",
      "6 1",
      "b g",
      "D w",
      "O N",
      "W q",
      "D B",
      "I N",
      "C s",
      "a V",
      "J e",
      "J t",
      "n U",
      "A a",
      "l t",
      "c d",
      "z q",
      "1 4",
      "l d",
      "z h",
      "q t",
      "z N",
      "w Q",
      "D g",
      "I c",
      "J w",
      "I O",
      "U n",
      "W c",
      "e t",
      "q s",
      "Z N",
      "D a",
      "o B",
      "! N",
      "4 8",
      "D q",
      "A t",
      "G d",
      "z c",
      "w N",
      "E E",
      "e s",
      "f N",
      "W u",
      "m O",
      "8 1",
      "F n",
      "7 2",
      "W B",
      "r r",
      "h s",
      "b m",
      "l A",
      "O c",
      "n l",
      "Q Z",
      "q B",
      "O B",
      "S W",
      "d V",
      "e W",
      "O D",
      "g g",
      "o c",
      "t a",
      "e V",
      "m R",
      "Y I",
      "b Z",
      "y I",
      "D v",
      "O g",
      "B b",
      "h a",
      "B N",
      "G I",
      "I r",
      "w d",
      "q N",
      "n n",
      "7 1",
      "w J",
      "m z",
      "l e",
      "q r",
      "E w",
      "Z J",
      "D V",
      "w f",
      "I i",
      "O q",
      "n i",
      "N c",
      "O r",
      "re h",
      "W z",
      "N f",
      "! Q",
      "I f",
      "I b",
      "N t",
      "E z",
      "D t",
      "q i",
      "a Z",
      "N F",
      "N u",
      "W g",
      "9 4",
      "h t",
      "c R",
      "O Z",
      "N a",
      "g D",
      "w B",
      "m c",
      "6 6",
      "r t",
      "I P",
      "a D",
      "z v",
      "O o",
      "z L",
      "r n",
      "B d",
      "1 9",
      "r a",
      "c Z",
      "q E",
      "V Z",
      "s n",
      "b C",
      "7 6",
      "B R",
      "A s",
      "b y",
      "t n",
      "O W",
      "T n",
      "9 2",
      "U l",
      "q w",
      "B c",
      "r G",
      "l y",
      "a w",
      "8 7",
      "A A",
      "D Z",
      "J J",
      "U N",
      "U e",
      "q f",
      "B Z",
      "n ah",
      "V t",
      "b s",
      "c s",
      "a e",
      "b t",
      "n e",
      "f t",
      "V S",
      "e L",
      "I m",
      "b d",
      "w z",
      "! A",
      "Ne re",
      "q Z",
      "s d",
      "w e",
      "c f",
      "m y",
      "C Z",
      "G R",
      "r d",
      "D L",
      "W U",
      "2 8",
      "W J",
      "e v",
      "9 9",
      "N R",
      "D E",
      "m P",
      "b T",
      "Q B",
      "r s",
      "D s",
      "O E",
      "q C",
      "n W",
      "4 6",
      "b A",
      "a U",
      "O s",
      "w E",
      "D W",
      "Q s",
      "B z",
      "f !",
      "h e",
      "n b",
      "6 7",
      "O t",
      "m i",
      "w s",
      "n z",
      "b x",
      "g i",
      "c q",
      "r Z",
      "I Q",
      "O !",
      "n d",
      "w C",
      "2 9",
      "b q",
      "A B",
      "U a",
      "W l",
      "w c",
      "T N",
      "4 7",
      "I E",
      "Z Wt",
      "624 1",
      "t A",
      "T d",
      "n J",
      "c y",
      "w a",
      "O x",
      "n y",
      "N J",
      "Z p",
      "i B",
      "N B",
      "w g",
      "l U",
      "WW Z",
      "R E",
      "l C",
      "h q",
      "N !",
      "m g",
      "s U",
      "v g",
      "l I",
      "e a",
      "c Q",
      "v O",
      "Z C",
      "z g",
      "E s",
      "N m",
      "q u",
      "U t",
      "s Q",
      "V q",
      "F a",
      "I W",
      "D r",
      "F l",
      "O C",
      "2 0",
      "b X",
      "b W",
      "t !",
      "N A",
      "f A",
      "b o",
      "i c",
      "f E",
      "a s",
      "! q",
      "! e",
      "Z u",
      "b E",
      "w q",
      "W Nn",
      "Q c",
      "b l",
      "n h",
      "Q !",
      "m I",
      "x B",
      "O h",
      "7 4",
      "t U",
      "ls Te",
      "C N",
      "r U",
      "E D",
      "s J",
      "q c",
      "Z e",
      "Nd h",
      "O y",
      "m X",
      "C v",
      "s l",
      "t J",
      "SW reh",
      "A c",
      "V e",
      "F X",
      "b I",
      "Q A",
      "f o",
      "w y",
      "T J",
      "! !",
      "c o",
      "D d",
      "g r",
      "v B",
      "q P",
      "D o",
      "w R",
      "T a",
      "n G",
      "E i",
      "Z W",
      "z a",
      "Z I",
      "Q l",
      "C B",
      "O I",
      "f x",
      "O l",
      "O i",
      "D i",
      "r B",
      "N W",
      "t h",
      "g w",
      "z V",
      "t u",
      "Z y",
      "eT A",
      "m T",
      "e g",
      "O J",
      "t S",
      "g W",
      "z t",
      "q Q",
      "d A",
      "N U",
      "22 2",
      "N S",
      "F T",
      "I h",
      "a C",
      "d G",
      "m K",
      "s D",
      "a A",
      "d l",
      "R B",
      "W n",
      "m Z",
      "ll Z",
      "t q",
      "g E",
      "I F",
      "d !",
      "NN Z",
      "a B",
      "m w",
      "I y",
      "i e",
      "lJ Z",
      "D P",
      "6 9",
      "O V",
      "l c",
      "D C",
      "D R",
      "n K",
      "w F",
      "r c",
      "z O",
      "o x",
      "0 2",
      "U B",
      "s w",
      "a c",
      "o L",
      "C C",
      "I x",
      "K B",
      "N p",
      "e c",
      "24 1",
      "R c",
      "l B",
      "A NN",
      "b P",
      "I V",
      "W v",
      "8 6",
      "U h",
      "Y R",
      "g O",
      "d Z",
      "U J",
      "O G",
      "s N",
      "l n",
      "r A",
      "g B",
      "G h",
      "G Z",
      "n D",
      "v M",
      "eh Nere",
      "a Js",
      "m N",
      "F J",
      "r tN",
      "E I",
      "d J",
      "1 7",
      "O A",
      "C J",
      "w P",
      "T t",
      "F R",
      "o o",
      "w Y",
      "D l",
      "e B",
      "D z",
      "a I",
      "m d",
      "e X",
      "9 1",
      "Q S",
      "! t",
      "e S",
      "e u",
      "ll d",
      "z W",
      "e b",
      "C L",
      "U c",
      "m E",
      "C E",
      "Js Te",
      "g P",
      "q d",
      "O a",
      "We s",
      "C o",
      "i z",
      "M B",
      "D x",
      "y B",
      "Wt Z",
      "0 1",
      "F B",
      "w u",
      "W L",
      "f J",
      "f Z",
      "q J",
      "h N",
      "w n",
      "D m",
      "z T",
      "v S",
      "q l",
      "w b",
      "21 1",
      "D y",
      "q R",
      "p l",
      "a L",
      "9 6",
      "ll t",
      "C W",
      "n m",
      "O v",
      "q U",
      "r u",
      "! B",
      "C c",
      "h B",
      "i i",
      "q x",
      "Y z",
      "n V",
      "Q J",
      "a d",
      "0 0",
      "F y",
      "z X",
      "q y",
      "D J",
      "dr Nn",
      "c u",
      "b !",
      "b J",
      "O P",
      "a u",
      "t l",
      "c E",
      "a v",
      "V N",
      "We J",
      "w W",
      "I l",
      "g d",
      "r S",
      "b bc",
      "I J",
      "I n",
      "t B",
      "f l",
      "nO h",
      "o s",
      "N T",
      "F h",
      "nt u",
      "z s",
      "b i",
      "f s",
      "U U",
      "o g",
      "a q",
      "q S",
      "o O",
      "! Z",
      "8 8",
      "v c",
      "64 8",
      "a O",
      "WN !",
      "C V",
      "C x",
      "w m",
      "4 0",
      "h Z",
      "d t",
      "I R",
      "w r",
      "W m",
      "c A",
      "F N",
      "I A",
      "C h",
      "bw f",
      "sS Ndh",
      "P P",
      "! NN",
      "I t",
      "g h",
      "g c",
      "o q",
      "p d",
      "e NN",
      "F W",
      "S e",
      "n R",
      "F t",
      "I !",
      "L G",
      "F c",
      "g Z",
      "44 8",
      "y b",
      "r !",
      "n x",
      "e J",
      "g q",
      "D !",
      "r O",
      "r l",
      "0 8",
      "C m",
      "n A",
      "d W",
      "E b",
      "Z G",
      "B l",
      "L bn",
      "F O",
      "w t",
      "w G",
      "U V",
      "n NZ",
      "Un ah",
      "B e",
      "q h",
      "r p",
      "s ll",
      "T W",
      "C b",
      "I X",
      "n P",
      "Q h",
      "B y",
      "A T",
      "a p",
      "SWreh Js",
      "f w",
      "i Y",
      "l v",
      "R h",
      "Z R",
      "l b",
      "L g",
      "r R",
      "f S",
      "n Nw",
      "9 0",
      "z b",
      "J a",
      "9 7",
      "eT !",
      "lV S",
      "G Q",
      "g n",
      "u Z",
      "t D",
      "C !",
      "z E",
      "I a",
      "Q w",
      "A e",
      "C i",
      "L M",
      "o y",
      "Z f",
      "u w",
      "J d",
      "g N",
      "l D",
      "n !",
      "R s",
      "Q t",
      "4 9",
      "Z c",
      "m q",
      "A y",
      "Z F",
      "1 82",
      "C r",
      "I o",
      "W !",
      "z D",
      "z w",
      "c !",
      "0 6",
      "m s",
      "nO L",
      "q !",
      "m r",
      "m W",
      "o v",
      "t d",
      "B n",
      "a g",
      "z R",
      "h l",
      "K q",
      "t c",
      "f a",
      "J U",
      "v E",
      "J b",
      "A q",
      "o E",
      "V G",
      "L B",
      "I G",
      "y N",
      "e O",
      "u l",
      "i G",
      "m x",
      "C l",
      "d N",
      "J !",
      "w i",
      "y c",
      "W F",
      "V a",
      "W A",
      "E B",
      "Wt rN",
      "q o",
      "r b",
      "1 3",
      "sW d",
      "Z w",
      "W i",
      "x x",
      "g U",
      "bw Q",
      "NZ Wt",
      "E c",
      "I H",
      "nZ G",
      "r q",
      "bD v",
      "T l",
      "Z B",
      "Ws N",
      "! a",
      "c b",
      "y f",
      "T z",
      "m U",
      "L mn",
      "l L",
      "s lJ",
      "p N",
      "W NN",
      "y y",
      "c O",
      "l G",
      "P g",
      "1 0",
      "r Q",
      "J A",
      "b f",
      "l O",
      "o N",
      "I C",
      "O L",
      "n v",
      "F g",
      "l !",
      "p h",
      "N WW",
      "i n",
      "rz h",
      "22 1",
      "V O",
      "W P",
      "w D",
      "d e",
      "8 0",
      "ll N",
      "K c",
      "Ws Tn",
      "f C",
      "P B",
      "g R",
      "V w",
      "G s",
      "X N",
      "z x",
      "g a",
      "l p",
      "Z n",
      "s f",
      "9 8",
      "i R",
      "M c",
      "v bn",
      "O b",
      "F D",
      "N y",
      "q n",
      "F P",
      "g t",
      "O R",
      "s tr",
      "e l",
      "m A",
      "J z",
      "r w",
      "I U",
      "sr nah",
      "d U",
      "b h",
      "lJ t",
      "m a",
      "d Wh",
      "t V",
      "g z",
      "J l",
      "J B",
      "g e",
      "y E",
      "d p",
      "m f",
      "7 7",
      "9 3",
      "J F",
      "q A",
      "v s",
      "Js W",
      "T S",
      "I L",
      "X B",
      "Q x",
      "r f",
      "s Wt",
      "u fc",
      "Z P",
      "h bn",
      "QN h",
      "E P",
      "N G",
      "I K",
      "Z t",
      "a G",
      "q G",
      "y w",
      "O n",
      "A V",
      "c i",
      "g K",
      "b NN",
      "y Y",
      "B s",
      "W I",
      "d d",
      "g x",
      "A h",
      "O e",
      "W R",
      "r F",
      "E e",
      "E R",
      "A l",
      "S s",
      "V B",
      "u a",
      "w Wt",
      "r h",
      "w p",
      "Y e",
      "Z T",
      "s Unah",
      "I d",
      "c J",
      "c l",
      "w K",
      "tr tr",
      "al at",
      "R N",
      "c x",
      "s M",
      "na V",
      "5 4",
      "w !",
      "Q Vs",
      "Ns Q",
      "nt h",
      "c e",
      "re N",
      "m wf",
      "bb X",
      "fB L",
      "U z",
      "s F",
      "c C",
      "A n",
      "R x",
      "ah t",
      "q I",
      "U r",
      "l T",
      "Q r",
      "c g",
      "s h",
      "WW w",
      "O z",
      "x e",
      "nr f",
      "t z",
      "D U",
      "i N",
      "s e",
      "B m",
      "y z",
      "F d",
      "U JN",
      "! b",
      "B i",
      "R a",
      "0 9",
      "h Fn",
      "t i",
      "A Nd",
      "nZ Js",
      "I qD",
      "D u",
      "T su",
      "u e",
      "y l",
      "g l",
      "s p",
      "8 9",
      "B E",
      "c z",
      "A O",
      "I v",
      "V W",
      "X e",
      "nO v",
      "L E",
      "C t",
      "Q q",
      "X x",
      "a i",
      "L Y",
      "l R",
      "T F",
      "c n",
      "22 4",
      "bD h",
      "Z Wa",
      "d a",
      "r m",
      "B K",
      "A J",
      "y Z",
      "g o",
      "W C",
      "L YI",
      "b F",
      "D G",
      "Y E",
      "U G",
      "C R",
      "X J",
      "s !",
      "a !",
      "O d",
      "X d",
      "g y",
      "n p",
      "Q o",
      "Nd s",
      "Q e",
      "b K",
      "G qq",
      "1 84",
      "s i",
      "r i",
      "D A",
      "s tt",
      "t I",
      "0 4",
      "P i",
      "g s",
      "r J",
      "v N",
      "a z",
      "g A",
      "l sW",
      "C O",
      "v G",
      "n S",
      "Ne rz",
      "g !",
      "p J",
      "Nn Z",
      "a y",
      "r W",
      "M D",
      "6 0",
      "I Y",
      "eh Js",
      "! z",
      "F C",
      "ll w",
      "h tW",
      "R D",
      "qD Iw",
      "3 4",
      "y J",
      "E x",
      "Q Q",
      "l z",
      "p a",
      "n o",
      "N X",
      "O S",
      "WW ZN",
      "V u",
      "w x",
      "b r",
      "h G",
      "n F",
      "v t",
      "c r",
      "y m",
      "y e",
      "n tZ",
      "G E",
      "R q",
      "Z a",
      "rn Q",
      "P z",
      "i x",
      "g C",
      "m t",
      "y Q",
      "3 2",
      "O U",
      "4 82",
      "V M",
      "l F",
      "v q",
      "C e",
      "y W",
      "K X",
      "U d",
      "B A",
      "D e",
      "B J",
      "o !",
      "C z",
      "p Z",
      "v mn",
      "b Q",
      "f O",
      "3 9",
      "B r",
      "C D",
      "T NZ",
      "z f",
      "2 5",
      "R w",
      "b S",
      "P O",
      "n Y",
      "K x",
      "R O",
      "tr n",
      "G N",
      "y F",
      "24 8",
      "b U",
      "l i",
      "nU Wu",
      "L e",
      "T A",
      "i E",
      "u f",
      "m h",
      "n L",
      "wI B",
      "b bB",
      "tN tr",
      "d q",
      "S l",
      "m m",
      "n cw",
      "s C",
      "c t",
      "d Q",
      "h mn",
      "o V",
      "w O",
      "24 82",
      "Nd tW",
      "bm X",
      "p W",
      "NZ Z",
      "bb T",
      "m l",
      "u t",
      "B F",
      "N O",
      "N D",
      "y x",
      "nO V",
      "C A",
      "T !",
      "Z z",
      "nr Q",
      "R t",
      "E m",
      "y !",
      "L z",
      "w U",
      "L S",
      "a P",
      "s O",
      "C I",
      "g Y",
      "S J",
      "q M",
      "F A",
      "l ds",
      "s B",
      "84 4",
      "bn c",
      "Z E",
      "ss h",
      "c a",
      "V sW",
      "p t",
      "T u",
      "W K",
      "ld sW",
      "G b",
      "a ls",
      "X n",
      "Z b",
      "Z X",
      "x q",
      "P q",
      "U O",
      "o A",
      "4 3",
      "m J",
      "dh tr",
      "v w",
      "x c",
      "s I",
      "h A",
      "Ws Ta",
      "G f",
      "z J",
      "w X",
      "r V",
      "B I",
      "Y qq",
      "d b",
      "h g",
      "! c",
      "L O",
      "a S",
      "y D",
      "B C",
      "R o",
      "e F",
      "bZ f",
      "e Z",
      "w A",
      "7 5",
      "R z",
      "s y",
      "Ws Tt",
      "W S",
      "g J",
      "a Jq",
      "t O",
      "U A",
      "Z D",
      "Nd aJ",
      "We l",
      "l NZ",
      "21 2",
      "R V",
      "T ll",
      "Y d",
      "E y",
      "h J",
      "K N",
      "u rU",
      "Nn tu",
      "a T",
      "ll a",
      "na L",
      "r I",
      "v Z",
      "L i",
      "f Q",
      "W o",
      "R b",
      "W sW",
      "ss lJ",
      "V A",
      "X a",
      "u Q",
      "B q",
      "n ds",
      "y G",
      "I T",
      "c G",
      "v x",
      "s sW",
      "C S",
      "P D",
      "f q",
      "Zd !",
      "rG s",
      "e drNn",
      "o w",
      "e m",
      "! r",
      "b ah",
      "o t",
      "u b",
      "2 3",
      "h O",
      "lW @",
      "s g",
      "Q F",
      "e q",
      "WN A",
      "N I",
      "Q a",
      "p U",
      "z P",
      "B !",
      "fB h",
      "V g",
      "w T",
      "J S",
      "J NZ",
      "o e",
      "eV Nere",
      "P h",
      "e p",
      "c T",
      "F U",
      "b u",
      "x y",
      "C d",
      "C y",
      "X c",
      "aa W",
      "Y V",
      "e re",
      "lJ d",
      "J I",
      "m Q",
      "r Nb",
      "wI P",
      "B G",
      "o h",
      "J h",
      "i m",
      "c X",
      "P t",
      "an nw",
      "N K",
      "r M",
      "bO v",
      "E K",
      "Z m",
      "C F",
      "z i",
      "P c",
      "V m",
      "z m",
      "lJ w",
      "M W",
      "f i",
      "! d",
      "C g",
      "W NZ",
      "e w",
      "G x",
      "h aW",
      "Y q",
      "NQ WNn",
      "G su",
      "g v",
      "q aa",
      "u r",
      "x N",
      "Z q",
      "Z s",
      "Nd aW",
      "D I",
      "J m",
      "T T",
      "1 44",
      "E o",
      "l m",
      "p r",
      "w nl",
      "ah a",
      "! F",
      "7 0",
      "d Nr",
      "ss ll",
      "A g",
      "6 68",
      "l g",
      "bD L",
      "U tN",
      "R g",
      "re V",
      "eL nq",
      "p s",
      "L s",
      "h S",
      "G e",
      "B u",
      "s aa",
      "sW N",
      "al aa",
      "D K",
      "u A",
      "NZ l",
      "na u",
      "J V",
      "E L",
      "F Z",
      "U W",
      "e d",
      "E O",
      "G l",
      "T I",
      "X z",
      "nr Wu",
      "G qs",
      "w wI",
      "C f",
      "T Z",
      "h W",
      "fc L",
      "V tW",
      "n j",
      "QN V",
      "B a",
      "S r",
      "e D",
      "v a",
      "B x",
      "lZ Ws",
      "Q b",
      "!A NN",
      "fB v",
      "R !",
      "JW @",
      "TJ S",
      "A Q",
      "I u",
      "J O",
      "R r",
      "i r",
      "n C",
      "V r",
      "z Z",
      "J c",
      "K M",
      "u N",
      "a K",
      "Q C",
      "w OO",
      "dh ll",
      "B O",
      "R Z",
      "u d",
      "T b",
      "b IB",
      "z d",
      "Wd r",
      "A b",
      "E g",
      "G q",
      "A d",
      "F nZ",
      "t Q",
      "Ns Z",
      "l S",
      "na v",
      "J n",
      "Q V",
      "f R",
      "m o",
      "y i",
      "C H",
      "V bn",
      "e e",
      "h c",
      "y o",
      "11 1",
      "E Z",
      "X !",
      "Y i",
      "A !",
      "D Nn",
      "t g",
      "ss nah",
      "P Z",
      "V d",
      "C a",
      "K s",
      "b ZQ",
      "e !",
      "tt Z",
      "x z",
      "x m",
      "NN N",
      "s G",
      "lJ N",
      "nI gi",
      "K O",
      "bO L",
      "ds N",
      "Wb QN",
      "x g",
      "h w",
      "Wt w",
      "m wQ",
      "C P",
      "R G",
      "q z",
      "w o",
      "i o",
      "P r",
      "NN WW",
      "qD M",
      "bO h",
      "A r",
      "f f",
      "j d",
      "B o",
      "g L",
      "U i",
      "S N",
      "T s",
      "x O",
      "W G",
      "nr G",
      "mn c",
      "QZ Wt",
      "zL nq",
      "T x",
      "B g",
      "K f",
      "mz O",
      "E v",
      "f M",
      "y A",
      "Ns t",
      "Wr h",
      "nI g",
      "L q",
      "V z",
      "V c",
      "r aN",
      "d v",
      "NZ Wa",
      "P N",
      "U R",
      "bD V",
      "B U",
      "P s",
      "d o",
      "l o",
      "r K",
      "g Db",
      "v A",
      "rz N",
      "S A",
      "l Js",
      "mz g",
      "! O",
      "d x",
      "e G",
      "S Z",
      "i K",
      "! m",
      "X R",
      "i b",
      "s A",
      "eT! Nr",
      "R v",
      "X t",
      "x s",
      "f b",
      "fN h",
      "P w",
      "8 24",
      "p V",
      "z u",
      "NN e",
      "bn B",
      "i Q",
      "n Q",
      "tZ Z",
      "Ne N",
      "P x",
      "L m",
      "t WZ",
      "mD v",
      "fc v",
      "eTA V",
      "S h",
      "d F",
      "mn B",
      "l H",
      "t F",
      "C qD",
      "3 0",
      "K o",
      "U p",
      "l X",
      "r T",
      "y s",
      "D Ww",
      "N Js",
      "26 1",
      "Ie G",
      "e U",
      "i O",
      "j R",
      "A F",
      "F q",
      "f g",
      "h m",
      "b Nb",
      "z !",
      "a F",
      "t NZ",
      "L c",
      "f h",
      "Q W",
      "n Dv",
      "G w",
      "N Wd",
      "X I",
      "a R",
      "bc N",
      "We N",
      "ls N",
      "Wh rtN",
      "K w",
      "Z h",
      "b !Q",
      "g Iw",
      "i I",
      "e NNZ",
      "X E",
      "X m",
      "i U",
      "c m",
      "3 3",
      "R L",
      "D M",
      "G B",
      "P I",
      "A W",
      "Q T",
      "S S",
      "d z",
      "G W",
      "a NZ",
      "d L",
      "D NZ",
      "e I",
      "Un Q",
      "h y",
      "7 18",
      "N C",
      "P V",
      "x E",
      "G z",
      "P v",
      "nN YV",
      "P E",
      "e n",
      "o b",
      "3 7",
      "B t",
      "T m",
      "g V",
      "Ws N!",
      "l WN",
      "u y",
      "nZJs sS",
      "8 22",
      "B Y",
      "D n",
      "P m",
      "X A",
      "Js N",
      "Nd al",
      "O M",
      "o Z",
      "s b",
      "z F",
      "84 222",
      "U y",
      "s c",
      "l NN",
      "J NN",
      "al VS",
      "P a",
      "o a",
      "x i",
      "Gd G",
      "! w",
      "Z U",
      "Qh sWd",
      "Ne NN",
      "q V",
      "u B",
      "nI Or",
      "W p",
      "i d",
      "t nI",
      "Iw E",
      "G V",
      "r bA",
      "N h",
      "s Ns",
      "F ah",
      "Z !",
      "c V",
      "E W",
      "t b",
      "mZ f",
      "n f",
      "x b",
      "an nZ",
      "B Q",
      "Q U",
      "L y",
      "O Wb",
      "P o",
      "mD h",
      "Z r",
      "u J",
      "J H",
      "m IB",
      "1 5",
      "8 21",
      "Y w",
      "G sq",
      "M x",
      "h U",
      "t K",
      "Nn r",
      "al q",
      "D wI",
      "J lZ",
      "c F",
      "h F",
      "s V",
      "v !",
      "z o",
      "eTA Nr",
      "c I",
      "G r",
      "D X",
      "Q d",
      "r o",
      "y K",
      "eh nq",
      "dV tr",
      "sd !",
      "R i",
      "T B",
      "WW tr",
      "N Wes",
      "c U",
      "y V",
      "f d",
      "w WO",
      "nZ p",
      "D gI",
      "b V",
      "n M",
      "e K",
      "m C",
      "v d",
      "X l",
      "q L",
      "q tt",
      "zq f",
      "Qc h",
      "O m",
      "NN f",
      "mD L",
      "S z",
      "u rr",
      "i g",
      "44 4",
      "SW rzh",
      "X w",
      "b tZ",
      "o I",
      "Se re",
      "t p",
      "z I",
      "F Q",
      "Y DD",
      "NN A",
      "Nd V",
      "b su",
      "w j",
      "N g",
      "r g",
      "U F",
      "e R",
      "y O",
      "llZ Ne",
      "h z",
      "m F",
      "w DO",
      "L t",
      "P d",
      "V sa",
      "J D",
      "R W",
      "X b",
      "nt V",
      "7 9",
      "nw G",
      "S D",
      "Z j",
      "ll Ir",
      "dh ar",
      "I p",
      "R A",
      "Z A",
      "a b",
      "21 8",
      "Wh lV",
      "Ig r",
      "ON tr",
      "M P",
      "U C",
      "d sW",
      "o Q",
      "s nl",
      "X JN",
      "m !",
      "u trn",
      "5 2",
      "d WV",
      "g Wb",
      "n E",
      "X F",
      "r ss",
      "sW Z",
      "4 24",
      "Ws TW",
      "B f",
      "T c",
      "o z",
      "t nw",
      "aV Z",
      "o f",
      "s QN",
      "t lVS",
      "Js Nn",
      "lh Te",
      "J i",
      "O u",
      "S Q",
      "T lJ",
      "Y f",
      "w S",
      "y q",
      "D Nw",
      "O f",
      "P R",
      "x w",
      "z C",
      "edrNn l",
      "b mB",
      "rz qf",
      "C Q",
      "W Q",
      "W T",
      "j I",
      "5 1",
      "m u",
      "re sQ",
      "E r",
      "G m",
      "x I",
      "ANN eNN",
      "E C",
      "G !",
      "w Wa",
      "E H",
      "N i",
      "U aN",
      "X u",
      "G A",
      "O Db",
      "P L",
      "Q hs",
      "c Eq",
      "p R",
      "q b",
      "v y",
      "llZ Wh",
      "4 5",
      "N o",
      "e M",
      "U !",
      "X S",
      "q OO",
      "s WW",
      "ww Z",
      "F I",
      "tA n",
      "V b",
      "V mn",
      "e r",
      "p p",
      "Ns ll",
      "lN @",
      "W E",
      "b Ic",
      "bB B",
      "V F",
      "d S",
      "x o",
      "Js n",
      "ls Nn",
      "q ll",
      "nw Js",
      "U Z",
      "c L",
      "r aW",
      "16 4",
      "lq Te",
      "Wb Q",
      "sn ft",
      "QB L",
      "t C",
      "y R",
      "B h",
      "D Iw",
      "F p",
      "a X",
      "Iq W",
      "NQ W",
      "A tZ",
      "T o",
      "z r",
      "es Q",
      "! f",
      "J JZ",
      "T q",
      "Y P",
      "v o",
      "z z",
      "T r",
      "n Js",
      "ww d",
      "bc c",
      "A p",
      "D F",
      "J Q",
      "rz V",
      "lJZ Ne",
      "! g",
      "K Q",
      "T ru",
      "i C",
      "Nq tS",
      "fc h",
      "h tw",
      "o qg",
      "ss J",
      "6 3",
      "WW s",
      "E qD",
      "L w",
      "X q",
      "r NZ",
      "NdtW SWrehJs",
      "U g",
      "W x",
      "y C",
      "e lJ",
      "WN w",
      "27 1",
      "zv nq",
      "a tZ",
      "j V",
      "q v",
      "aA n",
      "a E",
      "We q",
      "h tZ",
      "p w",
      "q F",
      "q Wt",
      "y P",
      "bc B",
      "S c",
      "Iq y",
      "sa r",
      "I EE",
      "J o",
      "O Q",
      "S f",
      "a WZ",
      "r x",
      "s P",
      "22 6",
      "sW Iw",
      "R Nn",
      "c v",
      "i w",
      "n sr",
      "J @",
      "S U",
      "X W",
      "i h",
      "m NN",
      "r Ne",
      "WW d",
      "Iw l",
      "eTA h",
      "O K",
      "w ll",
      "wI N",
      "Nw Z",
      "Ig i",
      "ng h",
      "mO v",
      "R f",
      "e C",
      "nn y",
      "F nN",
      "c h",
      "o d",
      "Is y",
      "E ny",
      "G t",
      "e x",
      "! U",
      "B T",
      "Nd Q",
      "nI Oi",
      "ng L",
      "! K",
      "! W",
      "6 5",
      "G ww",
      "eh Nerz",
      "B X",
      "T R",
      "t nZ",
      "nI OB",
      "bB i",
      "GI Lbn",
      "G D",
      "L Z",
      "P W",
      "X o",
      "c D",
      "v u",
      "Nw Wt",
      "b Iz",
      "i A",
      "q m",
      "s m",
      "w nJ",
      "! n",
      "V Nr",
      "T K",
      "h WZ",
      "! S",
      "L N",
      "V Fn",
      "d i",
      "o m",
      "p n",
      "Wh As",
      "! V",
      "W lh",
      "Nn w",
      "Ns tS",
      "bn N",
      "1 21",
      "y n",
      "6 41",
      "nI B",
      "U w",
      "r ON",
      "x cu",
      "aa nZ",
      "rn f",
      "L a",
      "r y",
      "x F",
      "lZ We",
      "Nf l",
      "Q E",
      "h p",
      "Je s",
      "JsTe p",
      "R F",
      "z l",
      "lJ a",
      "AN Q",
      "K G",
      "L Fn",
      "M z",
      "O X",
      "ls sS",
      "Wd rN",
      "a Aa",
      "i f",
      "z NN",
      "I wI",
      "Q WW",
      "lA A",
      "K E",
      "Q m",
      "b ds",
      "y a",
      "Js Z",
      "re qf",
      "U m",
      "b Ie",
      "l K",
      "o n",
      "1 22",
      "M v",
      "O cw",
      "U T",
      "Y B",
      "D f",
      "h ll",
      "sSNdh ll",
      "8 5",
      "h r",
      "NZ p",
      "lsTe p",
      "! x",
      "J C",
      "NN Q",
      "bB b",
      "B p",
      "K D",
      "K g",
      "R m",
      "K Y",
      "e A",
      "s z",
      "g b",
      "b Wh",
      "e Q",
      "h d",
      "t P",
      "JN @",
      "U L",
      "U b",
      "mD gI",
      "NQ Q",
      "M L",
      "N Gh",
      "V NN",
      "X C",
      "e Ne",
      "N V",
      "i a",
      "y Iw",
      "p qq",
      "NN ss",
      "JZ Ws",
      "F s",
      "W y",
      "bB N",
      "D S",
      "J ts",
      "a WW",
      "Ns Zd",
      "bO c",
      "lh N",
      "Jq Te",
      "dh lJ",
      "QB h",
      "rnQ NsQ",
      "F r",
      "l WZ",
      "t o",
      "DO w",
      "G wZ",
      "t WW",
      "v m",
      "DD w",
      "F f",
      "L x",
      "N x",
      "wd !",
      "ni f",
      "A U",
      "I j",
      "Q p",
      "X oL",
      "e Ue",
      "Y r",
      "Z O",
      "i V",
      "E a",
      "s fN",
      "Nn l",
      "WO w",
      "3 6",
      "J x",
      "m e",
      "m nN",
      "y g",
      "y u",
      "bn b",
      "! l",
      "I sW",
      "d w",
      "s Jt",
      "s Nt",
      "t f",
      "C M",
      "F ZQ",
      "p e",
      "A m",
      "S lW",
      "b qi",
      "c W",
      "ww w",
      "48 211",
      "S B",
      "U eN",
      "W Iw",
      "h h",
      "t R",
      "t Wt",
      "ss lW",
      "nO u",
      "nt w",
      "AN f",
      "bR Nw",
      "! o",
      "5 6",
      "E F",
      "Y Z",
      "d K",
      "nr p",
      "Cq n",
      "P J",
      "z n",
      "Nf J",
      "S w",
      "z G",
      "Wt s",
      "O Js",
      "q K",
      "x V",
      "Nz rz",
      "WD w",
      "4 71",
      "j e",
      "16 8",
      "qW Iw",
      "P K",
      "sW r",
      "rz v",
      "Dc M",
      "Wc !",
      "GI hbn",
      "V p",
      "a nZ",
      "sa d",
      "L Iz",
      "M N",
      "P !",
      "c S",
      "f F",
      "s R",
      "Vs Z",
      "D lh",
      "l x",
      "t x",
      "WZ n",
      "oB u",
      "tA tZ",
      "C Wb",
      "J u",
      "U s",
      "W wI",
      "b z",
      "q wI",
      "q Ns",
      "ss d",
      "wN S",
      "dWh rtN",
      "y d",
      "al tt",
      "O T",
      "i zq",
      "SWreh ls",
      "a o",
      "f m",
      "n ft",
      "v e",
      "qO g",
      "D NN",
      "Zd A",
      "oc u",
      "21 22",
      "eh ls",
      "Is I",
      "Gd If",
      "I DD",
      "b WZ",
      "i !",
      "F w",
      "J G",
      "i Z",
      "u g",
      "J ld",
      "e dr",
      "o X",
      "dh llN",
      "4 21",
      "u W",
      "wI D",
      "bO V",
      "st S",
      "ut Un",
      "3 1",
      "E n",
      "Y Y",
      "B D",
      "G c",
      "W Ne",
      "j z",
      "mD V",
      "! T",
      "L b",
      "X T",
      "Z g",
      "l ts",
      "o Nu",
      "q X",
      "t m",
      "ev nq",
      "Z WO",
      "i J",
      "NN b",
      "sn J",
      "! J",
      "N ls",
      "U v",
      "x d",
      "E d",
      "b v",
      "m qi",
      "q lt",
      "u U",
      "x L",
      "nI O",
      "J K",
      "Z S",
      "v Iz",
      "sq h",
      "Q rr",
      "NZ J",
      "ID i",
      "ba L",
      "N Wt",
      "O Y",
      "S C",
      "T w",
      "W lVS",
      "Q I",
      "v Ie",
      "sq lJ",
      "A X",
      "x qg",
      "z S",
      "sa U",
      "4 18",
      "7 11",
      "A Z",
      "F i",
      "NdaW SWrehJs",
      "W Js",
      "X Z",
      "y j",
      "D T",
      "h V",
      "h ts",
      "q lJ",
      "wI g",
      "! p",
      "6 11",
      "E V",
      "S !",
      "S a",
      "S we",
      "Z nr",
      "Z nl",
      "f V",
      "h b",
      "Wt r",
      "tW SWrehJs",
      "bR q",
      "4 16",
      "P b",
      "T U",
      "ah aaW",
      "aa nw",
      "Is D",
      "N @",
      "Ns l",
      "aV S",
      "RE x",
      "F V",
      "w gg",
      "Ns aa",
      "lw sS",
      "B V",
      "F Dh",
      "P e",
      "t T",
      "x A",
      "B v",
      "K a",
      "V aW",
      "a tW",
      "o i",
      "bc b",
      "bc i",
      "F WZ",
      "K h",
      "N lJ",
      "n lw",
      "s E",
      "y t",
      "wd A",
      "nn Nn",
      "1 24",
      "M C",
      "R e",
      "W gI",
      "q p",
      "ng v",
      "66 82",
      "tJ tt",
      "F wQ",
      "v i",
      "by Db",
      "M l",
      "u z",
      "ww Y",
      "P C",
      "bO B",
      "Iq E",
      "rz L",
      "wZ d",
      "bm T",
      "u s",
      "NnZ Js",
      "K R",
      "l es",
      "nB w",
      "re L",
      "0 3",
      "G U",
      "m ZQ",
      "w lJ",
      "sa e",
      "YI Lmn",
      "D j",
      "F !",
      "G u",
      "J g",
      "f z",
      "h st",
      "i l",
      "es f",
      "rG l",
      "b oB",
      "n Wb",
      "v R",
      "y r",
      "NZ W",
      "aW SWrehJs",
      "su Nl",
      "lq Nn",
      "rz B",
      "zh Js",
      "mO L",
      "B nO",
      "D WZ",
      "G C",
      "G ss",
      "J WN",
      "Z x",
      "i t",
      "q Y",
      "11 4",
      "JJ d",
      "F x",
      "P n",
      "a m",
      "j h",
      "p B",
      "Ne Ue",
      "11 2",
      "Nl WN",
      "R K",
      "e WW",
      "f v",
      "n WZ",
      "z Q",
      "Ne t",
      "WN JW",
      "dV S",
      "c H",
      "l Nw",
      "q ww",
      "y p",
      "aa D",
      "fB V",
      "8 3",
      "O Iw",
      "X r",
      "s K",
      "ll h",
      "wI c",
      "mB i",
      "Tru te",
      "B L",
      "E U",
      "X Nn",
      "d aJ",
      "r VZ",
      "s lW",
      "Js !",
      "WW u",
      "24 2",
      "bD gI",
      "bN c",
      "P l",
      "Y n",
      "a nI",
      "i y",
      "t NN",
      "Js WN",
      "B W",
      "N lW",
      "W aa",
      "X su",
      "d m",
      "l Ws",
      "o J",
      "Wt rNb",
      "bO Z",
      "X s",
      "o l",
      "z A",
      "zc R",
      "Y D",
      "g bB",
      "m G",
      "re qQ",
      "aa w",
      "ZN t",
      "Wu b",
      "4 22",
      "M E",
      "P y",
      "i s",
      "D Iz",
      "N E",
      "N Wa",
      "O qD",
      "V J",
      "b e",
      "f e",
      "p A",
      "q tr",
      "r C",
      "y Wb",
      "Nn U",
      "lw Ws",
      "htW l",
      "WWZN G",
      "6 44",
      "h NZ",
      "h Nn",
      "mn m",
      "M A",
      "P U",
      "o C",
      "tr sW",
      "tt tW",
      "L Ie",
      "N Je",
      "R C",
      "R l",
      "d c",
      "bR cw",
      "GR If",
      "Td J",
      "R J",
      "Y C",
      "e sZ",
      "z y",
      "re v",
      "WZ V",
      "11 8",
      "bB c",
      "624 2",
      "D tZ",
      "E h",
      "L u",
      "r j",
      "II D",
      "na wN",
      "Wq Tn",
      "I DO",
      "S q",
      "S t",
      "Z bn",
      "x C",
      "x v",
      "y Db",
      "22 8",
      "su r",
      "A Ne",
      "F wf",
      "T g",
      "U lN",
      "d f",
      "f qD",
      "p O",
      "p q",
      "qt S",
      "F F",
      "I OO",
      "J WZ",
      "N ll",
      "N Ws",
      "d I",
      "ah Z",
      "tN A",
      "Wz J",
      "M J",
      "Q sW",
      "V !",
      "Jq W",
      "su r!",
      "bR h",
      "oc ufc",
      "rG q",
      "B P",
      "Q Y",
      "T C",
      "i q",
      "o qO",
      "x a",
      "nI gr",
      "Iq P",
      "248 211",
      "K Z",
      "n Cw",
      "ll R",
      "aa Z",
      "M s",
      "R H",
      "d y",
      "h !",
      "cc o",
      "sD Iw",
      "5 9",
      "N j",
      "R P",
      "Z Dt",
      "i v",
      "l qD",
      "tZ W",
      "QN lld",
      "nU f",
      "aJs A",
      "G G",
      "f W",
      "x K",
      "z VS",
      "sa t",
      "Nz re",
      "ba V",
      "wa Ow",
      "1 62",
      "b ev",
      "f L",
      "l P",
      "p ns",
      "Js Ze",
      "rN z",
      "st d",
      "NQ J",
      "qr nah",
      "6 22",
      "O F",
      "R I",
      "f Cw",
      "h sW",
      "y h",
      "Ns r",
      "84 2",
      "nb u",
      "lU Wu",
      "L o",
      "N M",
      "NN s",
      "ll s",
      "bn Db",
      "su t",
      "AN c",
      "mz t",
      "K t",
      "N Y",
      "S v",
      "n Db",
      "t ht",
      "Ns a",
      "bn bbc",
      "ar n",
      "QZ TJS",
      "!Q J",
      "Qc V",
      "sSNdh lJ",
      "K b",
      "U q",
      "Z Y",
      "e Y",
      "l tZ",
      "A G",
      "V n",
      "Z DO",
      "QZ Wa",
      "SWreh Jq",
      "F m",
      "F ds",
      "J R",
      "K I",
      "L r",
      "f r",
      "n lq",
      "ll VS",
      "ssh et",
      "F Wd",
      "l j",
      "s llZNe",
      "II B",
      "II P",
      "at w",
      "QVs ld",
      "QV sWd",
      "8 14",
      "R Nr",
      "T Nu",
      "b oc",
      "p C",
      "y S",
      "WZ nNZ",
      "aJ tt",
      "fN V",
      "ni Q",
      "zv Eq",
      "D Iq",
      "L U",
      "b IN",
      "Iw C",
      "str Nd",
      "UnQ NsQ",
      "L F",
      "d n",
      "f Y",
      "f Vs",
      "t Js",
      "z Y",
      "NN eN",
      "ww E",
      "26 2",
      "eT !N",
      "WV w",
      "Cs Te",
      "fN v",
      "Tll H",
      "! I",
      "C G",
      "M h",
      "T Nr",
      "U WW",
      "h u",
      "p F",
      "lV ra",
      "16 1",
      "WNn NZ",
      "lsTe G",
      "WsN! t",
      "4 11",
      "V l",
      "t Aa",
      "su a",
      "na Z",
      "AN U",
      "Wn nc",
      "822 22",
      "A w",
      "R Y",
      "Z Da",
      "WZ h",
      "dh S",
      "D Q",
      "T Q",
      "Ns U",
      "Nd f",
      "nZ J",
      "Nr Z",
      "sSNdh llN",
      "WsN At",
      "str NdaJ",
      "G F",
      "N lq",
      "W ds",
      "d B",
      "m Y",
      "o qD",
      "q QN",
      "tr Z",
      "82 8",
      "aJ at",
      "tn nw",
      "! sW",
      "4 241",
      "C n",
      "E Y",
      "G O",
      "J Wb",
      "K j",
      "M w",
      "b lh",
      "o D",
      "p qs",
      "x Z",
      "wI w",
      "Wh !s",
      "wZ G",
      "JW Nn",
      "gg mB",
      "sU nth",
      "! u",
      "K Yqq",
      "e z",
      "p sq",
      "q la",
      "t v",
      "Js o",
      "ss l",
      "R yI",
      "g u",
      "v z",
      "w Da",
      "x P",
      "yI Y",
      "G J",
      "I WO",
      "N P",
      "d C",
      "e f",
      "e qf",
      "m S",
      "p Q",
      "t Vt",
      "ll dG",
      "ah S",
      "Ns J",
      "TNZ t",
      "7 44",
      "R n",
      "T M",
      "i F",
      "i j",
      "m Ic",
      "n ls",
      "p D",
      "u wI",
      "nr Nd",
      "na J",
      "Zl a",
      "A ts",
      "O ls",
      "U X",
      "X X",
      "g G",
      "Iq I",
      "zB b",
      "ba v",
      "bg h",
      "zL Cq",
      "ie qf",
      "m Iz",
      "r E",
      "s wI",
      "x Y",
      "x h",
      "Bw Q",
      "!s Wt",
      "RE o",
      "J ft",
      "a j",
      "b Ne",
      "c K",
      "l E",
      "r Ns",
      "w Og",
      "Nq Q",
      "YI vmn",
      "Ih bn",
      "R Q",
      "S n",
      "V U",
      "a Db",
      "j N",
      "q T",
      "w Dt",
      "x !",
      "Wa Z",
      "nq Eny",
      "NQ l",
      "eV Sere",
      "mz a",
      "K A",
      "r X",
      "z DN",
      "bD Z",
      "WD Z",
      "ldsW NZ",
      "VtW ly",
      "0 7",
      "W Ns",
      "t G",
      "t VZ",
      "y v",
      "84 1",
      "nZ l",
      "lh rt",
      "at nw",
      "ID r",
      "68 8",
      "F lh",
      "I WN",
      "J Jt",
      "e ll",
      "s lJZNe",
      "bn m",
      "aV t",
      "M a",
      "O j",
      "m V",
      "Js J",
      "Nn J",
      "Gd IQ",
      "EE w",
      "!NN eNN",
      "5 0",
      "B H",
      "I Nb",
      "K T",
      "q e",
      "r JN",
      "s T",
      "ll O",
      "nB Z",
      "Ih Fn",
      "248 21",
      "A L",
      "M Z",
      "Q O",
      "Y U",
      "b nZ",
      "g m",
      "u rA",
      "v J",
      "x t",
      "Iw J",
      "F tZ",
      "M q",
      "S i",
      "Z WW",
      "b qq",
      "s aht",
      "II E",
      "IZ C",
      "hs gh",
      "gg bB",
      "Du b",
      "G o",
      "S d",
      "q fN",
      "Nq aa",
      "zh Cq",
      "zh nq",
      "48 21",
      "zL Eq",
      "ox d",
      "J p",
      "O p",
      "O Nw",
      "U K",
      "j E",
      "n nc",
      "bD B",
      "tW w",
      "eT d",
      "N sW",
      "Q K",
      "a nw",
      "h C",
      "m mX",
      "Iw g",
      "nI Oc",
      "bD D",
      "ds r",
      "Ww nNw",
      "sZ d",
      "WV Z",
      "reh Js",
      "A v",
      "L R",
      "M o",
      "n Nn",
      "11 6",
      "bR qr",
      "zv Cq",
      "Bd L",
      "7 3",
      "9 22",
      "L A",
      "T p",
      "bO w",
      "aW d",
      "st U",
      "bg v",
      "bC v",
      "! h",
      "I nd",
      "K y",
      "a Q",
      "b G",
      "e rz",
      "f lw",
      "f Ew",
      "o NN",
      "WW Q",
      "Ns tt",
      "J qD",
      "O wI",
      "X nG",
      "e o",
      "h D",
      "i P",
      "u c",
      "NN d",
      "AN u",
      "aN tr",
      "la s",
      "IO x",
      "sn W",
      "2 94",
      "F NZ",
      "L K",
      "V NZ",
      "c M",
      "h n",
      "l k",
      "m nw",
      "u R",
      "Nn t",
      "Ne u",
      "WN z",
      "ss V",
      "Nz N",
      "sr nth",
      "GI Lmn",
      "drNn l",
      "haW l",
      "S E",
      "f y",
      "v Fn",
      "NN ssW",
      "ss Z",
      "nO w",
      "cw Z",
      "Nq t",
      "eh Jq",
      "WWtr N",
      "V I",
      "Wt t",
      "Bw f",
      "bR s",
      "dl NZ",
      "gO mB",
      "C U",
      "P Iw",
      "R R",
      "X g",
      "X ll",
      "n X",
      "w Dg",
      "lq W",
      "bg L",
      "rZ e",
      "SWrzh Js",
      "A x",
      "Q f",
      "S T",
      "V y",
      "w Ne",
      "24 4",
      "tt !s",
      "62 8",
      "mD B",
      "qO s",
      "qO t",
      "C Db",
      "J wZ",
      "W DD",
      "c wI",
      "d Vs",
      "q bn",
      "ah !s",
      "Ns lJ",
      "lr p",
      "sr nOh",
      "rd Wh",
      "ub eT",
      "E t",
      "F K",
      "I Wr",
      "M Nq",
      "h T",
      "i zB",
      "r D",
      "ss S",
      "E N",
      "K qg",
      "V D",
      "f G",
      "m bX",
      "v C",
      "WW Wa",
      "su al",
      "OO w",
      "rN F",
      "ar S",
      "ON Or",
      "Im Ic",
      "GR IQ",
      "G II",
      "N !ANN",
      "U ON",
      "o R",
      "lJ q",
      "DD Z",
      "Td l",
      "Y m",
      "f qW",
      "q Unah",
      "s Na",
      "tr ar",
      "nZ C",
      "Jq n",
      "na w",
      "lV M",
      "ldsW Nw",
      "K z",
      "L C",
      "Y c",
      "Y s",
      "d R",
      "NN t",
      "21 4",
      "lW !!",
      "th Z",
      "F Wh",
      "N WN",
      "S Nu",
      "d Y",
      "r te",
      "u ZWt",
      "y ng",
      "bO N",
      "ts Z",
      "AN fQ",
      "sU nOh",
      "WsN Aa",
      "ANd Q",
      "D aa",
      "L D",
      "Z nJ",
      "d O",
      "j r",
      "o P",
      "r Ws",
      "s Te",
      "t M",
      "bO wI",
      "16 6",
      "JW !!",
      "!N c",
      "Q M",
      "S P",
      "g Q",
      "q Wa",
      "v Y",
      "ll A",
      "18 24",
      "Nz NN",
      "S x",
      "j l",
      "s la",
      "WZ I",
      "mD wI",
      "st al",
      "sd A",
      "K !",
      "K n",
      "c ww",
      "e E",
      "p I",
      "v l",
      "Nn ds",
      "BB x",
      "ZQ F",
      "sS NR",
      "zh Jq",
      "lJZ Wh",
      "dZ r",
      "B Js",
      "V eN",
      "f U",
      "NN WWZ",
      "bD N",
      "aW r",
      "yI G",
      "!! NN",
      "Ih mn",
      "Jd sW",
      "M O",
      "Q G",
      "R qD",
      "T WL",
      "U j",
      "a x",
      "b NZ",
      "b lV",
      "h I",
      "Ws J",
      "re sf"
    ]
  }
}